eral
Ġconcern
ĠHere
Ġhouseholds
Ġfreed
ĠReligious
anza
Ġair
Ġsticky
Ġguitars
ĠEmblem
ĠBCE
ĠTitan
Ġterritory
ĠAuto
Ġdisband
Ġbatt
Ġexplo
ĠOlympics
Ġsurroundings
Ġguerrilla
Ġintegrate
ĠTide
inate
Ġdonated
ĠFranch
ensional
Ġwed
Ġclim
Ġ10000
Ġconstituency
Ġzoo
ĠKear
Ġseminar
Ġconce
Ġshops
ĠTC
Ġinsightful
Ġma
ĠNicholas
Seriously
Ġcrafts
closure
utf
ogg
Ġdemonstrate
Ġeconomists
eely
Ġpanels
Ġtower
Ġaisle
Ġparticipated
ĠBangalore
Ġheartfelt
gin
Ġreside
LT
Ġaffidav
osh
Ġslap
lights
ĠSigns
ategic
Ġmiscon
Ġborn
Ġloan
Ġintends
ĠChristie
Ġsatisfactory
UGE
ĠstrutConnector
ĠException
âĸĴ
ĠPack
Ġguitarist
ĠSpock
ĠGoddard
ynthesis
Ġbullet
ulation
Ġinvaded
iffin
luent
Ġinjected
Ġyourself
Card
Ġgeo
Ġduty
Ġ..."
ĠReincarn
Ġelectromagnetic
person
Ġstir
pet
ĠWhat
ĠPhillies
Ġconcerned
Ġstomach
Ġpairing
if
Ġcounters
Ġinterests
Ġinsulting
Ġgard
Ġsturdy
hus
ĠColleges
ĠEva
Management
Desk
ĠISBN
Ġdescription
ĠBr
agonist
Ġsystem
Ġeruption
arded
ĠIntercept
ĠLeilan
Ġtops
Ġworkers
Ġrack
ĠDarth
Ġhorn
for
Ġnick
Ġprefrontal
Ġcontractor
engers
ĠDarrell
Ġreproduce
653
ew
irm
ĠBing
Ġdial
ĠTues
182
Ġtwins
Ġmorning
IER
ĠNetanyahu
yes
ĠMick
ĠWheat
Ġskept
Ġsubsequent
Ġgodd
Ġsuburb
Ġcryptography
Ġprojections
ect
ĠYelp
Summary
ċ
ĠAlph
Ġrelentlessly
oenix
eker
Ġinternet
ij
ĠYellow
Ġgasoline
break
ĠMIS
Ġchants
Ġlackluster
ĠSchwartz
ĠVern
ĠAuditor
Ġoversees
ĠPaint
ĠCuriosity
ansom
jac
Ġdigest
Ġphotos
Ġinnovation
ĠGibraltar
Ġpractically
ĠWeeks
Nob
Ġsynergy
Ġsettlement
Ġvaccines
focus
06
ĠByte
INA
Ġaggregate
ĠHabit
ĠHernandez
Ġantennas
Ġindoor
penter
Ġcitations
Ġ-=
efully
ĠFrazier
Ġreload
Ġfeature
Ġankles
Ġfo
317
Ġinfancy
Ġmisdem
ĠOss
akable
icularly
Ġblatant
Ġscheme
TOR
ĠHDMI
ĠAssass
Ġubiqu
ĠInvestigation
Ġhotline
Ġrash
Ġrece
iso
Ġsignature
ĠAi
Ġbuys
writing
ĠPreview
Ġbidder
pei
ĠCB
uke
Ġpurge
users
ophysical
ĠWouldn
Ġcavity
Ġdinner
Ġ($
Wh
ĠTu
ĠAdult
Ġfootnote
Ġtriglycer
ĠJiu
ĠRaqqa
Series
ĠHarbour
Ġwhose
ĠStyle
ĠHector
ĠManit
lessly
umb
ache
Ġcolonies
ĠTwain
ĠGrave
Ġthinker
ikh
ĠOpportunity
higher
ĠJapanese
Ġchests
Ġsparkling
Ġflats
ĠImprove
rower
Ġavoiding
ĠSide
Ġtripled
çĽ
ĠAT
ĠHurricanes
Ã¯ve
ĠPoint
eri
ĠInspect
Ġbelieves
urers
Ġreliever
ĠBI
Ġgovernment
lov
ĠTarg
ĠKnot
Mur
Ġhomosexual
Ġwart
Ġspokeswoman
Â»
ĠIllustrated
ĠRoth
Ġresulted
ĠAgriculture
Ġculminated
ĠFISA
]'
ĠRegulatory
thinkable
Ġcompare
Ġvertex
gray
ĠBow
ĠDEA
Ġskinny
sword
Ġpalate
Throw
ĠNish
patrick
ĠAngular
Ġdummy
ys
Ġchemistry
424
Ġstatically
ĠFun
bank
Ġviewer
ĠSer
yt
ĠTasmania
ĠVAL
ĠSchumer
302
ĠMod
ĠGerry
OUND
efer
Ġtriple
Ġasynchronous
ĠArsenal
ieft
ãģ¨
Ġworthwhile
Ġteamwork
Ġassert
hd
ĠHolden
Ġinstruments
Ġpolio
Ġfurnace
Ġindividuality
Ġathletes
Ġka
Ġultra
Ġtoday
Ġmigrant
Ġdiscreet
Ġencyclopedia
ĠCraig
ĠCompton
Ġdusty
709
Ġemotionally
Ġâĺħ
ĠPractices
Ġconver
Ġbothered
Ġprints
ĠASAP
itu
Ġbrute
PRE
Ġwhistlebl
ĠRx
Ġvirtuous
Ġtrain
ĠANGEL
Ġbirths
naissance
ĠSkies
Ġposter
ourse
Ġbarrier
Ġallowances
Requires
regular
ships
Ġcounteract
Ġcommunism
Ġdesperate
Ġstalled
ĠAndrea
HE
Ġremotely
ĠAHL
Ġprosecute
Ġplotting
Ġact
Ġinvolves
ocamp
Ġequ
Ġhair
Ġimports
ĠJal
ĠBrain
ĠFres
Ġelic
leck
Ġgears
Ġrooted
Ġ'
ĠSSD
Ġwhence
Ġtheir
Ġy
ĠHop
ĠSHAR
ĠApply
yrights
Ġbirth
Ġsys
ograms
ĠCannabis
ĠProphe
MY
irled
available
Ġfine
ĠArchitects
ĠSECTION
ġ
Ġprivacy
ABLE
Ġwiden
ĠMcH
ĠRegulation
ĠCemetery
deal
yard
Ġwelcomed
Ġminer
blocks
Ġcountering
atom
Ġeffective
ĠCig
Ġmicrobes
ĠTechniques
Ġbacklash
ĠSoph
Ġtutorial
91
ic
ams
Ġdisbelief
ĠAgo
Beh
Ġuncertain
enced
Ġhabitats
Ġtrave
{
ĠDallas
tag
Ġstations
ĠHunger
esteem
ĠBackup
Ġamaz
Ġcurriculum
ĠWide
Ġmachinery
Ġclause
492
Reviewer
72
Ġintolerance
oren
Ġreinstated
Ġ640
isexual
Ġhoops
ĠPath
-+-+
IGH
ĠMeasure
ĠJesse
Ġdefinite
ĠWithout
Ġsuccumbed
Ġshar
Ġmitigating
Ġcatalyst
iscovery
Ġdoorway
your
Ġcreep
ĠArcane
Ġmainland
Ġrenewal
Ġshowcasing
oker
Ġor
aldo
ĠHonda
IDENT
raud
nut
aan
^
Ġcharismatic
ĠNH
Ġfam
ĠY
Ġbrethren
ĠPrairie
ĠGOLD
Ġcatapult
Button
Ġbreed
Ġdirty
ĠBrown
ĠConway
fried
ĠFee
Ġ403
ayette
Ġenqu
ĠLiverpool
24
Ġ1992
Ġpodcast
Ġuntrue
Ġinformational
asing
ĠAppl
ĠPV
Ġblamed
Ġdivergence
!)
Ġintellectuals
ĠPatriarch
Regardless
Ġresid
walk
Ġdirectories
Ġretire
Ġhealing
Ġdenote
Ġ1024
ĠAmbrose
ĠUkip
Ġantidepressants
ĠTerran
ĠPenguin
Ġshock
pas
Ġpreaching
ĠKus
Ġrecogn
ĠHR
itone
ãĥĲ
ĠInvestigative
Anne
Ġbel
ĠOswald
Ġ199
Station
ĠGent
Ġinteg
Ġdimensional
ĠCitiz
ĠZimmerman
ĠMAT
ati
him
ĠDevice
Ġbirthday
Ġgunned
Ġcolourful
Ġbooted
ĠUnable
ĠCoinbase
ĠLotus
ĠDamien
ĠÂŃ
Ġtensions
Ġtherapy
Ġbab
Ġmarqu
à¤¾
Ġmigration
Ġeyeb
Ġavatar
aggressive
Ġaverages
ĠClay
ĠDOES
Ġabolish
History
Ġillustrating
ĠNether
ĠTraditional
ln
Police
Ġenraged
ĠPepe
Ġtrendy
berto
ĠReaction
Alternatively
Ġprofile
ĠSimilarly
ĠIN
Ġflown
attack
aukee
Ġlaun
Ġtried
Ġprimer
Ġinfinity
ĠJessica
Ġintestine
mart
Ġ(âĪĴ
Ġflashes
Slow
Ġcardiovascular
ystem
dir
Ġstagnation
ĠOff
Ġvarieties
Ġcommunity
518
contained
Ġfade
Ġrising
Ġhappier
Ġdislike
Ġsurrogate
Ġrope
Ġcircus
Ġpe
ĠLW
Ġversions
iol
Ġsuscept
Ġartificial
Ġcreative
Ġjourney
Ġ18
ĠTillerson
recogn
Ġguaranteeing
ondo
Ġoxidation
erion
Ġinitiation
cend
Ġlocom
ĠPicture
ĠConclusion
ĠJinping
ĠBrowne
ĠKlux
Ġilleg
Ġm
Ġav
ĠKelvin
Ġembedded
iv
ĠWiggins
Ġ747
og
Ġdescribes
Ġtroop
tk
lasses
Range
Lim
ilon
alien
adays
ĠBrady
Ġtypical
Ġnicotine
'?
Firstly
Folder
ĠJ
Ġcushion
ENG
Ġattire
ĠEmil
cephal
Ġboost
Ġrituals
Ġnoisy
Ġpolitely
Ġprest
Not
Ġwasteful
la
Ġshrinking
Ġembattled
Ġto
Jake
Elsa
icipated
GBT
Ġborrower
ãĥŀ
Ġcer
efficients
ģĸ
ĠTwitch
prises
727
GF
load
Ġupro
ĠChristians
small
density
ĠSpanish
amen
ĠMane
ĠEverett
Ġfest
165
Ġgeographically
thood
Ġdebugging
bar
Ġwrestling
places
Ġcumbers
Ġdisplacement
Ġintimidated
ĠÂ®
normal
Ġbeer
aho
Ġverses
Ġrelent
ĠAndromeda
Ġcommemorate
Ġquantities
Ġextent
Ġplanes
ĠSl
Ġreceptive
ĠPoll
Ġratification
.....
Ġrotated
Ġflew
erk
Ġcrop
Ġcrushed
enna
Ġlobster
ĠKeane
bedroom
Ġguidance
Ġtracks
rat
Ġearth
Ġresusc
Ġcommute
Ġeru
wk
annot
OK
iotics
ĠBowser
ĠFIX
Ġimpat
Ġjournalistic
ĠGaul
Got
arf
inch
ĠPET
Ġdelegated
Ġjurisd
stats
ĠVictoria
arious
Ġtheorists
Ġ1999
idents
Movie
gif
ãĥ«
Ġdramatically
Joseph
ĠNorn
ulkan
ĠCortana
directory
340
Ġtutorials
Ġactress
Oct
ĠAsgard
Ġemotional
ĠJoshua
ĠIndonesian
Ġclothes
etsu
ĠBanks
To
what
Ġpraying
ĠClarkson
Ġcompensate
ĠUnlimited
Ġdiverse
ement
letters
ĠMER
ĠDance
445
ĠSark
fulness
Topic
ait
186
Ġfeminism
UU
ortex
Ġmillenn
Fact
Ġstates
azed
ĠMAG
ĠMany
ILD
ĠHistory
Ġintroduction
Net
Ġgritty
ĠAlc
Lie
ĠCafe
Ġconduit
Ġforegoing
fine
Ġaudits
!"
Ġwrinkles
Ġcharming
Ġ1951
Ġgrown
pox
ietal
Ġbri
metic
ãĤĵ
ums
Ġfallout
Ġsuits
ĠYas
western
Increases
vae
ĠVertical
Ġoccasion
Ġwik
Ġsleep
Ġcultures
ĠNA
Ġreacted
Ġsyn
Cour
Ġoak
Ġatheism
endon
Ġenclosed
Ġkid
ichen
itis
ĠUntil
India
Ġwig
ĠMate
ĠInside
BI
Keith
burg
lear
ourney
Ġnine
Ġrune
ĠMoscow
Ġtuned
Ġmuted
warn
hem
Streamer
Ġprofoundly
Ġmomentarily
ĠTrotsky
Ġsuggests
ull
Ġretreat
Ġdoor
heny
Ġid
Ġnobody
Ġfinancially
Ġtha
Ġfundra
Ġhandcuffs
Ġacres
ĠSag
Ġunrel
Ġheroism
60
Ġmanagers
Ġ249
ĠBELOW
Ġsignals
Ġsynth
Ġardent
Ġballoon
032
ĠCCP
ĠOops
lli
hid
Ġrefused
Ġcrowdfunding
enstein
Ġyourselves
otten
Ġcharacterization
ĠRamsey
Ġsupervision
Ġsoftened
Ġappe
Application
Ġfellows
Ġdiction
Ġhesitant
atches
nsic
Ap
Ġfoundations
ĠArctic
Ġpopular
Wing
Ġwillingness
Ġtents
Ġaccumulated
Or
first
ĠPom
educated
Ġsuperhuman
ĠAuction
Ġloophole
aii
Fuck
elsh
successfully
Ġwithin
Ġhtml
act
Ġmating
ĠUnderworld
ãĥ¼ãĥ
Ġanalyze
Ġattending
Ġtextures
Ġinsanely
Ġamps
Ġfatalities
ĠCustom
Hyper
ĠCrossRef
roma
ĠCommentary
Ġcounterterrorism
ĠDam
ĠTransmission
ĠConsulting
jing
RON
acers
Ġstimulating
Ġcracked
Ġkissing
ģ
Cont
114
Ġorigins
ĠiPhone
otes
lived
ĠDiversity
kk
otom
ĠLV
Exc
urations
parser
Ġmagn
ĠEnding
Ġprize
apa
ĠWer
Mus
umerable
isite
viously
Ġcivilian
Ġescaped
ĠCongress
ĠMonsters
Ty
Ġisot
ĠWinter
ĠKimberly
ĠFrequ
Ġinstantly
agger
Ġroadside
Ġgot
induced
Ġsubscrib
robat
Ġdirectives
ropri
Ġmind
Later
Ġadj
problem
Ġassisted
Ġpatron
ĠChannel
Ġtact
ĠBUR
Ġcartel
Ġfax
=/
ĠCONFIG
leon
Ġblocks
Ļ½
ĠIts
Ġgolf
ĠDalai
ĠRJ
At
Ġmentions
chet
Ġsimply
Steel
gaard
ĠMoreover
Ġuptick
Ġguessing
Ġmeanwhile
Ġproximity
aterasu
Ġclaws
ĠFro
Ġrevolutionary
Ġaval
Ġcant
Ġgrinding
aler
Ġunforeseen
ĠCommunism
ogy
Sch
ĠStern
Ġhorsepower
ĠFur
ĠBottom
Ġwire
Ġearthquakes
location
Ġpavement
Ġmeltdown
aucus
ĠSterling
Ġfined
åı
ONSORED
there
Ġverb
Ġarche
Ġpracticable
ĠDC
Ġgcc
?????-
!!
ĠCONTR
Ġegregious
contract
Ġutterly
Ġlaughing
arios
INC
ĠSaskatchewan
Ġstones
Ġhaunting
COM
ĠEC
Ġinfield
label
Ġfanc
Ġconscientious
Ġfashionable
ĠWrong
Above
Chan
%%%%
idity
ĠNotification
Ġequate
Ġplac
Ġsuccessfully
ucha
Ġrestores
Ġideological
Ġviolent
Ġprivatization
asuring
ĠPeterson
Ġa
ter
TR
Ġtut
ĠSioux
ppelin
Results
ĠTire
Date
Ġmg
Ġsidewalk
ĠMathematics
ree
Ġknockout
Population
Ġspeeches
ĠHutchinson
Same
Ġjoystick
Wide
MK
ĠNikon
61
episode
Ġphilosophies
Ġwins
Route
Ķ
REP
ĠMir
ĠIslands
ointment
ãĥİ
fitting
>)
Nic
Ġassign
apeshifter
fixes
([
nw
Ġshooters
Ġlibel
Ġcombining
ĠNina
ĠMaw
Ġprolong
228
Ġunfamiliar
Ġ****
Ġdestro
Ġcustomizable
ĠDar
amar
absor
ĠPeer
679
lessness
ocks
Ġinfringing
Ġnab
itarian
Ġyo
ĠNexus
Ġcannot
Ġemblem
Follow
ĠGeorgian
ĠHolocaust
ist
055
bt
ĠRecipes
1900
hetic
Ġhallucinations
cko
Ġ:)
Brow
Enlarge
Ġcrackdown
gal
Ġjewelry
Ġ850
ĠSlate
Ġinitiated
elist
socket
æĦ
Ġattach
ĠGR
Ġswings
Ġdebugger
ĠMcKin
ova
ucc
ĠWritten
Ġdependencies
Ġjudicial
Ġlasted
ĠDot
Ġimagined
maybe
Ġinfuri
ĠWang
ric
Ġgarment
Ġinward
Ġpowers
Ġdementia
detail
ĠScourge
furt
Ġstreak
zen
Ġunveiled
cer
Ġcared
ĠMusical
Ġreception
oline
090
ĠGoth
undy
kHz
ace
Ġtailored
Ġunsuccessful
drive
Ġcond
Ġunexpectedly
Ġinconvenience
Ġjustices
bered
Ġpersistence
ĠBurk
ĠXen
Ġprotector
ĠBannon
chlor
Ġâĵĺ
ĠClaud
Mike
Ġmight
Ġnarciss
rx
Ġreputable
ĠState
respect
Ġdisappeared
ĠBarnett
258
ĠJury
Ġlace
anim
Congratulations
Raid
Ġkick
ĠShuttle
journal
Ġgentle
Ġsale
Ġkay
Ġinfringement
ĠRemoval
Ġcontinues
Ġcomprehensive
Thus
Ġinspiration
fell
arag
Ġss
Ġgren
141
ĠQuiet
Ġfodder
Ġcable
Marginal
ĠRudd
ĠDa
ĠDeaths
Ġendorsements
ĠTed
Ġvillages
Ġexpertise
ĠCommons
ĠEss
ENT
lander
Ġdiss
Ġhurricanes
ĠHazel
Ġcentrally
Ġpatent
Ġeconom
519
Ġkiller
Ġfragile
ĠBrid
Ġfindings
ĠMU
Ġmetast
ĠFitzgerald
Ġfed
Ġslicing
Ġautomobiles
293
ĠRichard
yellow
How
ĠRO
Ġuncover
olar
Ġoverthrow
scar
ĠFalling
Ġaction
Ġmagazines
Ġnominate
ĠPilgrim
ĠContinent
ĠURI
oh
},"
Ġcom
Ġcomplexity
Ġattempting
ackets
Ġveter
zbek
Ġsuccinct
ĠStephenson
Ġcum
Ġceremonies
Ġspew
ĠJackie
ĠDK
ĠManufacturer
ĠDynam
Ġmisfortune
DNA
Ġtorrent
Ġgaze
ĠRidge
Ġclarity
inately
Ġdiagram
ĠMessiah
ĠCanaver
ĠPerformance
ĠRails
['
xy
ĠItemLevel
ĠEnhanced
Ġchromosome
ĠDiet
dig
aution
Ġmisunder
ap
ĠIPS
Ġfellowship
Ġhardness
Ġbum
Ġform
ELF
ocumented
ĠAven
ĠKir
ĠKent
ĠWorker
Ġpatiently
ĠNG
mobile
jack
aints
Ġepisodes
ilton
ĠGolf
ĠCross
Ġolder
Ġcarn
ĠSMS
Sw
ĠWhite
ĠRemove
Bet
ĠTwice
Ġ??
Ġconstructs
Ġtide
Ġaccur
IV
Ġparap
LAN
Ġthor
Ġaccommodate
strip
Provider
Exper
ĠDrops
Ġinspection
ĠVoldemort
cycl
Ġspider
ĠOvert
Ġsty
GL
Ord
ĠBrach
LE
agine
started
âĢ³
lique
Contact
Ġoverwhel
Ġsmartphone
Ġseeks
ĠVeget
Ġperipheral
iti
ĠPhysicians
steel
Ġdozens
ĠHours
ĠFacilities
Ġpuppet
Ġincumbent
ĠBach
Ġsynthetic
ISS
Ġopin
Lean
ĠYugoslav
('
cli
Ġresponsive
olen
Ġblasted
Thankfully
Ġdownward
text
IRE
onents
ĠJoan
Ġgle
Ġhints
Ġchim
Ġsuspect
oshi
ationally
ĠIniti
Ġinvite
kamp
Ġfrenzy
abies
Ġlux
zsche
Ġlifestyles
ĠBritons
Ġneuron
Ġstands
Ġcharms
party
ĠTan
ĠPlenty
below
profit
adding
Bernie
Ġaudience
Ġunderstands
ĠIraqis
Ġoutside
iard
Ġmanipulative
Ġdemocratically
ĠIncident
Ġadvising
ĠCPUs
ĠAuthors
ikini
Night
Ġâľ
Ġrather
Ġ1862
Ġnevertheless
ĠCarson
animal
clipse
ĠHik
Ġuphold
Lev
Ġhumankind
Ġscen
Ġaspect
Ġconditions
Ġupdated
Ġbehold
ĠPublishers
Ġshowcase
ICE
ĠKiev
Ġoats
ĠVul
ihil
Improve
1000
Ġprotective
ĠTruck
ographs
Ġraw
ooming
Ġborderline
Uber
Ġunemploy
ober
Ġbuildup
supported
Ġbasically
Ġ201
Ġwatched
ighters
ĠShark
Ġlegalizing
Ġmmol
rica
Per
Ġsimultaneous
ĠOrbital
Ġsolitary
Ġinsiders
Ġdeclaration
ĠNewman
Ġwitch
x
Ġrevise
yna
ĠSaban
orius
Ġevangel
Ġprope
overty
Ġcardboard
Ġaliases
published
MIC
Ġappl
ophob
ĠHeist
Ġconfisc
south
charging
Ġattributed
ĠSX
Ġstri
Ġcontra
Ġgirlfriends
Ġfraternity
ĠManor
inic
ĠFestival
Ġrestricts
Sir
ĠKlu
ĠExecutive
579
Ġaxes
Ġmuttered
itles
Ġ[/
Ġrich
Ġcheer
100
bia
578
Ġspecificity
ĠCath
Ġoriginals
Ġcircuits
ĠValid
Ġdrilled
opard
ĠPal
Ġarrest
Ġwireless
Ġgrams
ĠManga
ĠUniversity
OTOS
gement
_-_
uties
Ġkios
ĠVladimir
ĠMcMahon
Ġfooting
Ġramifications
ĠMurdoch
Ġpopulace
ĠMarlins
ĠCoverage
ĠKaty
Ġevery
six
Ġunfortunately
Ġoft
.(
International
Ġanonymous
Ġpact
fun
ature
ĠLIB
ĠWinchester
Ġrepercussions
Brad
Ġmobilize
Ban
Ġoccurrences
ydia
ĠCFR
Len
Ġbattalion
Ġhon
ĠPosted
Ġsadd
Ġholding
ĠJoint
219
Ġdesk
ĠSynt
Ġhars
ĠDom
Ġafflicted
Ġtunes
Ġsacr
astrous
ĠWax
Ġfrequent
aroo
ĠReese
Ġcass
itable
Ġspacious
Ġdiamond
cal
Platform
Ġsurn
Psych
Ġwant
Ġchemicals
Â©
inging
ATER
ĠAPPLIC
ĠSport
otto
Ġvalve
ĠSens
api
Ġsepar
Ġimmediately
Ġnative
ĠScholarship
ĠUAE
ĠGamb
ĠWizard
Ġcrit
Ġ62
finals
ĠXbox
Ġlittle
Ġ153
Ġpoetry
ĠNikola
Ġwaged
Ġstiff
Ġunequivocally
legal
Ġbananas
Rev
ĠPhill
Ġsquid
Ġsteal
Anti
Ġtailor
ĠStudies
Ġhydraulic
ison
Project
Ġquote
super
Ross
ĠPCIe
ãĥĨ
acerb
Ġwear
Ġtotal
Ġups
Ġtruth
want
Ġinject
ĠJake
oca
ĠGreeks
renched
URE
Ġmoreover
Ġunsc
ĠCary
ĠFormat
leness
Ġreligious
Ġprofiling
aces
ĠTay
ĠFiscal
Ġborough
intern
Ġsubstitute
Witness
ä¸Ģ
Ġreviewer
ĠWilliamson
ĠYuk
ificate
ĠZot
ĠWeber
Especially
ĠROB
Ġalgebra
ĠScotia
ildo
ĠKurdish
589
Ġlucrative
Ġwaging
iterranean
Magikarp
Ġgrinned
pecially
Ġfridge
Ġlasts
Ġporous
TM
ĠRai
notes
Ġrematch
ĠNum
fully
ĠContemporary
ĠMAX
Ġchairs
lies
ĠZucker
Despite
ĠFrance
Ġwithstand
Ġapplications
ĠactionGroup
Ġobjection
ĠGoldman
ĠTri
Ġacknowledging
ĠClar
Ġcam
Ġgateway
Ġmeme
cluded
Ùħ
Ġgrowth
Dro
ĠOrd
aden
uni
stan
olutions
Ġlaps
Ġgains
Ġprinc
ĠLuthor
colored
ĠKahn
Ġwifi
Ġenacted
Ġmult
Reilly
Ġbenefited
oll
giving
Ġrod
Ġreservoir
lift
Ġgreeting
ĠDe
MC
Ġunderestimated
cient
alos
Ġcash
Ġskipped
Ġwild
Ġlistener
Ġidentify
ookie
Ġnoses
Ġcrept
Ġexpenses
Ven
Ġcustod
ĠCors
ĠOpposition
Ġadept
Ġvillain
Ġind
ĠHOL
TS
Ġpolished
Alabama
ĠPassive
Ġconsumed
Ġwarned
ĠDoor
ali
test
posal
Ġerratic
Ġanarchism
ĠLikewise
ĠCJ
Fi
ĠNorse
CLUD
["
ĠCategory
tions
Ġconvened
ĠVehicle
Ġconsumption
ere
Ġcaptives
omsday
rian
asus
ĠBenedict
Ġconstituents
ĠContinental
agn
ĠFeb
Ġlocked
oley
ĠLeather
Ġguided
region
Ġprograms
ĠPlease
Ġstitching
Ġthug
=-=-=-=-=-=-=-=-
Ġsip
ĠEAR
font
Ġcommission
Ġ255
Ġleveraging
Ġobese
ĠNag
ĠKeith
ĠJazz
Ġbreastfeeding
Ġreasonably
Ġviolations
eties
Ġarm
ĠAnnex
Ġcorrectness
043
Ġfictional
gallery
Ġbolt
chens
Tweet
ĠRetrieved
ĠSasuke
Ġrou
Ġlargest
Ġvampire
ĠUz
Ġsacrifices
Ġsow
Listener
erving
Ġpromoting
manager
ĠParticipation
speaking
ĠFlip
ĠWash
ATTLE
Ġsolder
ĠAbedin
ĠSyd
Ġseeming
ĠDeadly
Ġprox
Ġausterity
Ġendorsement
ĠSerbian
walking
Kenn
Ġdoesnt
Ġwhere
prefix
ĠCleveland
ĠNX
ĠItalian
Ġservant
qt
ĠEnterprises
ĠAwesome
ĠEternity
;;
Ġreject
ĠLinkedIn
Ġsignaled
ĠRav
ĠVarious
ĠTrey
umn
Flight
Ġshotguns
POSE
Ġcolleague
ĠTemplate
Ġbruising
Ġweak
Ġignores
ĠClient
Database
ĠOmaha
ounds
ĠHats
Ġexemptions
redients
hens
STD
Ġnumerous
Ġshoot
ĠManning
ep
Ġlungs
ĠPowers
Ġdiplomacy
emy
Ġsplash
Ġ1965
Ġdeclines
Ġnonetheless
Ġcritically
punk
ĠOUT
Ġtrooper
Arsenal
Ġpsychologically
Ġburner
ĠSeattle
ĠStacy
ĠScand
agher
Ġhypocr
Ġwealthy
mom
Ġscorp
ĠGust
ush
ĠExec
Ġinstalling
Ġtablet
Ġplayback
Bay
ĠClippers
consuming
Ġpackets
ĠComes
Ba
Ġbart
ĠCombo
Ġimbalance
ĠEthiop
âĺĨ
ĠSamar
Ġquota
Ġclen
ĠHobbit
ĠPowerShell
Function
ĠLenn
CLASSIFIED
Ġroughly
ĠEventually
irmation
Ġrabbi
iter
ĠKrishna
162
ĠBeyond
Ġdeliberations
ý
ges
Ġattracting
ĠMercenary
rities
stic
endium
camp
Ġburgers
Ġimmersion
Ġelectors
Ġpermanently
Ġkins
poll
venant
Ġapplause
Ġscroll
Ġlocations
ĵ
ĠNeighborhood
Ġseekers
Ġongoing
ĠAuthor
Ġexcise
ĠTuring
ĠHaram
ĠDebt
ratulations
ĠLem
ĠTRA
oreal
ĠEh
Ġlatter
ĠNext
Ġante
Ġpoignant
Ġtheological
ĠTrad
ĠSurvival
oper
Ġdishes
race
ĠIan
Ġcoats
ĠAmos
ĠProfession
Ġchlorine
aternal
and
Ġdetach
ĠiT
Ġnetwork
Ġignor
Ġhandful
Ġag
ĠAlthough
Ġfroze
ĠMiche
boost
Vice
tip
ĠChris
organisms
Ġ1941
ĠItal
Place
Reply
ĠPoe
meaning
ĠActually
Ġindefinitely
ĠCambod
387
Ġgallery
airy
Ġconve
Ġrevision
draft
ĠXander
rient
Ġsubordinates
BG
ĠBlocks
Eh
specified
WI
Ġslab
Ġhappened
unks
isdom
ĠAccessed
ouncing
mot
ãģł
Ġconstruct
ĠSwordsman
Ġdinosaur
Ġsolve
ĠMOD
Ġfs
Ġheavier
monkey
deals
nes
uri
Ġaccepts
Ġowed
ĠNarr
EH
Ġplummeted
rod
GES
Ġstrengthening
Ġinstallment
ception
uality
Ġdeities
169
ĠGenesis
Ġunequal
Rep
pain
nown
Ġextensions
Ġ550
Ġ234
ĠRecently
Ġridiculously
idav
ĠTiger
iss
597
ukong
Ġdeterrence
Ġtheolog
Ġ455
Ġnewsletters
naire
Ruby
Ġdexter
Ġthinks
ĠNicolas
Ġreel
ĠBoko
Ġdishon
Ġpacing
Ġassertion
ĠMistress
Ġwines
connection
Ġoffer
ibu
Ġbucket
ĠNeurolog
Ġsho
rir
ĠValiant
Ġreserve
Open
Ġvibrant
Ġde
cigarettes
Ġnames
643
Ġls
ĠPATH
Ġoutline
ĠMonarch
ĠAngry
ĠAthletics
pill
Ġparas
Ġexplos
Ġbl
Îº
Ġswallow
Ġdisproportion
ĠPrograms
sein
ĠScion
ĠGrand
cyl
Ġappears
abb
Ġsell
Ġshield
ĠEFF
rite
held
ĠRiver
ĠCarib
Ġrelied
Ġautonomous
bd
Ġjury
Ġhomes
ĠColumb
govern
ĠRural
Ġdefunct
iley
ĠMich
bler
Jean
Ġdig
ĠQuentin
Ac
Ġchecks
Ġflu
Ġsecrets
Ġpoints
Ġgrievances
Ġsuperficial
ĠMemphis
Ġannexation
ĠJupiter
Ġclam
Ġkill
batch
Ġ241
ĠAnita
ĠCorrect
Ġh
ilo
Ġflexible
Ġwartime
ĠCHR
ĠShock
ĠMaintenance
oire
Beer
ĠSpeedway
Ġresigned
mA
ĠViol
FN
oooo
Ġaroused
oubted
ĠRevolutionary
wear
grades
775
manent
Ġgam
Android
ĠAdv
Ġsand
Ġensu
Ġleast
Ġed
Ġinsured
Ġtracing
Ġhanding
ĠDouble
cock
Imm
ĠVolcano
ĠAdds
Ġashamed
ĠLikes
Ġcool
Ġscrimmage
Explore
ĠFunctions
Ġtimeout
ĠCrab
ittance
ĠForce
loving
assault
ĠArgon
ilda
Ġlending
Ġunwittingly
ns
Ġbenef
Ġreward
Ġentrants
Golden
Ġelusive
Ġoverwhelm
Ġsteep
Ġtails
777
Federal
aq
ĠIcar
ĠTad
Ġkeywords
ĠCanal
Ġsch
ĠBAL
ee
Ġgeneric
Ġesoteric
ĠJul
Ġanalytics
icer
friendly
Ġestimation
ĠAna
ĠWrestling
ĠAdults
Ġ286
806
Ġseek
Ġsigns
ĠMacBook
ĠBec
parency
Ġpursue
ĠEmployees
Ġkickoff
Ġcrater
aylor
enary
================
afi
------------
Rich
ĠMeridian
58
ellig
plets
ĠFernando
N
ĠYard
Ġexpert
Ġcompelled
Ass
visory
edly
ky
gear
Ġinsults
ĠPO
Ġinterstate
ĠThinking
ĠAxe
outer
Object
inances
after
roth
Ġenthusi
clad
ĠCare
Ġ165
Notable
ĠStones
319
ĠTime
ĠMo
Ġvir
ĠUFC
Ġearliest
Ġpedigree
vas
ĠGone
Ġgravitational
jo
Ġtours
Ġministerial
ĠAmen
Ġhelpers
ĠShirley
Ġwiki
ãĥĭ
glass
Ġwholly
ĠVia
ĠTur
ĠMerchants
nutrition
ĠOttoman
ĠPilot
Ġ378
Ġpainfully
ĠTrailer
px
ideshow
ria
ĠFEMA
Ġwithhold
team
Ġbranches
Ġeliminate
Ġfiled
ir
Ġbravery
coal
Ġ74
learn
ĠUd
ĠClassic
Ġsensations
Ġexaminer
ĠMoz
Ġvetted
ĠSidney
ĠSlowly
perture
Ġplayable
Ġreturn
Ġliterature
mpire
Ġcollapse
Ġscarcity
Mix
Ġthw
TL
ĠPond
Ġtransformation
idated
Ġmast
atically
Ġviewership
480
Ġrapes
057
LB
Ġreplen
Ġforgiven
214
Ġcommanding
ĠCountry
ĠCher
89
Ġcorps
KO
ĠRichie
mys
Ġoffensively
Ġstaffer
ĠQC
unky
2011
Att
Ġcircumvent
Ġshepherd
information
peak
Ġevolutionary
Ġpresumptive
ĠTreasury
Ġpron
Ġgeek
ĠTHEIR
apply
ĠCanter
Ġtrimmed
ĠEmber
Transaction
ĠTes
oled
Knight
Ġchrist
ĠLearns
ĠTakeru
wana
ĠTelevision
Ġstere
war
ĠMaggie
Soviet
Ġvideot
Ġattributes
ĠFF
Learn
Ġbuddies
ĠUnderstand
ĠTrails
fal
Ġ329
ĠRÃ©
abi
strap
Ġmaternity
Ġwho
suggest
Ġforms
Ġserver
DL
andals
ĠVoid
ĠAb
oo
ĠChester
Ġturret
ĠÂł
cffff
First
Ġunderground
affected
Ġwaited
Ġloader
Ġeyewitness
Accessory
ĠMog
Ġeffic
Ġlying
PS
VEL
k
Ġempowerment
Ġcrowned
Ġplaintiff
ĠGrind
Build
creat
ĠWeed
Ġmasturbation
itatively
ĠGomez
ĠRats
Bound
Ġ["
Ġcondemning
alogue
ĠStrongh
Ġground
Ġnumbering
ĠRegistry
ocobo
gra
Ġrepeating
eon
cation
Ġcue
________________________________
FORE
Ġattack
ĠKE
ĠMiranda
Ġcamoufl
ompl
Ġwrapper
rh
Ġ[*
Ġfear
Ġstuff
oned
ĠDown
YR
Ġtemp
KI
ĠMay
plete
Ġdeed
ĠSatellite
Only
ĠAmin
ributes
ĠGorge
(),
ĠRodriguez
ĠBronx
Ġ390
Ġtopping
istrate
ravings
AAAA
video
ĠPolicies
annabin
Ġshy
Ġintend
ĠLans
inations
Ġdiscrep
ĠSUR
Ġ=================
immigrant
ĠMove
ĠCreat
Claim
ãĥķ
ayers
Ġarous
ĠInteger
Ġcursor
ether
she
Ġspokes
raught
Ġsimplified
Ġclones
ĠShiva
VP
Ġlaying
Ġcutoff
Ġspecific
display
Ġscathing
ghai
mic
Ġaboard
143
Ore
Ġengines
IRED
Ġpent
Cow
Ġreplacing
earned
ĠPostal
veland
Ġmasterpiece
Ġinvade
ĠSuppose
Luke
Ġhypothes
ĠCBI
Ġnotoriously
ļ
reating
Ġbold
Ġfitting
Ġafterward
Ġclassic
ĠXT
pn
life
USE
Ġ1
akery
ĠSchwarz
ryan
ĠOk
ouri
taining
786
Afee
atherine
Ġdevs
Ġgeographic
Ġautomatic
icating
Ġhoard
ĠLogged
ĠProvision
ĠGOD
rett
Ġcaptures
Mass
washer
Ġ&&
ugi
{"
Ġopposed
Ġdesks
ĠAbs
um
con
ĠNets
ĠKel
self
Ġrefunds
ĠCoulter
ancouver
Diamond
Rules
994
Ġcheating
Ġstretch
Instant
ĠPhysical
ĠAmerica
ĠSail
ĠCopyright
ĠIntervention
Ġdiscipl
Ġcowboy
Ġcommunicated
Ġlogically
itas
standard
Ġinvoke
ĠMarble
Theme
ĠGr
externalActionCode
Ġacademy
Ġactor
Ġqui
=-=-
ĠANY
closed
trained
Ġhalting
ĠNeigh
ĠFiles
redd
ĠFranco
ĠRutherford
ĠRandolph
orse
asser
ortion
ĠJohn
âĢ¢
Ġavenue
ĠNeuro
Ġmissionary
VERS
Ġimpacted
Ġtissue
aram
Ġpregnancies
ĠInner
Ġsport
ĠPorts
ĠSounders
ĠVictor
Ġcapsule
ibilities
Ġrundown
éĹ
verty
little
Ġdecree
ĠRivals
':
Ġimprovis
Ġrefreshed
low
cin
ĠAsked
ople
Nine
hent
Ġful
Ġbuilder
oka
Ġfrontal
Ġnominal
Ġparse
ĠDoctors
ools
Ġenabling
Ġ204
ĠBry
cript
ĠProced
Uncommon
ĠVPN
Ġshootout
imil
Â¯Â¯
estone
Ġ'/
ĠContinuing
ĠMurder
Ġgraduating
ĠATP
warts
Ġblur
Ġsnag
ographed
ĠPrinciples
Ġgentlemen
Ġown
aine
Ġpour
ĠMED
ĠStarting
Ġenlarg
ribes
Ġlegal
ĠHarper
Ġopposing
ofer
Ġimaginary
ĠMcCorm
naires
istry
ĠColleg
Ġ385
ĠG
ENS
ĠParsons
Ġpassive
ĠPossible
Ġblogging
Ġdiminished
Ġintervening
Ġassignment
ĠAlger
ramids
asted
ĠNewt
Ġendless
AT
WIN
ĠMek
Ġloyal
Ġcis
ĠPetroleum
Ġamplify
Ġmeasure
ĠChampion
Ġwithheld
ĠTimbers
audio
loaded
Ġphysiological
can
ĠTaylor
ĠDeborah
Ġglor
Ġbiodiversity
Ġvisceral
/-
Bu
ĠCato
Ġgood
ĠTerminal
rophe
Ġamplifier
Äį
Ġanother
Ġemployee
RP
obia
ĠSpecies
ĠHirosh
ticket
sle
home
Ġapostle
Ġaffected
Title
comings
NULL
jriwal
Ġtucked
Ġinhibitor
Ġconvol
Ġheat
cyclopedia
Ġearnest
Ġrelations
Ġspectator
Ġidle
amental
ĠMitt
Ġprevious
Ġentering
ĠSchedule
Ġdidnt
ests
Ġdidn
young
ĠTDs
Ġhosts
Ġakin
Ġswelling
Ġbots
Mah
Ġaddress
ĠHip
Ġintel
Ġtranqu
Ġuh
ĠVillage
Ġ1897
Ġraced
associated
ĠMouse
ID
ĠNey
Ġwelding
Ġmete
hetamine
ĠWe
ĠOriginal
790
Ġnationality
ĠSyri
784
LAB
TeX
Tenn
filter
Ġrehearsal
Ġcord
Ġlamb
Never
ĠFlore
Co
Ġlingering
ĠItalians
Ġmisguided
Ġnegotiator
ĠUnfortunately
ĠInjury
604
ĠTaiwanese
Ġinteracted
ĠFranchise
Ġcommenced
ĠDefinition
Ġcommitting
Ġincidentally
NEW
Ġdere
Ġbacteria
Ġtestosterone
ĠCous
Ġrecept
Ġfrontline
astically
ĠRecomm
ãĥĸ
ĠPerse
rb
Ġsubdued
Ġdemonstrating
ĠStim
Ġsupporter
bee
mitted
IB
stress
352
ne
Ġranging
Writing
eff
Ford
Ġranked
imating
Ġphen
ĠHP
ĠTrin
Ġvert
208
ĠLenin
522
ched
Ġallergy
ĠLam
Ġstressing
Ġslaying
Ġjur
ĠKob
Ġjournalist
ĠGibbs
Ġthough
iled
Ġdrag
Log
ĠKills
ĠMorsi
AMD
VILLE
Ġsystemd
ĠMillennium
Ġnode
Ġcc
Ġability
Ġjustify
Ġaudible
Ġrapp
j
Ġproposals
ikk
righteous
conv
Ġpayment
ĠCelebration
my
Ġmull
Les
ĠKissinger
Ġcomma
ĠAges
Ġ+---
Ġfamily
Ġdocumentaries
Ġoccupant
Ġcartoon
Ġthrive
ĠHong
Ġcel
Ġargued
Ġexclaimed
ideos
Ġsold
Which
Ġethn
Ġundermin
-|
Ġconquered
Ġends
Ġdecaying
itious
Text
Ġvitri
Ġmothers
Ġmaneuver
ĠFIRE
igh
Ġsq
ĠEnemies
Ġbrilliant
ĠBL
arak
Ġcoding
flix
ĠEntertainment
Luc
etta
Ġfu
hews
Ġ24
Ġcos
Ġcontinual
Ġharmed
Beyond
setup
ĠlargeDownload
Ġdrives
oman
uten
Ġsever
Ġprecinct
Ġrecy
ĠCollector
ĠPot
izont
ANA
ĠKimber
Ġ215
ĠCree
ĠCASE
Ġaccidentally
THIS
matic
ĠAhmad
ĠAlly
Talking
Ġstretching
ĠDOM
Attach
Ġfestival
Ġnarrow
Ġtendencies
pre
Ġskills
atives
Ã§a
produ
Ġwhenever
Ġsonic
Ġmisogyny
isible
Ġspecies
Ġdough
ĠWei
ĠThib
ĠWindsor
Ġalleviate
ĠInflu
Bloomberg
Craig
Ship
262
'/
ĠLucifer
Ġtofu
ĠPirates
ĠShit
Ġburg
Ġovershadowed
Ġcontinuation
computer
Ġruntime
TextColor
ĠComponent
Ġcharge
ĠAvg
Ġstructural
Ġvenerable
Ġ171
Ġadjoining
ications
breaks
Ġinert
ĠDonald
Vis
ĠLightning
ĠWeak
Ġupgrades
Ġkidn
ĠKuwait
Ġtrad
impro
itsu
Ġshameless
Lewis
ĠCelebr
Ġassuming
cv
Ġladies
ĠAllan
osuke
ĠThomson
Pretty
ĠRobo
Ġdecre
Ġoriginate
istine
Ġunintention
omed
Ġinvestor
bnb
ĠShell
Ġoverhe
Ġindifference
echo
cers
Ġonce
Ġsingle
reau
ĠJohnson
Ġraped
Ġprowess
Ġcensored
Ġrelevant
Strike
ĠQual
gged
ĠGuan
pp
aph
Ġjew
Ġadvertisements
ĠCivilization
è»
ãĤ´ãĥ³
Ġrecomp
bling
ĠACTIONS
Ġsemin
Ġobservation
ĠCorey
Ġinterrogated
ĠSoul
Ġtainted
hetics
stone
ĠFu
Ġactivate
Ġyearly
Ġresumes
ĠNeville
Ġcoy
Ġclan
Berry
neum
ĠClear
Tri
ĠPLA
ĠImprovement
Ġtong
APH
ĠSurf
283
it
Ġweaving
iano
Ã¥
Ġadditions
ĠDas
ĠXiang
price
ibling
ĠÃĹ
Ġbeverages
ĠChanges
DI
atson
ĠATK
oother
oted
Ġtanker
vis
Ġbouncing
ooters
Ġcables
Mbps
ĠWilmington
urrency
Ġmeeting
Ġcrises
ĠDee
ĠJPEG
Ġheart
Ġet
Ġdove
:/
ĠPark
Ġsinger
Ġcomparisons
çļĦ
Ġattained
ĠVirus
ĠRod
Ġwore
Ġadmissions
Ġscanning
Ġimmigrant
ĠCanadian
Ġharassing
Ġconserve
ĠCong
Ġprotagonists
ĠSQL
ĠMavericks
Ġdossier
Ġpharmacies
Ġminorities
ĠSongs
WN
Ġstature
Ġordinance
AX
ĠEclipse
Ġlooted
adh
ĠTunnel
mber
Ġinvestigators
ĠSere
Nearly
Ġbearded
ĠStealth
Ġoffshore
Ġbites
POS
ĠNSA
cu
Ġ)))
laden
missible
Ę
Ġindustrial
Ġshrimp
Ġsteam
Ġfashioned
ishers
Ġleaked
ĠGren
uded
print
Ġvines
528
Ġorbits
haired
Ġcerebral
Ġ161
bell
Ġgrabbing
BW
Ġlies
errilla
ć
Ġprecarious
ĠNavigation
Ġhated
Ġrooting
Ġdarkest
Ġlos
ective
ÄŁ
Ġearners
ATIONAL
uled
Ġbrilliance
ĠDesktop
Ġdomination
term
Ġstarting
Ġnewest
Ġ220
ĠCaucus
Ġ131
inn
ĠKund
Ġresisted
roller
Ġoverth
ĠGets
ĠSaturday
Ġarms
Ġfacilitating
Ġideologies
launch
Ġencoding
Ġmanslaughter
ĠSOFTWARE
Ġwal
Ġtemperament
Ġregain
Ġchallenged
history
Adds
Ġneither
Ġlanded
Ġdope
ĠHor
ĠBorough
ĠPalestin
][/
Ġsymbols
ung
bush
ĠKafka
ĠLars
),
Ġfrustrated
ĠJuventus
uding
Ġburd
Ġnegligible
Ġdesigner
Ġbuying
Ġcaul
Ġmarvelous
inguished
ĠFabric
Ġwith
Ġtrim
ĠSprings
ĠStephens
ĠGarg
ĠMLA
factor
Ġplentiful
air
',"
Ġambig
assies
ĠLAT
Ġincent
ĠEleanor
pg
esis
ĠPVC
agu
Ġart
essed
ĠLegislative
thy
Bir
ogens
interesting
////
FT
Radio
Ġfolding
cest
Ġ207
Ġlocated
web
ĠAlbania
Ġwi
Ġhim
Ġrelating
aria
Ġlun
ĠNR
ĠRobots
Ġamber
Ġ228
opol
reci
ĠUs
rosso
Ġantiqu
ĠRoberto
ĠStoke
ickers
ĠOmar
stre
Buff
ĠConference
ĠSpur
ĠAck
Emergency
Ġacquainted
Rom
ĠSeveral
Ġorders
osite
ĠWet
ĠGarry
ĠSnake
ĠWage
dates
ĠNegative
Rush
reading
Ġbuilds
ĠGuang
Ġsurrounds
ĠRegistrar
Ġvanishing
Ġpromotions
ĠPlay
ĠMUST
ĠAustralians
Ġgoodies
vention
Ġfreshman
ult
ĠMedicaid
Ġsurfaces
eenth
zzle
Professor
Ġpromoted
ĠKw
hor
Ġresponds
ĠAchievement
Ġverte
Br
Ġmarking
ĠArmenian
ĠPAY
ĠDowntown
ĠWink
Ġshielded
Ġpeaceful
Ġdiligence
ĠWo
Ġflux
ĠDue
augh
Ġic
Ġtotem
RPG
Ġspeakers
NRS
âĸĳ
ĠBros
ĠMao
nda
Wind
ureau
ĠLibrary
Ġâī
Ġoutgoing
Ġmanpower
ĠCongressman
ĠArgentine
Ġdragging
Ġcanoe
taboola
Ġplunged
ĠAntarctic
ĠBallard
ĠBok
="#
peer
Ġshred
sb
Spr
church
Ġcancell
ĠINTO
ĠFlowers
Ġobsession
Nit
Ġarranged
ĠFuj
ĠConfederacy
Ġprohibited
Ġpicture
Thank
Ġhunts
SAN
Ġbrakes
Ġforgive
Ġchampion
Ġexacerbated
ĠExamination
Ġ274
èĥ
!:
phies
Driver
mess
ĠPret
Ġinterven
mand
ĠBudget
ĠGoals
Ġfatally
Ġameric
Ġangry
uggish
ĠFinal
Ġoutskirts
ĠNeander
Ġpains
Select
ĠSchwe
Ġpolarization
Central
Sources
killed
ĠZah
ĠTrader
Ġrejoice
Ġgp
ĠSpartans
Ġnamespace
itially
ĠMilitary
ĠElectronic
ĠMinor
based
Test
ĠSachs
Ġepisode
Ġbye
Ġdeduction
Ġsofter
ĠAmph
iral
ĠGROUP
Ġunaccount
ARB
Ġfinite
address
ĠBrotherhood
"(
ween
cards
orney
phabet
Ġ(<
Ġlabeling
ĠLeon
tarian
Ġtrance
Ġaltering
Ġsatellite
endment
aditional
ĠCanaan
Products
ĠÂłĠÂłĠÂłĠÂł
Ġmostly
ardi
509
p
cr
Ġdesired
Ġmidrange
Ġpatience
RW
Ġvocabulary
Ġconnecting
Ġbillboard
583
numbered
ĠAires
Ġour
Brazil
Þ
Ġtie
ĠPer
Ġfragment
ĠSeym
Ġth
Ġbronze
elines
Rad
641
ĠPole
cial
Ġmunicipality
Ġpotion
Ġmend
Ġtrivial
Pakistan
Ġextended
ĠMexican
Smart
national
Ġinitiatives
ĠGrape
NO
attribute
Ġ('
auld
ĠPCs
Ġpowerhouse
inky
ĠOrioles
Ġscreenings
Ġjungle
ĠBlizzard
Ġattractiveness
ĠMalaysian
ĠMaz
Ġcolour
ĠSit
ĠSorry
Ġprinters
ĠDJs
ĠMagnetic
Ġpreview
Ġell
Ġcred
ĠGA
Important
Ġappear
Ġanthem
ĠBahrain
Ð´
Ġbe
Ġdrop
Ġconsuming
ĠSEM
drivers
Ġfrogs
Ġclimbing
Ġmenus
Ġpursued
Ġsentiments
æŃ¦
Ġ86
sounding
Josh
Ġtaped
ĠLighting
Ġhumanitarian
ĠSylv
Conf
ĠSwed
ĠAnalog
appa
ĠMyr
Ġpledges
Ġrails
Ġneedle
ĠPOST
ĠSarah
listed
Ġradar
inion
****
Ġankle
Ã¡n
ĠDomin
humane
ĠShea
tains
earing
Ġencountered
Ġwhereby
ĠLyme
Ġtides
ĠRisk
ĠSiem
Ġsr
creator
Ġpleas
inant
Ġmost
achel
Ġ666
docs
ellectual
ĠIter
ĠGw
ours
orous
*/
ĠPioneer
ulously
Clar
trak
ĠFallout
704
Ġflurry
ĠCoach
ads
Ġdiscourage
Laun
emen
ĠIdlib
Ġredeem
Ġisol
Ġdaughter
Ġdetention
Green
Ġdecidedly
ĠLaugh
Ġmethodology
Ġtraveled
itched
Soc
{{
ĠTill
Ġprematurely
CP
ĠJah
ĠExplain
Ġinhabit
ĠStev
Ġtarn
ĠSud
Choice
ĠGenocide
avement
MAT
ĠNCT
ĠGolem
%]
Ġcomplicate
romising
Ġconverter
Ġrecess
smoking
girl
ĠIstanbul
Ġscript
ĠPG
Ġsplits
sylv
OTAL
ãĤª
Ġscreened
coat
Ġdeft
++++++++
Ġhid
inches
Ġsweater
JD
learning
ĠBenef
Ġnurse
ĠNVIDIA
Ġfoster
igion
Critical
Ġcollar
ĠReturn
Ġfoil
Ġconcerted
Ġdefective
Ġrequ
ÃŃ
ĠWales
Ġyacht
speak
ĠGov
WHAT
Ġslowing
INFO
designed
ĠPixar
1975
eal
rats
ĠBroadcast
Ġflowering
ound
yards
ĠSweep
ĠJared
Ġrecreate
Ġnodded
ĠRPGs
Ġnon
Ġleaping
ertility
Ġbridges
ĠCalvin
}.
ĠHalloween
Ġexpenditure
Ġtampering
Ġloses
ĠCorrectional
ĠLunar
Ġmovie
bl
Ġtrilogy
ħ
azard
bably
ä¼
whether
Ġcafe
Ġexploits
enic
Ġ248
ĠDemocratic
Santa
Ġexcavation
Ġward
Ġreversed
Ġreliably
mini
ĠAccountability
ĠCosponsors
ĠFounding
Û
Ġwond
ĠAr
ĠHopkins
arkin
Ġprud
Ġshards
Ġrevealed
Ġantioxidant
Ġrescind
Ġrumours
Cass
ager
Ġunlike
Ġspy
Ġminutes
Ġcaffeine
866
Bo
ĠPenalty
Ġdull
containing
ĠMorse
ĠAlb
Ġwhats
Ġperpendicular
Ġtraverse
ĠFla
Ġlists
ulum
ĠPortal
Ġate
Ġben
Ġspare
Ġcollapsing
abin
Ġnaming
ĠLOVE
note
igration
ĠMarxist
ĠPresumably
Ġconventional
istered
ä¸ī
Ġfixme
without
oyer
Amazing
Ġliberal
ðŁ
ĠDh
Ġanticipate
CAST
Ġfullback
Ġorganis
Ġtech
loss
ĠTina
ĠPlato
ĠAppalach
ĠTalk
ifty
517
RAFT
"></
rip
Ġfearing
Ġwallets
Ġballots
ffiti
###
ĠDun
ĠIncarn
Ġfall
ĠVIDE
iciary
ĠRandomRedditor
ĠMatch
Ġsegment
Ġdeck
Ġtouch
Ġwhisky
Ġnegro
Mark
attery
Article
ĠWorks
asured
damage
iseum
Ġsmug
ĠTales
ĠLocated
txt
Ġslips
Ġsubtract
iky
1985
ird
Karl
Ġpenet
iola
ĠLarry
capital
Ġgenuine
changing
ĠAustrian
Ġ154
Ġvalidated
71
Ļ
Ġ02
ĠCalder
Ġinvestors
ĠDegree
UX
wage
incial
Occup
orio
ĠCrusader
ĠFeet
ĠSut
ids
ul
ĠLGBT
QL
Ġ410
d
Ġpleasures
481
ĠMy
iazep
ombies
craft
Ġabdominal
sector
Ġamidst
Ġmajor
other
riz
Ġdefinitions
ĠRhode
paced
Ġreluctantly
Ġatom
ĠAMER
ubis
Menu
Ġpitching
ĠisEnabled
Ġoverlapping
449
Ġmidday
Ġtwent
Ġrelie
ĠCAP
iba
Ġspacing
bags
ĠVW
ĠRei
ulate
226
Ġcaptains
Ġtame
Ġaug
Ġorthodox
Ġ1700
Ġspont
ina
endant
ĠNancy
Ġdeficits
Ġlinked
Ġrealities
ĠGilmore
ĠHawkins
ĠMcCoy
Ġunsupported
501
ĠAfghans
Ġgenesis
Ġ1984
Ġquery
ultz
ĠInvest
ĠPeck
iton
XM
ources
ivo
Ġinfamous
Ġfoolish
ĠIsraelis
574
ĠActions
iced
Subscribe
Ġstunt
Ġdisappointing
Ġborrow
Ġattracts
Ġcloud
Ġunderage
ĠStamp
ĠVIDEO
Ġbreak
Ġbarrel
Ġpauses
Ġworking
Ġcause
ĠNEXT
Ġoutings
ĠVM
ĠChe
Ġhinges
tical
1989
Ġhurd
Ġquestioning
Ġwithdrawing
krit
ĠBUS
242
Ġiss
Ġpetty
Ġapply
terrorist
Ġconstitute
Ġexecutions
algia
Released
Option
ĠOw
aga
Includes
ĠCind
Ġmetic
ĠBermuda
ce
omatic
Ġiodine
Ġscarf
ĠStartup
Ġtrademark
ĠRadical
ienne
ĠArrows
header
Ġevils
Ġpercept
Ġhelicopters
ĠPS
Ġadm
false
ESA
ĠShroud
Ġanxiety
ĠSn
ĠSloven
System
160
EngineDebug
Ġfit
ĠLimited
ĠZoe
Ġfaction
Ġfrightening
ĠGina
Ġvaginal
Ġdeadline
Ġ444
Daily
Imagine
bian
Ġpestic
Ý
ÃĥÃĤÃĥÃĤÃĥÃĤÃĥÃĤÃĥÃĤÃĥÃĤÃĥÃĤÃĥÃĤ
Ġgruesome
Ġgroom
Ġcontrast
Ġdeter
Ġconceded
Ġdog
ĠEN
adjust
Ġidentical
umbles
umph
odynamic
-[
Ġcaveat
Ġcooperation
IAN
measures
Ġmagical
iest
ĠElectric
Ġextr
ĠMus
ĠCompanies
Ġnegate
ĠMelanie
)),
Ġenglish
Ġ2003
Ġthieves
297
ï¸ı
Ġgimm
Ġentr
Ġtorches
hack
ĠStafford
ereo
ĠLP
Ġunin
ĠCIS
Ġspec
Was
occ
gang
ĠMitch
ĠNer
Ġfals
Ġcorrelation
ĠBos
Ġpope
Ġslides
ĠON
spons
Ġsincerity
ĠDragons
Ġwaiter
Ġfluid
zilla
ih
cut
ĠOverview
Care
mph
ort
Ġbiggest
Ġpartly
Ġethnic
illy
Ġelig
untled
aret
45
Ġbroker
ĠBeau
Ġdistances
Ġaffiliation
Ġlatt
Ġuphe
Ġpreferential
ĠExplosive
ousand
Unique
ĠBDS
Ġillnesses
ortment
Ġshrunk
Ġcitiz
production
Ġadventurers
Ġindicate
Ġairport
rive
204
ARP
Ġba
>:
Ġliberties
Ġalbums
Kat
Ġillustrates
ascript
û
Ġfundraising
oneliness
ĠJenkins
Ġlaundry
ĠYugoslavia
Jamie
Ġeducate
Ġvap
Ġpartisan
TG
Ġunavoid
Adjust
Ġlizard
Ġtrusted
ĠPie
Ġunilateral
lees
Dir
ĠGibson
Americ
ascus
ĠKings
otton
ĠChange
ctors
Ġ1988
REE
Ġ}
Ġhosted
brain
adeon
Ġfaith
ĠAchilles
arn
Ġatt
ĠCambodia
ĠGerm
ĠGon
Ġeuro
Ġmodular
Ġextinguished
untu
Ġfec
ĠCapital
Ġthis
aunting
Ġlater
ĠBaptist
Ġcaravan
Brother
rifice
ĠHugo
madeupword0001
Ġsubstr
Ġteach
ĠHospital
Ġendorsing
uary
Ġclos
Ġmapped
acteria
âĺħâĺħ
Ġdelet
Ġdistinction
ĠMiner
ĠSwarm
Ġprices
ĠDexterity
ĠAme
Ġconvoluted
Autom
Container
£ı
tes
ĠEthan
Close
ĠPremier
apest
Ġcove
hered
âĸĦ
count
"...
ĠArchive
vec
ulatory
ĠLatter
Ġspontaneously
hitting
FLAG
310
kw
ãģ®é
Ġfuneral
inf
ĠCiv
Ġnonviolent
continue
ĠSheikh
nergy
ĠIP
ĠAthens
ĠWaters
Ġcomplications
ĠBelief
]),
Intel
Ġeighty
Ġprocedure
Ġinterfaces
Ġcurtains
Cand
Ġ304
Ġmortgages
how
Ġwreckage
ĠiPads
Ġsympathy
Ġpreparing
Ġcurrency
Fight
Login
orrow
Ġfeds
ĠProtestants
@@@@
ĠTobacco
Ġbourgeois
SS
clip
Ä±
ĠAntarctica
Christ
EN
olini
ĠKappa
Ġles
Ġdays
Ġcoordinate
Ġmisrepresent
What
ĠTL
ĠNOTE
ĠViz
atinum
ĠStarCraft
âĢĭ
Ġretain
Ġoranges
performing
ĠThroughout
Ġsmooth
Ġpressured
Ġperceive
Ġerrone
Ġnostalg
Ġnorm
ella
jured
Ã¯
Ġconsisting
IND
Ġcyclist
wig
Ġcre
Ġcosmetic
ĠTrick
Ġ305
igel
Ġmerger
ĠPorsche
ĠConce
igious
ĠVag
Ġtempor
Modern
hots
ĠMathemat
Ġpromul
ĠWen
ĠHos
Ġremedy
Ġgrav
)(
Q
ĠBBQ
ĠSummers
worth
lez
happy
stream
user
gold
Ġscanner
209
Face
izabeth
å£
Ġsellers
Ġna
ĠColombian
ĠLuxembourg
ĠJenn
Ġtransfer
ĠMb
ĠBoss
Knowing
ulf
Ġopera
elta
580
Ġgall
Ġactivities
Ġshocks
ĠPolice
ĠAnonymous
ĠKnights
Video
Ġprized
root
idia
ĠAlz
auder
Ġpublic
ĠFarm
prem
ĠColossus
ĠLana
Ġrejuven
Ġguarantees
Ġpops
Ġnutrition
ĠDie
Ġasc
vered
ĠBunny
á
ĠBrennan
ĠRule
Ġaffiliated
Ġmates
Ġbruised
ĠViktor
ĠHoward
avor
ĠMeadow
XY
Ġmunitions
Eastern
essler
Ġdomest
Ġclients
ĠGPS
ĠRosenstein
Ġanthropology
Ġcoupling
ĠHelp
ĠTelegram
Ġdespicable
Ġcess
Ġpione
endo
Ġflooded
minecraft
ombie
Ġpick
Ġunnecessarily
Ġcoherent
JO
arations
Wa
van
iami
live
ĠShoot
Truth
Ġ3000
writ
Ġinsofar
ĠFlash
ele
Ġtoy
ĠJurassic
905
Ġcondu
Ġwithholding
Ġendot
Ġreef
ĠRik
ĠDebor
Ġarcade
Ġcartels
ĠSex
Pan
ĠObst
ĠCOUR
Ġawe
Ġoptional
Ġassemblies
Ġrespond
Ġhiatus
apy
Ġpre
Ġopens
ĠFriday
Ġlent
ĠBrand
being
ĠGenetics
DA
ĠGrim
Ġstatement
Ġfarming
DAY
ĠElite
Ġweekly
ĠFlag
Ġpropel
Ġcost
Ġfighters
ĠPatt
Ġcancers
Ġdestiny
umat
SB
191
170
Ġsynagogue
ĠHendricks
VEN
Ġsociety
ĠActive
Ġstaging
Ġjugg
pieces
ĠROM
Ġrepeatedly
ĠGPU
Jason
ĠKing
Ġinquiries
Ġbroadcasting
start
Ġbenchmark
Ġillusion
enger
oller
roe
Ġanti
ĠAlter
ndra
destruct
Ġimperial
Ġ1880
CG
ĠNot
Anderson
Ġobservational
Ġoven
Inv
Hor
Ġspecimens
replace
Ġannotations
Ġmedium
ĠJay
Ġworldwide
CLUS
ĠTJ
ĠMH
Ġmetabolic
529
Ġ4000
ĠCopenhagen
mone
names
Ġsetup
Ġ123
Ġprotr
1972
ĠConstitutional
ĠHeard
Rule
ttp
Ġamplification
Ġretained
ĠMoment
Ġinvestigate
ĠExchange
URES
":{"
485
Ġfol
google
stated
Ġdonor
ritz
FW
ĠDul
Ġreused
ĠBrother
Ġ1050
Ġglitch
Ġmicrow
Ġvantage
ĠTau
Ġdecode
weeney
Ġchast
ĠZip
ĠHig
acters
ĠGarc
ĠComputing
ournal
ĠMd
Ġconstitutional
Ġartillery
asion
}\
aged
ĠSolid
ĠCups
WHERE
Ġprototype
ĠCat
aught
Ġensures
Ġcleanup
Ġimpulses
NI
Ġfears
ĠScope
Ġworth
ĠColin
Ġraise
Ġflaws
Ġdisclosures
New
Ġjs
ĠABC
Ġglutamate
KS
archs
ival
Ġspirit
inspired
Ġelong
kai
cc
ĠBenefit
Ġentails
Without
Ġaccord
ĠMage
ĠGalaxy
Ġobserved
Ġeast
Ġdemo
ITH
malink
Ġwitnessed
ĠGig
ĠGreene
Ġmisdemeanor
Ġcritique
medi
Ġtremendous
Ġextending
ĠFaculty
Ġloans
Ġassumed
ĠGrimes
Ġunsettling
Ġcheek
199
PK
Short
Ġnicer
Ġassassinate
Ġ296
Seattle
ammad
ĠRush
ĠReflect
ĠWings
ĠFedEx
ĠWHO
ĠStill
Ġtelev
ĠAFL
asar
Ġconfined
ĠAdminist
794
empty
Ġexplorers
Ġcrucifix
Ġsympt
ĠSap
Ġ1911
ĠSELECT
ĠRuler
ĠJesus
Ġrites
å¸
Ġlapt
Ë
Ġ----
ĠFinn
ĠKnox
ĠReggie
lbs
stick
Ġcosting
Ġvanished
ĠAscend
Paper
mbuds
ĠSoviets
Ġamendments
Ġtranscript
Bl
Ġoceans
915
375
atti
ossier
os
ĠKrish
\",
Ġcanvas
uca
ADRA
osa
ĠDoomsday
Ġbacks
ĠSailor
archment
Ġgained
Ġgallons
Gameplay
Ġengagement
Ġpropag
Ġusb
ĠBJ
ĠAdinida
347
ĠTOR
Ġdamaged
Ġsemantic
Ġdoom
Ġpaved
ĠHawth
server
Ġneurotrans
ĠBloom
ĠComp
ENA
optim
Ġeld
arro
Ġmitigate
Key
Laura
ĠMorph
ga
Ġcannons
?!"
Ġ60
Ġ183
ĠInitiative
Ġtilt
Ġairports
ĠRonnie
ucing
Along
Methods
ãĥ¯ãĥ³
ĠÎ²
Ġnationals
Ġmotivational
ettle
ĠOrion
Ġbluff
ÂłÂłÂłÂł
Ġcollaborative
vation
ĠATT
Ġstars
Ġbub
Ġstruck
Ġquality
ĠGreen
Ġcomplainant
ometry
Ã¸
ĠWick
66
Jeff
Ġslime
ay
Ġpersistent
wic
ĠEngineers
Kids
Ġquantity
ĠBilly
Ġtimer
ĠPlayer
Last
Ġresists
Ġfolded
Ġ465
ĠHomeless
Ġclosure
Ġquotations
ĠDelete
Tele
Ġdeals
catentry
Ġslightly
ĠDur
Ġplains
Ġadministrators
Ġinsurg
Ġhype
LESS
Ġhr
Ġhaw
Ġbombshell
036
GS
acre
ĠFrankie
341
ĠMarried
Ġcaval
Bottom
Ġdownside
onic
ĠBolshevik
Ġfetch
ĠFrames
Ġmountains
ĠWheeler
Ġcaliber
Ġrgb
Ġencomp
ĠJOHN
gard
Recently
Ġtables
Ju
Ġcoordinating
isd
Ġquirks
ifact
ĠFigures
Ġerupt
Ġ2002
Ġrelocate
ogenesis
ĠTransgender
Ġanswering
Ġconsumes
Ġofficer
ĠShake
'"
Ġgigg
ĠAssociates
Ġinfection
Ġcounterparts
Ġunderstanding
Ġinvested
duction
interrupted
ĠNept
istics
inus
ĠViking
=""
Ġelevation
ĠEc
596
Ġsac
Ġdefence
Ġcoordinator
imensional
.:
opa
shots
podcast
ĠStores
Ġjog
Ġvisually
Ġbring
Ġcoating
Ġalgorithm
Ġashes
Ġsubmarines
ĠSigned
solid
Ġaven
Ġbrittle
Ġhomosexuals
Ġmelody
URL
ĠCollider
Wire
lightly
withstanding
gency
Ġtotaled
ĠGF
Ġconstitutionally
ĠSingh
Ġposters
Gate
ĠRw
ĠExodus
encrypted
Ġconcert
ĠPsy
Ġlobbyist
posing
Ġrotten
berus
ĠShane
Ġlayered
station
ancer
Ġworldview
Ġwelcoming
eeds
Ġdetain
Ġpierced
Ġk
Ġdiscomfort
ĠPred
Ġbills
aqu
238
CRE
Ġremoving
ĠOblivion
FTWARE
Ġsurpr
sten
188
sf
ĠSav
Ġobjections
won
ĠTerms
Ġlump
Ġreconcile
Ġgrin
frog
Ġcoerced
Ġunmanned
Ġfiller
STATE
ĠFlower
urated
ĠCommon
plex
Ġtrolling
Ġcocktail
Ġlig
ĠEnds
Ġcaster
ĺ
ĠFarrell
VO
def
ĠButterfly
Ġ1600
Ġrequest
Ġenumer
Pixel
Ġ1840
Ġbetrayed
ĠEsther
ĠRunner
quote
Ġportraits
inducing
ĠReporter
Completed
ĠDmitry
ECK
lys
109
Ġmanually
Cola
Ġfiling
Ġgu
ĠCyber
Ġprojected
Ġroast
ĠMissouri
ĠPict
Ġregimen
Technology
Ġinvestments
iblings
reverse
Ġstaffed
è¦
Ġrom
ĠPrior
Hey
Ġsubscriber
Ġscene
Nap
tyard
endum
Ġdebut
ĠSyn
Ġadmission
331
aru
highly
ĠSweet
emption
STEM
Ġcoefficients
Ġknot
ĠChandler
ĠSins
Ġreact
Ġexec
Ġourselves
Ġbuckle
Ġbother
ĠReserv
Ġpale
Ġtimeline
Ġsupplying
Ġplots
Ġunbeat
ĠStein
ene
ĠGOP
ĠArabia
ĠIndependent
Ġfilmmaker
while
Ġeasier
ĠGET
345
ĠNapoleon
ĠOptical
ergus
ctions
ĠConservative
Ġincoming
urgical
Dick
ĠZig
Ġobscure
ĠVessel
Consider
ĠTemplar
Ġserial
Ġmicrobiota
akin
ĠFarage
Ġ243
ĠPolitical
ĠPearce
ĠGener
Ġsupremacist
Ġ163
Ġ327
Ġaxle
Boss
ĠScroll
Ġmonetary
ĠPalestine
Ġwonderfully
Over
Ġintensified
ises
shot
Ġcannabin
Ġsprink
ĠAgreement
ĠEnvironmental
ĠNevada
Cam
Ġaccess
Ġmay
Ġtit
Albert
Ġpsychopath
pages
Ġmate
Ġorganise
youtu
Ġbodies
Ġvolcanic
ĠAuschwitz
Ġdwellings
&&
Ġprinces
Ġoffense
juries
ĠKramer
ology
552
Heavy
Ġascending
Ġreserved
breaker
Ġpomp
659
Ġtrees
eting
Ġissuer
ĠVolkswagen
Ġ113
ĠEuropeans
ĠSpart
det
Hyd
Ġethanol
Ġevening
ĠTories
catch
ĠPC
bda
Ġrevers
Ġmurder
Ġmirrored
ĠâĨĴ
byss
Writer
Save
Ġfurther
itzer
ĠTypical
spl
ĠCorn
Ġjustice
git
Ġbringing
Ġheck
aj
Earlier
Ġzip
alian
ĠTrainer
Ġsentence
Ġbroadcasters
Ġchampionship
berries
Ġforeigner
Ġdifferently
^{
ĠWyatt
Ġmaiden
478
Ġabsurdity
Ġcircumcision
ĠSandy
Ġword
ĠRome
nder
ĠRated
iculty
ĠDor
adle
Ġnotorious
WT
Govern
Ġproletariat
ilic
achers
02
gc
Ġ1929
Ġmission
ism
qu
Ġquarterback
ĠHollywood
Ġclarified
Ġenvelope
Ġ610
Ġamounts
Ġdepartments
reements
Ġimpractical
ĠDollar
Ġscheduling
Ġsources
Ġtriangle
Those
Ġblatantly
Ġinformants
Ġbask
Nik
redits
gment
reports
Ġvein
ĠTight
Ġspawns
Ġfavorites
Ġfleeting
Ġdefense
ĠOsiris
Charles
clinton
btn
Ġcharcoal
gradient
sch
erence
Ġflipping
Ġmystery
emic
aban
ANT
Ġartistic
Ġga
Ġcaptcha
Ġretaining
Ġmalice
Ġsensitive
Ġbigger
ĠBuster
Ġstrongh
Ġmonkeys
Ġshredded
Ġvalidity
IDs
yre
Ġtires
Ġtaller
ĠCarlson
ribune
Ġdetainees
mel
ĠguiActiveUn
Give
Ġprivate
Ġflagged
Ġmeat
ĠDozens
ĠPerry
Ġhostilities
zyme
save
INT
iffe
habi
Ġgrieving
ĠLua
ĠWhatever
Ġorganizational
Ġpicks
ĠCritics
Ġtentative
ĠOM
encer
budget
ĠClo
ĠFah
ĠWarehouse
Ġexped
ĠYosemite
ographically
ifully
ĠBurg
Ġblinking
uph
Asset
Ġundertaken
Ġproudly
Ġpics
Ġguarding
dogs
.","
ĠGSL
Ġflee
ethyst
Dialogue
Ġpt
Ġdecad
igure
inian
708
sburgh
Ġshenan
luaj
leading
Ġproducers
Ġturmoil
Secondly
Ġdetails
Ġreference
encies
ĠSagan
Ġregistering
ĠAbortion
.......
ĠLat
Ġirrelevant
rawl
Ġdevelop
Ġwee
ournament
inel
MENTS
sided
rette
Ġsmartest
ĠnaÃ¯ve
ĠZombie
":"","
Ġexaggerated
Ġbubbles
ĠKingdoms
Ġthrew
Ġdelete
ĠMori
omon
Ġpotions
ĠFenrir
onduct
Ġalleging
ĠBuck
Ġdirection
Ġinsulation
imilation
cember
rocket
Ġtoxicity
ĠKr
Ġscrolling
Ġ320
ĠWarlock
bringing
Ġmemory
ĠCDC
ĠActivity
Ġ343
ĠRational
ĠNewton
SOURCE
Ġexper
ĠLomb
ĠUtt
250
ĠTai
eme
opt
Ġvi
ungle
neath
Alpha
Ġproduced
Ġwage
ĠNeedless
lator
Ġimage
Ġawakened
ĠDungeons
ĠAthe
Ġdriven
OUGH
Ġ!=
Ġapproves
Ġrepresents
ĠPARK
ĠQUEST
struction
Ġhref
Ġincentives
Ġtends
opened
cery
Ê
ĠOWN
Ġleapt
953
Ġnep
level
Ġdin
Ġbackwards
¨
ĠForever
Ġcanopy
Orange
ĠRamirez
Ġdisple
Ġnexus
Ġdrift
Ġcasually
ĠSnow
Ġabove
Ġstopping
des
ifax
Ġinaccurate
aughed
Ġspitting
Ġfoc
Balt
ITCH
umably
Ġboyfriend
Ġlabour
Ġauthorizing
isle
Math
ĠGrant
ĠAmericas
Ġswung
Ġpreviews
itably
Ġfrail
ĠTemp
Ġshimmer
Ti
chall
Ġcontemplate
ĠStress
quished
ĠSolidGoldMagikarp
Ġprospects
affe
Ġbears
Ġpayments
!,
ĠKinn
Ġobsc
Enjoy
Dutch
Label
Ġeat
ĠWashington
Ġstory
way
Ġadhere
unciation
Ġelaborate
Ġeveryday
Ġtaboo
ĠCost
here
Ġneural
ĠPLoS
Ġliver
iframe
ĠAwareness
Alert
alls
LD
Ġgrounding
ĠNATO
ĠSac
mean
Democratic
Ġ1889
Nation
ĠWally
herence
Ġfragments
ĠSP
Ġpoorer
Ġ334
ĠOnion
aries
ĠBrew
ĠLayer
ucl
++++
Ġeven
sequent
Ġengine
Ġpassively
Ġbreasts
Ġ8000
Ġvolunteer
ĠQuick
ĠCPR
875
Ġsuspected
Ġfateful
hum
Ġgastrointestinal
Ġflattering
ĠGaal
Ġcunning
ucci
Ġtumultuous
ĠQuote
Ġ4090
ĠPhotos
ĠLakes
Ġreproduction
asa
worn
culated
SE
Nevertheless
ol
ĠWrite
democratic
Ġkneeling
Ġconstrained
fact
Ġhomework
ĠDennis
ĠErdogan
360
210
ĠRoots
sha
ĠConscious
Ġwitches
Ġincarn
finding
ĠFeaturing
ĠSupporters
ĠElephant
Ġglobe
ĠAnger
ĠEnhancement
Ġleptin
Ġcommenter
Ġtul
thank
estro
Ġfacet
Ġmechanism
ĠLabour
ĠTurnbull
possibly
Certain
Ġabducted
->
Ġq
figured
âĢĵ
fetched
ENCE
Ġacademic
Ġseafood
Ġcrowds
Ġmonopol
Ġtempting
Shares
ĠAlloy
traumatic
Ġprincipal
Ġsmack
Ġunleashed
TB
ĠTesla
(\
Tok
Ġcrying
ĠDOWN
Ġabolition
ĠDoesn
ento
eb
Ġskeptical
ĠFROM
Ġcopies
ĠPepper
ĠLee
Ġgrade
iya
Ġpun
Ġwhiskey
ĠShal
berger
Ġcases
ĠRemem
ĠSteps
Ġadjourn
Ġbullies
ĠCharacter
irlfriend
ãģª
ATED
Ġmanifesto
Ġessay
DragonMagazine
Ġslurs
makes
manship
ĠBegin
Ġtightened
Ġharrowing
ĠBlessing
Ġgonna
Ġdictator
ĠWebster
Recent
Ġpowerfully
Ġits
Ġsimplicity
Ġgimmick
Ġreinforcement
Ġassail
Discover
Ġsurrounded
ĠMarcos
Ġcounselor
Ġdestroyer
614
culosis
ĠGained
Ġmaintain
ĠAverage
ĠGuardiola
Ġtowering
Ġguru
ĠIc
Ġoccupancy
ĠAtk
Ġsurpass
Ġwastes
Ġterrorist
cone
ĠNovel
å
Eva
Ġscrutiny
ĠPin
acket
Ġlegislators
?"
Ġsalts
Ġappease
ournaments
ĠRarity
ĠLSD
Ġimmunity
ĠFarms
ĠNoel
olson
Chinese
Ġadopt
Reason
Ġlens
Ġpornographic
enes
ies
Ġflanked
Ġbuttocks
Ġideas
ĠGrimm
ĠStephan
odies
ĠAirlines
reated
mas
ĠBuff
1990
elect
590
ĠAES
ĠEsc
actly
Ġlatest
Ġcautious
POR
Ġbloc
Ġstealth
ract
Ġingredients
Ġrecalls
Ġ104
mor
ĠHussain
Ġexciting
intensive
Ġrudimentary
Ġcorrectional
sworth
ML
humans
ĠSaints
hes
Ġsou
Created
Ġjuvenile
LIB
Ġwedge
Ġquizz
pattern
Ġregarded
ĠCLIENT
ÃĥÃĤÃĥÃĤÃĥÃĤÃĥÃĤ
Ġphase
Ġantenna
Ġalteration
ĠBrawl
Ġlet
Ġmuscles
ĠRandomRedditorWithNo
Graham
Ġmediation
ĠGmail
pperc
ĠPattern
Ġwon
ĠBorderlands
ĠIl
Ġbizarre
Ġsparked
center
ĠSteam
lane
Ġredress
Ġhumor
Ġmechanical
Ġvigilant
ups
Ġclicked
Ġfurn
ĠBees
Ġhomemade
Ġcryptocurrency
sych
Ġmillisec
Ġur
Ġfucked
Ġpotato
ban
/$
ĠGetty
Ġca
Ġdisputed
Ġimpress
Ġ268
LG
Ġharm
ĠNetherlands
ricular
atron
Ġ0
ĠError
helps
Ġterrible
Ġ252
Ġalbum
Whenever
zzi
Ġeye
ĠUttar
Ġrepair
348
ĠPhot
ÑĤ
ĠDarling
ĠSang
Ġentrepreneurs
Chris
Ġcrawled
posts
Ġgoal
Ġfixed
ĠCome
Ġkicking
ĠOsaka
uting
Ġchief
ĠIndianapolis
ealing
limited
Ġpounds
orns
Stephen
Ġcausal
mop
Ġshouldn
Ġjudiciary
ĠZoro
Ġcombined
ĠResponse
Ġempath
Sky
Ġoccasions
Ġseasoning
ĠUrug
JV
Apps
ĠRealms
Ġ['
Ġunloaded
ĠMVP
Ġsunlight
ĠSug
redict
Ġinto
items
Ġpitcher
essing
yers
495
265
ĠOutbreak
Ġrallying
Ġtiss
ĠAshley
iors
ĠKah
ĠOK
ĠDell
Ġlid
Ġsenses
Ġjargon
ber
ĠCycling
Ġunfor
ĠDolphins
Ġmatters
Get
illion
Ġsubsidies
ĠM
Ġswift
ĠDiver
ĠKatie
Ġinconsist
ure
tw
Ġtra
Ġquotas
cki
Ġfatal
ĠMeet
Ġeclectic
Ġreceived
Ġpunished
Ġsays
ĠEffective
ĠMent
ĠRELEASE
quin
Ġscriptures
Ġswore
Ġbenz
Writ
ĠNeighbor
gart
ĠStrawberry
acey
ĠDNC
Ġ{*
Ġremnant
Rect
Ġgreatly
Ġ38
UE
Ġjudged
ĠIMP
Ġfloods
ĠNab
Ġclouds
Ġironically
sensitive
Ġawakening
Ġsevere
ĠLara
ĠIndigo
954
ĠBobby
acial
mails
ithe
Ġpoem
Ġlikes
GREEN
zee
amination
ĠSlip
Ġintellectually
ĠMech
Ġfaculties
ĠguiActive
ĠFlood
Ġ>>
ave
ĠBand
Ġtsun
Ġoptionally
Ġraspberry
ĠLIVE
nen
())
Ġineligible
uct
ĠWelch
Ku
Ġticking
ĠWak
ĠBetween
ä¹ĭ
Wal
Ġdivul
Dave
Ġenshr
ignty
ĠContinuous
Ġfac
iatric
ribing
urer
Ten
ĠLisbon
Higher
Null
RE
ĠDHCP
Ġtranslations
Ġcarved
at
actor
ĠProc
Ġdash
Ġhistorian
inton
Ġperpetrated
Î
ĠRitual
reen
Ġserving
ona
umsy
Ġdefe
Tokens
ĠCarbon
Ġannex
Ġmines
758
native
ĠFren
Whit
Ġaut
ĠREST
Ġmust
Ġneat
Mart
ĠZombies
ĠCONC
ĠRoz
ucer
Ġexponent
ãĤ§
ipt
Ġoverwhelmed
track
Ġstiffness
Ġproliferation
ĠHaas
Ġbrutal
ĠCard
orus
GER
Ġfull
ĠSi
andr
Ġdreadful
Ġnos
ĠBaker
Ġdiscl
Request
sic
achu
arning
interface
Ġrichest
riers
ĠChampionship
âķĲ
ĠÂ
Ġsatellites
north
Ġelectro
Ġcollisions
^^
Ġaccusing
Ġorchestr
%:
Ġtrickle
Price
ĠCLS
Ġelectrical
cially
Mount
ĠDefinitive
Ġgenerations
Rod
Ġsh
Ġopportun
ountain
Ġkg
Ġreserv
selection
Ġ32
from
wrong
654
Ġbend
Ġgalleries
Ġinvestigates
tested
Ġstash
ĠAssist
792
ĠRebirth
ĠBrazil
Ġpositional
Allows
ĠThank
Ġwarrant
Ġinbox
Ġacceleration
ĠPolo
ym
ĠMarketing
're
ĠHundreds
ULE
arters
Ġhumid
ĠUnicorn
1600
ē
ĠShi
Ġexternal
park
Ġflashback
Ġcents
ĠMint
phase
either
Ġshot
Ġprobes
ĠRecords
odi
Ġ1906
ĠYue
ames
ĠTick
Ġobjective
ĠMB
Ġslowed
Ġbon
Ġemotions
mil
istant
Ġtransporting
in
Ġvacations
Ġcereal
ĠCommerce
Ġaltar
408
felt
unity
Ġinserts
Ġutilizing
Ġconject
Ġtextbooks
ĠHimself
ĠPanthers
ĠFINAL
Unit
Ġshitty
Types
Ġsustain
Ġrecovered
Ġbargain
Ġcompiled
thouse
ĠFitz
Ġimply
303
Ġwhe
JECT
ĠESL
roximately
Ġdelays
Ġglared
Ġimpulse
Ġpoetic
Ġbloss
ĠTok
Ġcompens
ĠPour
Ġdeem
Ġlowering
Ġ221
awks
quit
Pitt
agle
Ġmoral
falls
ĠPokemon
icator
Ġsole
tele
Ġdepressive
Ġpresses
Ġendings
Ġschema
ained
NFL
Click
poke
ĠChron
breaking
uliffe
Ġtw
ĠPike
Ġweights
licensed
exc
Ġconjunction
Ġaids
å¾
Ġhostage
Ġmanager
Ġassemb
Ġchromosomes
ĠRect
ampions
Ġrepeat
Ġ800
Ġunfortunate
Ġwont
ĠElliot
allowed
ĠEisen
speed
apego
Ġrage
____
General
ĠUSC
ĠWor
ĠDEL
ĠAberdeen
ĠDisc
Ġundisclosed
highest
ĠJarvis
Ġprofessor
Ġnumber
ample
seless
ĠRhodes
Ġpleasantly
Ġcowork
Ġcelestial
Ġdistressed
ĠArcade
Ġlbs
herent
inois
ISSION
Liter
ĠWarcraft
present
Ġadequ
illions
Ġ([
One
Ġoutlines
2003
utan
Ġhomophobia
Ġsetback
Ġalongside
ĠRemix
ĠHanson
Day
Ġnephew
Ġdisruptive
ĠEducation
ĠHomes
ĠNaval
ĠKers
Ġbell
ĠPierce
Ġpiled
undo
ĠDaisy
Ġaquatic
ĠPist
ĠPro
erential
ĠSpot
ĠBohem
ĠYOUR
ĠBEL
7601
Ġproof
ĠGoes
Ġchirop
Ġpremature
Ġcontract
Ġpresupp
ĠClarence
Ġblending
Ġcurtain
2007
rity
luster
ampton
igor
ĠFactor
ĠImplement
èĢ
etry
Ġ^
ruct
ĠKo
Ġhydrogen
EDIT
DATA
Ġjuice
ĠRover
Ġprophetic
"},"
Ġfreaking
Beast
Ġmosa
ĠPotion
only
Ġsoar
ĠWM
crime
Ġheavenly
ĠTunis
Ġwarp
ĠPlanet
Ġtoys
Ġnod
Ġresolve
ĠGene
ĠStreaming
Ġ"#
Ġdissolve
geons
Ġinsurer
Ġcoastal
heast
Vector
ĠSEA
Ġundergone
Ġig
ĠRahman
Ġmastermind
ĠFAM
thread
especially
Ġadjud
Ġcontributes
ĠMiko
ãĥĨãĤ£
Ġmoved
Ġletting
Ġconstructing
ounding
../
Accept
Ń·
Ġdrawings
Ġingestion
Ġroutines
sand
Ġexpress
ĠLot
Ġpopup
Ġexaggeration
Ġlumber
ĠHolo
Ġstores
Ġmysterious
ĠOtt
cuts
Ġspark
ĠChapel
ĠCorpus
ĠSah
ĠOhio
Ġirrespective
acting
RT
Ġnood
hower
ARE
ovich
ĠDol
efeated
1986
LOG
bis
..................
GGGG
Ġhopeless
nom
Ġtwists
ĠStam
à¼
ãģ§
Ġding
Ġpot
Ġnever
ĠLaboratory
Ġbless
ĠJem
ĠPod
Ġappalling
PROV
feel
inet
ĠTRI
ĠLIN
Ġultimately
Body
Ġaudiences
enaries
Ġ1933
é¾įå¥
C
ldom
Ġtexting
Remember
Ġimages
dn
ERC
HY
Democrats
Ġgraphics
Ġstorytelling
Ġremembering
water
star
Ġ195
ashi
FG
229
ĠMovies
actions
ĠLewis
Ġdinosaurs
bal
Ġperpetrator
Ġhuman
Ġlistings
lda
rophic
5000
ĠBalance
anic
Ġ299
Ġshrugged
abre
rap
images
ulic
mediated
Ġpagan
Ġunint
ortal
aunders
uctive
Ġracial
Ġwinner
Ġpolic
Ġbeasts
tesque
Ġguts
ĠIsabel
Ġvividly
ĠMaker
Ġbushes
REC
anse
ĠOkay
Ġrequested
ĠMons
Ġinhab
Ġdri
Ġxx
Ġprospect
ĠFactors
Ġinvolving
coins
ĠBarbar
},
ĠLater
Ġ188
Ġ->
ĠPeel
ĠMake
isl
Words
Ã³
Ġpositioning
ĠStyles
ribution
ĠDN
Ġbuses
Ġbuzz
420
âĢĶâĢĶâĢĶâĢĶâĢĶâĢĶâĢĶâĢĶâĢĶâĢĶâĢĶâĢĶâĢĶâĢĶâĢĶâĢĶ
ĠNumber
ĠSean
Ġprestigious
Ġprecipitation
Ġconcise
Semitic
506
ĠInteractive
ĠEditors
Ġregulates
zinski
kson
leaders
responsible
ĠKap
ĠBus
Ġturbo
ĠRelationship
ONG
aucas
Ġwealth
Ġweakening
Japanese
utters
Ġlan
ĠKor
Ġtested
Ġzones
ĠCos
slow
Ġslashing
Pic
Ġcarbohyd
ĠVERY
Ġtumult
ÏĤ
ĠPier
Ġvisionary
ĠDON
umers
Ġloose
ĠBritish
Ġprote
Inside
ĠDetroit
ĠChosen
ĠIndo
degree
Ġmouse
ĠED
Ġvending
ĠProbably
Ġshif
alker
Ġpear
Ġleft
Ġ357
Ġcoercive
BUS
Ġrarely
Ġbitten
ĠCLA
bound
ĠBowl
Ġscenic
Ġareas
ĠAdvent
Ġ364
ĠEugene
Ġanch
Ġdreaded
ĠCairo
ĠMatth
Ġvalid
ĠDefendants
ĠPhar
Ġsniper
hill
Ġ737
Ġscal
ĠImag
ĠInvestig
feeding
ĠAlmost
fab
itia
ĠTone
Putting
Exec
most
Ġmentioned
ĠPresidents
Ġthrone
ĠScouting
Position
ĠMoore
Ġmodules
Ġparan
Ġplacebo
Ġobesity
ĠHearth
ĠGeorge
ĠLet
ĠOt
Ġthink
ĠMorrow
ormal
ĠAzure
Ġcompatible
ney
Ġeducating
Food
Ġtouring
ĠSAY
Ġlight
playing
Ġfracture
Ġbraces
Ġcontrace
iku
Ġsecuring
Ġfort
Ġhangs
bang
ĠXIV
Ġsecession
ifiers
Stars
Ġslog
ĠHarriet
ipple
Ġpoll
Ġcourtesy
Ġissuance
Ġsheds
ĠREC
Ġhoused
Ġstrengthens
fly
forum
Ġdevils
Fat
Ġoscill
ĠVander
ested
Ġtactile
ĠDavidson
Ġpersuade
Ġeyel
Ġfolds
Ġdismantle
Ġ1995
ĠSeth
ĠKick
Ġpeppers
ĠHTTP
Ġfault
ĠIGN
Ġbuild
ĠO
Ġswell
etting
ĠHAM
Ġinvent
olith
Ġmeddling
Ġobjectively
ĠFal
}"
ĠTHANK
Ġgre
ĠBooker
Ġderegulation
Ġinnocence
Ġrm
orter
raviolet
Ġspeak
Ġconservatives
Ġstandout
extreme
ĠOS
pract
Ġrobbery
ĠNaj
mins
ĠPE
rea
Ġlouder
ĠArchitecture
Ġwelfare
DEN
Ġbribes
iovascular
ocalyptic
've
Ġincentiv
Ġkidneys
ĠETF
Ġcontinuously
ELS
udeau
Ġ1991
ĠClifford
ĠdÃ©
Ġconcludes
ĠMillennials
Ġstro
ĠExactly
ATURE
,.
ĠPersona
".[
Ġreverber
ĠSwe
ĠSaudis
æĹ
bett
ĠLimits
ĠBreaker
frey
Ġoverfl
ibly
Effects
Ġcompile
printf
BIT
Im
Ġinhibit
Ġ1963
opathy
ARC
iddy
ĠXu
linger
thanks
oshop
Remote
ĠBast
Ġmuzzle
ĠCruise
Ġvessel
phis
owitz
Ġsanction
Ġmach
ĠPrague
riction
Ġparticipant
ĠAla
ĠPrinted
Ġanimation
ische
Fore
Ġmeasles
rawling
éĽ
ĠHyp
ĠParade
.--
Ġendpoint
ĠNorthern
Ġstand
Ġcondem
yden
Compar
ruit
ĠDarwin
pol
Ġencount
ĠMeredith
Ġabhor
Ġstrangely
uay
Ġwool
Ġmercenaries
Parts
Level
Ġdeal
Ġcoast
digit
Fal
ĠMinority
ĠBub
Ġpossibility
ĠISP
ĠLeeds
ĠBridge
ĠTotem
Ġer
Ġbreat
Ġhij
Ġqualification
ĠElizabeth
Ġchi
Ġdisparate
Middle
Ġparsed
Ġpitfalls
Mel
ĠWEEK
although
For
ãĥī
erve
ĠOperation
Ġduring
binding
Ġcalm
Chain
Ġequipment
major
ken
obile
Ġsevered
ĠOkinawa
Ġinvoking
ĠMayor
ĠRestrict
ĠRate
Ġrenamed
Edit
ION
Destroy
berg
Ġbubble
Ġreiter
PRO
Ġspiked
ĠHels
oup
2006
Ġcrow
qualified
Ġbiomass
ĠMaritime
Ġdrastic
ploy
ĠOD
Ġdrove
forest
osphere
ĠMbps
osher
ĠHunt
ĠSpotlight
ĠNOAA
irie
Ġreprint
undown
ĠLionel
,...
Ġlevels
Ġlovely
fake
ĠAssistance
050
Ġfreshwater
posed
Ġconsumers
Ġgrip
ĠHelpful
Ġsuperf
uterte
Ġleftists
abases
~~~~~~~~
Ġmajesty
Ġunfolds
itimate
Ġpants
Ġfits
ĠMari
Ġrum
ĠPJ
Ġheadquartered
alist
Ġspot
655
Apart
Ġbugs
Ġpresented
OL
ĠLittle
ĠPu
Ġchaired
Ġcons
Cons
Ġparty
one
Ġunavailable
ĠByron
ĠBucs
ĠMarketplace
Ġdrains
Ġroam
Ġchores
Ġdraconian
ĠMister
inkle
Ġfantastic
Ġabroad
Ġexperiment
Ġmattered
Ġquart
Ġenigmatic
Ġpercentage
asley
Ġterminals
ĠAutumn
Ġadolescents
iu
arl
oos
oming
oling
ĠBIOS
Work
Desktop
Ġglim
ĠexternalToEVAOnly
ĠHerald
irling
Ġvoicing
ĠAad
ĠYan
ĠKrugman
Known
ãĢĲ
ĠThink
Ġrhet
ĠFernand
Rew
Ġshel
ĠMinotaur
Ġreplaces
ĠManziel
Ġconfess
orsche
Ġjealous
Ġwasted
Ã¨re
ĠEtsy
Ġsuffers
ĠLore
ĠTom
Ġtiny
Ġfestivals
ĠNguyen
ĠFlying
Ġfacility
Ġunderdog
ĠFairfax
ĠTrail
Ġchron
Ġreimb
Ġunmatched
unless
hemer
Ġfocus
Ġaccol
acly
Ġdwelling
uck
ĠCI
Ġwatching
oster
ĠPosition
Ġvegetables
!),
Ġmedian
Ġtri
THE
ĠTaj
hib
489
ĠLiberation
ĠPar
ĠFAQ
ĠWays
Ġstating
Ġgorilla
Ġcohesion
Ġemoji
Ġconscious
Ġ312
hend
Ġspecialists
Ġmisunderstood
Ġmp
stand
aith
sche
Ġoutl
aul
Ġcelebrities
stitial
isons
Ġrefuge
Ġoverly
ĠVII
Vaults
ĠAdvocate
Ġmalls
pass
Ġdaunting
ĠProtocol
Ġtrillion
ĠThai
ĠSixth
Ġchilling
Ġdefied
Ġcalmly
ĠPrayer
Ġclicks
HH
Ġbattery
Ġstabil
ifter
Ġarri
Ġraping
Pict
Ġmark
Ġdomestic
ĠOman
Ġprivileges
Ġ1942
Ġclueless
Ġdisruption
ĠGutenberg
ãĤ³
ĠSyndrome
Ġrubbish
Ġglorious
ĠFloor
ĠChrome
Ġbishop
ors
ĠObi
Ġagitation
Lots
Ġmelodies
Ġneuro
649
Ġinsult
Third
Ġ(=
Ġinsurance
Ġemails
ĠEv
Ġtry
ik
itate
Ą
Ġalias
ĠInvestment
Ġcollector
Ġabortions
ĠApp
Custom
Ġprizes
pants
ĠLD
Ġinterrogation
endiary
vm
fer
Ġracket
iliation
Ġrevis
ĠHague
Ġmistake
ĠHeld
ĠAgain
14
Ġmantle
aband
Ġcynicism
ĠRober
The
Ġmaterial
stretched
Ġmotherboard
puter
ĠWon
Ġcertificates
ĠJade
ĠNGO
informed
ablish
Ġnotebook
request
Ġelevator
Ġcracks
ĠRic
pee
ï
Ġsubt
source
Ġexternally
ĠSaudi
Ġâĸº
ifies
Ġacclaimed
Ġtrending
ĠGN
Model
Ġbruises
Ġmc
Ġreneg
ĠMaria
ĠNorwich
ĠCarney
ĠWillow
Ġyoga
Ġbanter
Quick
Array
Ġenjoyable
Ġrestrain
Added
ryu
ĠGoodell
Ġglands
Ġdors
ĠLod
ĠPharmac
Ġrhythms
Ġpockets
Ġextraction
Ġhereafter
Ġforc
ael
Ġcharact
Ġimprove
Ġsuites
Ġreceiving
estamp
ItemTracker
Ġhacker
Ġlean
Ġfolk
ĠNationwide
ĠBoost
ĠPlaces
ilage
Ġspoken
Ġmetaphors
perors
ĠALEC
Ġhell
ĠCurrently
Ġappealing
Ġfish
Ġdemeanor
581
ĠBecker
230
Ġvide
licks
ĠTomas
Ġstop
ey
ĠHeights
Ġdi
Ġdecent
ĠWeir
builders
ĠIndra
eches
fr
few
devices
EXP
EMENT
ĠClassical
ĠAnk
ĠFrenchman
ĠDeity
Ġonto
Ġindoors
Ġsort
Ġweekends
secret
ĠPlayoff
Ġelders
itch
Further
uters
amia
isconsin
Ġripped
Ġleather
--------------------------------
Ġcelebrated
fax
Ġstronghold
ĠDjango
00200000
method
ĠKeep
League
uddle
Ġ323
They
odic
osph
ĠAB
azel
founder
machine
goers
ĠKobe
Ġscreenshot
Ġsang
Ġcaught
ISA
gn
Cele
ĠHEAD
ĠGetting
Ġcigarettes
Scale
Ġtroops
Ġhelm
ĠRedemption
icide
Hmm
Changed
Ġalum
Ġnothing
ĠRivers
Ġmeaningless
avers
ĠKats
Ġsudden
Ġunaccompanied
ĠBirds
pher
Ġcurrent
ipe
ĠRouge
Ġtwice
ĠOfficers
vernight
Ġproducts
Ġscan
á¸
Ġwere
Ped
Ġtactical
right
Ġarmored
Ø§ÙĦ
ĠTil
Ġtanks
Ġcommerce
ills
instein
Ġsubscribing
ĠJO
ĠFinancial
Ġaccommodations
Ġovertly
Ġhar
verse
IOR
ĠMSG
aughs
ĠRecovery
izo
Ġspring
CB
But
ĠEdwards
åĭ
Ġ56
Ġvivid
Ġapart
ĠRET
espie
ENN
Î¼
Ġapopt
reme
ĠForms
ĠDesign
Ġdece
Ġconservative
%;
ĠProtestant
Ġhallway
Ġsto
ĠLuo
Ġregulators
Ġexamine
Ġmaybe
Ġsuccessive
Ġtattoo
bow
Sin
Ġplayoffs
umer
Ġheadset
edience
Ġcortical
erey
Ġjug
Us
);
ĠChill
Ġdescent
Feature
Ġtests
ĠCafÃ©
Ġhelper
ĠLAN
Introdu
division
ao
ĠFl
ĠFish
backed
Ġ"(
ĠGrill
ORPG
ĠQuinn
Ġbash
ĠResource
ahar
277
otype
ĠGus
Ġmercury
ĠGAME
ĠMock
flame
ĠDiv
ĠCa
:(
Ġchilly
ĠYouTube
Ġpeanuts
Setting
Ġ247
Ġ223
eding
ĠScarlett
Liquid
Ġhitters
Ġresettlement
ĠHyde
Ġsponsors
ĠScandinav
ĠTCU
Fighting
Ġtheoretically
Ù
ĠDocumentation
Ġattm
Ġhypothesis
Ġpush
Students
Ġuncons
ĠSession
Bah
Ġmonitored
edd
tein
Ġkeys
amp
Ġscheduled
Ġfinely
Fle
Ġincompatible
uta
Ġpests
Ġplugins
Ġflights
Ang
ItemImage
thereal
Number
olis
Ġbegun
ĠChoi
resources
Ġassume
Ġsplitting
Ġbeaut
Ġcircadian
uka
shapeshifter
Ġpromise
Ġrespiratory
Sh
cert
Ġcomply
ĠTower
ĠLancaster
ĠFischer
ĠWilkinson
raphic
San
combe
Ġbacklog
Ġowner
vantage
Ġbowls
IT
Ġresources
Ġanonymity
ĠVault
ĠKh
yx
Ġmag
has
ĠAfricans
ylum
ĠPlayers
query
Ġgalaxy
||
Ġhadn
ĠWright
Ġordeal
Ġdis
ĠSanders
ller
ĠPOLIT
Ġheroine
Ġexpands
Ġtempt
ĠGuy
Pac
Ġaround
Ġindividual
Ġeth
ĠSeeds
Ġstrive
Ġsubsistence
ĠEnvironment
renches
@#&
gi
lite
aunder
yrus
mere
ĠMand
Dual
ĠLego
ICO
Ir
pse
Ġtorque
Ġdiscs
Ġ203
2008
ĠPCI
lished
itionally
Ġunequ
Ġcartridges
ĠBrend
APTER
ĠDeploy
Ġpatch
ĠHER
imposed
ĠBarron
ĠSod
ĠDestroyer
00000000
Ġcomr
æĪ¦
ĠOrigin
ĠAnything
luck
Bang
Sync
Dest
Ġbail
olicy
Ġrecipients
ogether
Ġcurl
ING
ĠENTER
Ġcolonialism
ĠEvans
acious
play
aid
Ġinvolve
Ġlocking
AAA
Ġ240
Ġcousin
Ġcalculator
Ġel
ĠStanford
ĠAnth
Ġscant
Ġphysiology
oaded
ZX
ĠUk
Ġvil
mediately
Ġstructure
Ġnetworks
ĠPayment
VE
Ġcentralized
itational
steam
kay
Ġmourn
vic
Ġsear
Ġtribal
ĠGlob
Ġrescue
Ġcheated
Ġdirective
ĠVI
NA
GP
Ġsacrificing
Ġdissolution
ĠCondition
Ġgun
ĠDifferent
yip
ĠGreenwich
Ġreporters
Ġpledge
ass
Ġscra
ĠRequires
Ġnotions
Ġtries
Ġindication
Ġstoryline
ĠShogun
Id
Nazi
Fel
Ġcounterfe
ĠLiberals
Ġwildfire
Ġtransc
Ġstark
atu
Inf
ĠBoom
Ġdie
ĠDiaz
ĠReve
Ġpits
Ġcomm
Ġshuffle
Ġforfeit
Ġvex
external
Ġgorgeous
ĠRuk
ĠSUM
Ġcategory
Ġhorses
ĠSno
paper
htm
Ġnecess
imate
Ġperiodically
ĠReply
Ġseizures
MAP
Ġbounds
Ġarts
Os
Ġzoom
Ġhorror
duty
Ġdetermines
NBC
Ġunpleasant
ophon
Ġinhibitors
ĠHex
Ġbin
Ġlabyrinth
Ġbarley
Morgan
Ġresist
Boston
ãģ¯
Ġleap
ĠCPS
Ġpayout
effect
run
ĠAdd
ĠSelect
Ġeater
Ġchain
Ġdeficit
F
Ġsar
ĠTheo
ĠQi
Ġmot
Ġmoder
Ġdebacle
ĠVampire
ĠAoE
Ġcentered
Ġmisunderstanding
ĠDrug
Ġprisoner
ĠBac
Ġmillion
ĠNetwork
ĠBru
Ġpresc
Ġsubscript
Ġore
Ġvacancy
trade
ility
Ġrivalry
ĠConver
ė
Ġyouths
ĠWinston
Ġcontemplated
ridges
venge
Ġchill
Ġsuffered
quarters
ivating
ĠOrders
zar
wheel
ROR
Ġvit
Ġreboot
Ġassociations
ĠStart
ing
Ġquotation
onday
Ġfees
Ġhandic
Ġtraining
ĠRemy
ricanes
Ġthriving
colonial
dain
Ġthief
Ġintelligence
ĠCer
ĠRP
pport
CR
Ġexpecting
Ġbrilliantly
Ġlongitudinal
ama
ĠWere
Ġ200
Ġemployees
.)
ĠSom
isman
development
Ġwil
è£ħ
Ġdepleted
Ġcloudy
ĠProduction
Ġradioactive
@#
Dex
aning
Ġ802
itation
itations
Ġ264
ĠWrit
397
bial
pretty
Ġribs
Ġcommemor
Ġblaster
aren
DW
Ġspike
alled
ĠLAW
Ġprisons
Ġinformed
ĠVic
Ġintern
Allen
Ġtrade
Ġexisted
Ġlax
Ġmedicine
ĠHour
ype
ersion
ĠLX
puters
ĠCITY
Ġsoda
ape
ĠDuchess
har
drop
Mine
Ġstereotyp
ĠFollowing
Ġreplication
Ġdrunk
Ġdilemma
Ġdystop
044
ĠSDL
omb
Ġfight
ĠGet
ÃŃs
co
Ġgraphene
Ġobservations
Ġvisc
pins
Ġevaluating
sectional
Ġdebuted
(&
Ġtrop
Ġmoot
skin
Dash
IENT
Experts
Ġtranspl
Ġreferenced
ĠAMD
ALT
umper
Names
ĠRockies
===
ĠElm
thereum
Ġsimilar
ĠIB
Ġinstructors
itutes
Ġrecalling
Ġfaintly
Ġinside
Ġworst
Ġrestaurants
ĠView
ĠMid
ĠBlade
ometimes
ĠCore
Ġhairs
Queue
rench
ĠHelsinki
fitted
Ġunicorn
Ġmanuscripts
title
Ġresource
Ġclay
ĠFlake
Ġglove
ĠKarma
Ġfri
39
ĠGirls
Rock
Ġchant
Ġprick
ĠPortable
ĠWebb
Ul
ĠDoom
Ġapprehension
Ġdefended
ĠPAGE
ĠDefendant
wake
duct
ĠAutob
Ġpatriotic
Ġsuggestive
assador
Ġinflammatory
Ġsignage
ĠFurther
Ġbrightly
halla
Ġd
Ġoutcomes
"),
hog
APS
ĠStarfleet
ĠBree
.$
elvet
Tumblr
FU
ĠIPO
ĠElias
Ġprototypes
Ġlearning
scribe
Ġfundraiser
Ġomnip
Ġarises
ĠThanks
pose
ĠKol
Ġclarify
Ġagrees
Ġdisreg
Ġja
Ġoutsider
ĠPrepare
roup
ithing
Chicken
orted
Ġappreci
lord
amed
Ã´
Ġsupplemental
MN
781
rup
Ġend
Ġbloom
hands
Kill
akespeare
ĠBin
ĠLank
Ġsignificant
ĠHal
sk
ather
Ġsaves
adium
ĠCrypt
virtual
idency
lict
shape
Ġrelates
Ġcounties
Ġcompar
Ġrecomb
Ġsymbolism
Ġcloning
parents
Ġfact
ĠUNCLASSIFIED
ĠNeon
Ġlenders
Critics
Ġpools
ĠDeadpool
ĠSantorum
ĠSol
urse
atography
%-
RB
Ġhairst
RF
Near
UPDATE
forcement
Ġé
Ġsubparagraph
inventoryQuantity
ĠHer
oret
ĠFaw
Ġwellness
Ġoccupy
Add
Ġappet
istries
Ġincompetence
Ġdich
Ġlifeless
ĠRG
ĠInvalid
Morning
ĠMarket
ĠPublishing
ĠAchieve
ĠSett
uated
sing
orge
Ġknock
ĠEVENTS
ĠRead
shr
ĠExpress
ĠSalt
Ġstint
Ġcooperating
Ġrag
ĠTurkish
Ġglac
vidia
Ġshuttle
ĠIvy
pict
Ġcorrect
Ġlimitation
ĠGuarant
ĠQueensland
ĠCorpse
redo
Ġdetermined
SN
ĠBecky
ator
Ġcub
LOS
Ġpupil
ĠRogue
ĠDove
ansas
Ġballs
Ġtribunal
float
ĠBucket
ĠInher
four
ĠSafari
iners
ĠRyu
Ġinmate
ĠGoat
Ab
ĠRF
Ġworkspace
034
Ġwires
CONT
ĠReb
Ġconcede
Ġancestors
ĠJess
Ġarr
Ġexpectancy
Ġmisconceptions
Tai
slot
åº
Ġwarriors
ĠTavern
Ġaversion
Ġunic
Ġshared
ĠDinosaur
ann
conservancy
48
Ġlimited
Ġstrictly
communication
lopp
ricting
Ġaccessories
Î»
ĠGate
ĠIrma
Ġdeleted
ĠColor
Ġrushed
BUR
Ġpreferences
ĠSteph
ĠTHC
ĠCust
":""},{"
projects
ython
*/(
ĠNikol
Ġvortex
idget
ĠChanging
Ġdise
Ġalign
Ġz
ĠArabic
orset
apache
Featured
Ġpts
isites
Ġ01
Talk
Ġmunicip
Ġbrewers
ĠGar
ĠOrtiz
Bar
ĠRemain
Ġpredictably
ĠPhone
Ġmold
TEXT
ĠKernel
ĠLag
241
oped
ractions
ĠBabylon
ĠFANT
Ġsightings
Ġtransformer
Ġcircumstance
abet
Ġundo
ĠTurtles
ĠPNG
Ġ1901
ĠPotter
ĠNik
ĠAfric
ĠUltron
Ġclenched
ĠLoan
ĠVal
ĠJeep
ĠResistance
Ġgru
ě
Bey
ĠFPS
sed
Ġbroth
ĠKur
Ġrenovation
direction
ĠLith
Component
Ġamput
Ġwhining
Ġmisconception
ĠUnch
eng
Ġfaults
Ġfooled
Ġorcs
ĠUsed
Ġimproved
Ġdeadly
Ġwrist
developed
ĠTraff
Ġanus
Ġbreeding
Ø¨
Ġbuck
ĠEndurance
amiya
Ġestimating
awn
ĠFrankenstein
Ġdermat
Ġcylinder
leaf
Const
Load
Ġmammalian
ĠHarold
Ġunrecogn
ĠBreitbart
Ġattend
Ġadultery
Ġminions
fight
Ġremorse
Lost
Mouse
Ġprevent
Ġperplex
ĠPython
Ġphysically
Ġoppos
Ġfre
Ġmobilization
High
Ġencaps
ĠTours
ĠCah
Ġsingers
Ġservants
ĠDying
Ġglobalization
ĠDef
pred
ĠÙħ
ĠAlban
ĠBiblical
](
axies
ĠDestiny
ĠXCOM
ĠBrief
Ġreasoning
Ġ40
Ġecosystems
ĠNope
ĠSilva
Ġreadily
Ġdst
682
Ġninety
Ġunpublished
ĠAlley
Ġherds
sat
Ġteammate
Ġtapped
Ġinsomnia
mson
ĠThere
Ġsticking
Ġpier
ĠHeisman
Ġjab
Ġtransitioned
reve
Cat
udden
Ra
804
Ġ352
ĠWorm
Ġes
Ġapologized
ĠApostle
ä»£
Ġinaugural
Ġdysfunctional
stained
Court
Ġbutcher
Ġreleases
Ġproprietary
Ġoverwhelming
ural
ĠElections
Ġpins
Ġthin
ĠAlexand
inis
Ġboiling
Ġ502
ĠPad
Ġaffordability
zes
ĠTuc
Ġdrinking
Ġfaiths
Hen
Ġhorde
Ġcurated
ĠClarke
ĠRare
}{
ĠQuake
ĠSuicide
Ġticket
Ġdemocr
Ġexponential
Ġreconc
Ġamygdala
Poll
unc
Ġcuisine
Ġqualifications
Ġdaring
Ġoverseen
Ble
RECT
Ġpregnant
wm
Ġsubset
Ġoutspoken
Ġworsening
paste
Wik
Ġterrorism
Ġgifts
ĠLanka
Oregon
ĠUsing
pipe
Ġatten
ĠLib
Ġ<!--
Ġexclude
antis
Ġfrequency
iston
GAN
ĠColt
gaming
Ġ\'
Thompson
ĠAdapt
Leon
owsky
ĠChennai
ĠTact
Ġdifficulties
ĠNewark
Ġmogul
tri
Ġgames
ĠNed
ighter
Ġloos
ĠIR
Ġsecretive
Ġholistic
Ġdisposal
ĠPicks
Ġdrafts
RNA
Visit
Ġforcing
Ġminor
ĠKirk
ĠStep
ĠHann
ĠRes
2009
Ġfe
Ġhusbands
Ġdefeated
Ġexhibit
Ġattain
another
Ġrespawn
udget
ither
ĠFi
Ġmant
Dam
ĠDivinity
Ġsupper
Ġcathedral
ĠCran
ĠDough
ĠQuality
ĠBasically
Da
Ġ259
ĠReaders
Ġintuition
ursday
Ġresilience
ĠGand
656
Ġninja
]}
960
-,
Ġduplicate
Ġthorn
803
Ġhum
Ġmile
ĠAdolf
ĠPetraeus
Points
blown
Ġlately
Shield
Ġresume
inez
uish
Ġnicely
Ġunderwater
Ġbees
icas
Lou
Ġjud
Ġchecklist
Ġaid
Ġexporting
ĠSetting
Ġdomin
ĠPoker
Ġsausage
LGBT
ĠAlternate
ĠSoon
Ġsail
Ġflaw
Ġawaits
Ġsorry
em
ĠBihar
ĠBrilliant
Ġsucc
Ġdisobedience
Ġport
Ġsidewalks
Ġzoning
ĠCadillac
agram
ĠFOR
Ġcreature
anz
Ġpoultry
Ġattachment
Ġconcent
ĠElven
Ġaim
Ġpenal
Ġ//
FOX
ĠNov
rastructure
ĠWHAT
profile
Ġbaseman
Ġinitiating
Ġ2500
Ġimprovements
ĠSupreme
Ġni
Ġreunion
Ġstove
Ġhoc
Dog
Ġquot
884
ag
tek
ĠBaldwin
ĠVerge
quila
95
Ġapplicant
Parameters
Ġclassroom
Ġdecay
ĠClosed
split
Ġtour
cia
olyn
Ġadjustments
ĠDwight
Ġsailors
aco
Ġdissu
Ġpeasant
Ġclaimed
Ġhazards
emark
guyen
Ġintention
Ġnewborn
Ġgranddaughter
ĠPanzer
ĠBlackwell
Ġhabitual
trl
omew
ĠChim
Ġsettings
ĠVital
ĠCertain
uan
Ġcostly
pathic
ĠRacer
washing
Ġchair
Ġfuzzy
ĠGustav
orgetown
ĠKhalid
Ġ1986
Ġoffic
ĠFrederick
zu
ĠÂ½
Ġhump
Ġplaza
ANC
ĠTheme
Ġaccumulating
ĠGenerations
Ġslammed
Ġoversight
IRO
Ġconfidently
cape
Ġneurot
Scot
OUP
Spect
Ġinterventions
icts
530
Ġcrafting
Copy
Ãº
Ġbanana
Ġfingert
Ġhub
Ġexplanations
othy
ĠC
urban
cosystem
VERSION
Ġdisse
ĠKamp
ĠBailey
angs
Ġadaptive
Core
Ġcondesc
Ġarguably
Ġdiscussion
urus
ĠTradition
Ġfundamentally
Ġbehind
geries
106
aires
ĠClean
Ġpuzzle
####
Ġmice
128
ĠGW
Ġacceptance
Ġquickly
ĠDP
Ġcrippling
ĠGraphic
Ġcompression
Ġtyr
Ġprivately
+=
Ġinstructions
Ġmoist
acas
neau
hing
utions
car
78
gyn
Ġoccupations
Council
ĠAer
lash
ĠAlchemy
prisingly
Ġeditions
---------------
ĠHin
.ï¿½
Nat
Ġadhesive
overe
Ġarenas
Major
ĠWeasley
))))
ĠSpawn
uba
Ġsweeps
Ġcyan
Ġsubsystem
ĠEA
umar
cn
Ġshows
ĠDo
athan
Ġcal
imei
igned
Ġprevailing
ĠBows
Ġsoluble
Ġavailability
ĠSergey
ĠCurve
Bone
ally
Ġreforms
ĠMechanical
units
ĠElection
okÃ©
2005
Ġyes
Ġties
GE
Ġgir
Ġpersonality
ĠBW
Ġdist
power
Actually
Ġterrified
Ġmarble
Ġcurls
ork
ĠApocalypse
ĠSalem
Ġadrenaline
ilyn
Ġmeanings
ĠHerod
rences
ĠAuburn
Ġpacked
rupal
ĠPrevious
ú
ĠDion
Jacob
upload
icably
ĠGal
Ġunknown
652
Ġrubber
Ġgrape
Ġnewcomer
ĠVideos
ggle
Ġdirect
ĠPhotographer
ĠLand
Ġengaged
Ġidentifying
aven
'."
Bur
Perhaps
ĠUM
ĠAFC
Ġrestroom
been
imbabwe
318
Ġgenerated
Ġcreed
Ġinnings
Ġmap
Ġpreserve
Ġantics
Ġ07
MB
Ġdepth
opl
ĠCAT
Ġdeclarations
Ġgigs
Ġfeces
relevant
Were
ittees
ĠRussell
Ġdex
Ġsituated
to
ĠMultiple
)âĢĶ
Ġarchaic
aware
bians
Ġsculpt
ĠHearing
ĠIce
olition
Ġmysteriously
Ġparamedics
Ġroyal
Ġpoke
002
ORTS
Ġchimpanzees
Import
Ġsite
Ġspill
ĠGeographic
Ġpend
Ġmasculine
Ġcomedians
internal
Ġendemic
Consumer
network
kok
Ġouter
Equ
Ġfalse
630
ĠMk
712
Ġwit
Ġthousand
Ġpremiere
ancers
ĠConstantine
Ġoutlaw
Ġchassis
ĠSilence
witz
ĠBonnie
987
ĠAtmosp
Ġparting
549
Ġassembly
Ġpard
ĠPixie
ĠSatoshi
Ġner
Ġ1918
007
ĠCup
ĠGree
Ġelegant
aked
Cla
Ġaber
Ġdefines
Ġnecklace
ĠKali
Ġpark
ĠChandra
Ġesche
micro
ĠNebula
stasy
BILL
Ġslee
Ġnonex
Ġinverse
Ġcurv
Ġmuch
Ġst
oz
Ġroles
avior
ale
ĠCEOs
une
ĠSultan
Ġrepresentation
Ġcomfortable
Ġratio
ĠTal
iar
Ġacute
chin
Ġavocado
ĠPurch
KEY
Aut
Ġvampires
Ġswall
ĠWeek
ĠParis
Ġabuse
irds
ĠKass
Ġshowed
Ġministries
Qaeda
ora
Ġeviction
ĠFREE
ĠBeach
illing
Ġdisturbing
Ġambition
earth
ĠRU
Ġdiagnosed
ĠStates
etti
Ġkiss
Ġfluctuations
Ġelevate
ĠMerch
Dynamic
295
growing
Ġhugs
Ġgreedy
Ġpit
Ġautomobile
ĠTibetan
ignant
Ġye
ute
Ġpassword
Ġincorporates
pects
ĠTyrann
ĠSaud
Ġvariables
arted
645
raits
âĦ¢:
Ġagency
requency
ĠTid
tsy
ĠAlam
Ġwheels
Ġnominee
bor
ĠEdu
Ġbunker
','
Ġrisked
erity
Ġarg
sts
enabled
Ġsenator
Ġengineers
ĠCalcul
Ġ500
Wi
ĠCNS
ĠTayyip
Ġconflicting
Ġcontributing
Ġcontingent
ĠIncreased
ellar
ĠFisher
ĠCold
aper
Ġcurfew
ĠWhedon
Ġsuffice
Ġdark
)[
months
mes
Ġproceed
ĠHeaven
uj
ĠCthulhu
isoft
zanne
ĠAdministrator
ö
gb
AV
Ġencourages
lesiastical
Ġhereby
pe
annon
<
udence
ĠCena
Ġsports
Adapt
ĠUses
kb
ĠCrown
urbed
Ġsubsidy
older
Ġappointment
Ġculmination
Ah
Ġbuzzing
png
Ġparties
lihood
Ġpipeline
Ġsprawling
uart
ĠFr
ĠCorbyn
ĠBAS
bid
Ġhindsight
ĠDefinitions
ĠLevine
position
Ġposition
Ġmound
ĠEg
ĠMakes
Ġlots
Pause
Push
Ġswinging
brook
ĠImperial
ractical
ĠAdmission
ĠINF
ĠElder
ada
ĠSupport
Ġnem
ĠApollo
lining
Ġdispens
Ġbully
Ġtrails
Ġdirects
states
ĠRefugees
ĠPolaris
Ġcompromised
ĠPlanning
ridden
Ġaura
Ġrespecting
ĠTablet
ĠJou
graph
Ġhipp
ĠGentle
Ġiniti
Ġvec
ĠBay
ĠYo
ĠNug
ĠAmateur
Ġprimarily
oyal
onge
Val
acs
Ġfirepower
Ġnamely
ĠNurs
gro
Ġguard
Breaking
93
ĠPD
Ġindict
ĠDestination
atio
rison
uador
ãĤ¨ãĥ«
ant
Ġgarner
Ġsprung
Ġfavoring
Ġignored
ĠPrincess
ĠVIDEOS
Ġadversely
Irish
Wars
Ġsizes
Ġpiss
Ġsporting
ĠOC
ĠÏ
earable
ĠChristine
ULTS
ĠDad
ayne
Labor
ĠJaguars
ĠZimbabwe
Ġunprecedented
Ġceiling
ĠJag
Ġ122
Ġstresses
Ġisn
ĠSant
Ġscholars
lif
ocusing
ascade
},{"
ĠPhoto
error
Ġ(/
Ġgmaxwell
izer
Ġterrit
ĠBlazers
ĠTAG
S
Ġseverely
ĠClan
Ġ1989
Ġwise
ĠMeeting
ĠFior
abbage
Ġmurderers
Ġgrassroots
RM
Ġascended
%)
mmm
Ġcolossal
tesy
Ġhandle
Ġplatforms
Ġmeshes
Ġprisoners
istle
xi
Ġpodcasts
fn
Ġgut
Ġrecip
Could
Ġvolleyball
Ġlands
?????
Ġsadness
Ġasked
Ġlobbyists
OTE
Ġrelocated
Delivery
htt
vertisement
ĠLiver
Ġwarmed
Ġinspecting
ĠRewards
nexpected
Ġundead
ĠKnown
Blocks
Ġmute
Ġtasks
ĠGarmin
ĠPhilippines
ĠMarc
Stock
ĠConnection
Ġinterrupted
Ġoval
phones
Ġ{
ĠLoyal
idium
Ġpadding
ĠTot
Ġeternal
Ġafterwards
ĠThe
itated
Ġreunited
ĠVP
Ġsolicit
ĠNikki
Ġpersuasive
natal
ocrine
Ġsockets
ĠAlleg
Override
ĠPool
Ġjewel
Ġmaze
Did
ĠVoltage
ĠDirectory
uter
NP
Ġam
Weather
orum
Ġwherever
Ġblitz
sn
Bio
arse
ĠMIDI
uy
ĠEliot
Ġclock
whelming
ĠGAM
Ġbeard
abul
......
ãĥķãĤ¡
changes
baby
Ġmoistur
vance
Ġuniversity
Ġtariff
ilee
Ġunregulated
flash
ĠThieves
cipl
Ġfarther
Ġmedieval
Ġexpressions
irlf
Ġembrace
Ġcompound
ĠGrade
rag
ĠJakarta
Ġsummers
Ġpointless
yd
graded
bed
Ġamendment
ĠLSU
690
ĠCons
ĠCommodore
pec
Doc
Ġdeviations
ĠOkin
SP
Ġvaries
ĠSovere
Ġinterns
×ª
Ġcommunities
Ġboast
Ġwell
Ġaveraged
Ġreelection
ĠLol
Ġinhibition
WARD
Ġdying
ĠattRot
Ġinjury
Ġfinancing
ĠWillie
achine
Ġvast
ĠShak
shire
ador
Ġenthusiasts
<unk>
Ġcontributors
Ġparticip
Ġscratched
eners
weak
racist
Ġeq
Ġwhisper
Ġinstituted
ĠSamson
Ġailments
ĠAnaheim
Ġmarched
Ġrepresentatives
ĠBalk
ĠPiano
Ġundesirable
Ġ1070
ĠAssembly
Ġcompelling
Ġbabe
aneers
Nitrome
ĠWisconsin
Ġincidents
ĠNou
ĠSPORTS
ELL
ĠReading
ITION
ĠMILL
bits
Commun
ĠHyd
Ġequation
oglobin
Ġblue
Ġaback
leave
grass
razen
raint
ĠDeep
Pat
Ġchin
Ġassimil
Ġgrasping
scill
Bed
Earn
ĠBra
Ġpredictable
Ġeaten
ĠAndrews
Ġlengthy
Ġassistant
ĠTransportation
Ġprosecution
Ġmansion
Link
Ġda
mAh
Ġfreezer
ĠTibet
ĠDisabled
dream
Particip
chapter
Upload
ĠCoal
Labour
Ġcontinuing
opter
ARCH
Ġclamp
ĠViet
Ġpeers
ĠPeak
ĠZy
OOL
ourning
ean
ko
ca
ĠPhilippe
ruff
ĠBellev
ĠV
Ġexpanding
ĠNorthwestern
Ġicy
Ġlimp
MORE
Ġpreceding
Ġreaching
ĠTribal
ĠDetention
ĠHawai
.""
stairs
Ey
Ġdisruptions
olo
ĠBadge
ĠLv
ĠDusk
Ġcomplimentary
Ġlogistics
Ġcatcher
Ġautopsy
Ġdecades
Ġshortfall
Ġcreek
Ġenerg
Ġwob
ĠScholar
Science
Ġemploys
Ġlaughable
Interested
oxin
Ġregularly
Ġspr
ĠRepublicans
205
USB
rell
ĠProgramme
aki
Ġoverpower
Ġ"@
Ġtro
Ġbuff
ĠAdvis
rous
Ġsuc
ĠReward
Ġobfusc
Alice
Ġspeculation
ĠPri
forcing
Ġtuber
Ġadvertisement
Ġdisagreed
gotten
ĠRusty
ĠCheck
Ġpediatric
Ġmax
Ġinherited
UR
Ġshorter
oons
NAT
Ġcomparative
Ġ103
sum
ĠFaul
hift
Ġdesolate
Ġescalate
raper
Ġfiltered
Ġcheckpoints
itates
ĠBulldogs
ĠDmit
ĠBoo
Ġgrateful
pun
Ġeradicate
ĠGS
shop
ĠTheft
Ġtoler
aha
ĠRCMP
Ġattract
Ġpor
ery
Ġvile
Ġinvolved
Ġpokemon
Ġtravelled
Ġminors
ported
Ġbilateral
Ġplacement
ĠJab
Ġhardware
Ġgestures
Ġmaximize
Ġpiling
ĠChop
idden
ĠBrah
graduate
imentary
)*
mmmm
Ġretribution
ĠFried
renheit
ĠMonkey
ĠHolding
431
ĠDiscussion
ĠTyphoon
ulture
Ġstead
Cause
Pages
Ġculprit
OVER
ãĤ¸
Ġblocking
Ġwillful
Ġpursuing
env
ĠPremium
Ġthereto
Prime
),"
ĠMAC
activ
Syn
Ġaveraging
illusion
Ġcalling
Ġswim
Ġreflection
rics
Ġmish
ĠSTA
ĠManual
Ġcontrol
Ġwhatsoever
ĠTory
safe
Ġcafes
Heart
Ġfractures
oe
oddy
Ġindicating
sever
offic
inally
fters
ifled
ĠMour
Ġneighbors
loading
tered
Ġfaded
Ġmeals
zz
hand
ĠBox
ĠPierre
infect
Ġphenomenal
enson
ived
Ġbount
per
Ġmodify
outside
ĠPrinc
opsis
Ġholiest
emade
align
ĠTempest
ĠSitting
Ġtransitions
ĠHTTPS
irrel
Ġparticles
ĠFridays
Ġconsecut
Blog
Member
Ġpuppies
Days
ĠBiol
ĠHalo
ynchronous
Ġsimulac
ĠDarkness
ĠMarketable
Kansas
ĠOFFIC
Ġrapidly
ĠTrigger
ĠFight
Ġpunched
ĠMont
773
wal
isc
Ġroller
Ġsluggish
ption
Sem
vals
})
quickShip
ĠEmploy
Ġfeminist
Mad
Ġmembranes
Section
ipher
Ġslowdown
ĠQiao
HI
Ġnone
ears
¿
Ġminimized
neck
ĠDen
Ġlightning
Ġmasculinity
irc
ordes
Ġappointed
ĠCommun
ĠGob
Thunder
Ġchorus
Ġ13
Ġathletic
Ġ272
ĠLawrence
Ġsubscribed
aura
ĠVel
ĠMerry
Ġnests
ĠShips
×Ļ×
ĠPan
Ġroommate
$$$$
ĠUsually
Ġaltercation
Ġconsolid
ĠAlps
ĠUR
ision
Ġcinem
ogenic
Ġguarantee
ĠTechn
orned
introdu
Ġmyself
916
ye
730
ĠBrave
ĠRace
Ġglimps
ĠGemini
Ġtransgender
array
Ġblew
ĠSaul
Ġfledgling
Ġhealthy
nington
329
Ġtherape
ĠTemperature
codes
Ġphrase
Network
Ġcalculate
COMPLE
ĠBench
294
Ġindexed
ĠLion
ĠMalf
++;
a
Ġdamages
ĠBelow
ĠBett
315
phthal
Ġmango
imi
ophe
Raven
Ġfutile
ĠMachine
Ġoutfielder
Ġadvances
acterial
ĠConj
cdn
Ġperceptual
ĠCM
ĠSugar
Oper
Ġinfluenced
ographer
ĠFiona
tops
Ġdotted
Available
Ġbottleneck
White
ĠCarlo
LINE
Problem
Ġforward
ught
Ġpri
Ġtripod
Ġindemn
Spring
Ġunclear
Ġcontradictory
Ġsteel
Ġfres
ris
ĠEth
CDC
Ġseason
igen
ĠPants
ĠDifficulty
Ġbaffled
Ġder
Ġenclosure
Ġdeveloping
Ġbloated
Ġdolphin
Ġ:
ivalry
WH
Basically
ĠPhase
aced
ĠHost
ĠDawson
ĠSingle
ĠJPMorgan
An
etitive
avy
Ġconvicted
ĠEffect
ĠLeaves
Ġmandate
ĠFlorence
assis
odge
ĠMalt
old
Ġreacting
Ġplease
file
heading
Ġhandshake
Ġintroductory
ĠIdeas
ied
Ġregulations
ĠCay
Ġmarathon
James
Ġrolling
Ġcrossings
Ġsignaling
Ġcz
ĠLone
Ġedible
ĠKad
Ġtaxing
ĠOxy
Ġdefending
tone
ĠShrine
engine
uez
ĠTony
ĠHughes
Ġdose
end
112
Ġwealthier
Ġrobe
Ġmirac
Ġwink
ĠCaroline
ĠExam
ĠEating
drops
Ġcamel
ĠDestroy
Release
antics
ĠIlluminati
ãĥ¼
ĠCivic
66666666
iosity
Ġenrollment
ĠSixers
Ġdisbanded
Ġdelinqu
Ġ26
ique
Ġ530
ĠDart
atively
Ġparaph
Ġprod
CNN
ĠDuo
Ġpeasants
ĠBoard
Ġfilament
Ġtimber
escape
Ġannotation
Ġcyl
Fram
ĠHealer
fusc
objects
ĠJuice
iannopoulos
ĠIntegration
ĠLife
Ġweather
Ġcrashing
itol
BY
ooter
ĠPrin
ĠNev
Twenty
ĠASA
apses
verages
ides
ĠDemocracy
ĠAllied
Ġricher
auga
705
Ġidiosyncr
................................................................
Ġdisclosure
ĠGC
~~~~
Ġbenefiting
Ġassets
Ġsubsidiaries
Ġjudge
quer
ive
Ġstewards
ĠFixes
ĠSky
ĠSikh
Ġdiarrhea
ĠAirport
Ġverge
Ġtear
TPP
Ġsponsorship
ensus
Ġlowers
Ġveiled
lol
iaz
CHO
ĠChick
ĠPresents
Ġenum
add
atton
Ġadore
Ġensuing
nv
Ġintr
jet
Ġbailout
bomb
Ġtal
ĠGods
Ġbolts
Ġhearty
Ġbillion
ĠLoll
Ġandroid
Ġmanuals
Ġcallback
Ġwilderness
ĠPesh
ĠInstit
umo
Individual
kick
Ġcreate
Ġparsing
Kate
ramid
Jump
Ġbarred
Sim
Ġwoman
Ã¶
Ġpassers
Ġoppressed
Ġprojector
Ġdamn
Ġpopulation
Ġhinder
Ġana
ĠPriest
ĠGoPro
Ġpiping
ĠStand
Ġnuance
Ġliberate
ĠAir
aganda
heric
shit
ĠMongo
Ġprintf
Ġfoods
ĠDisney
ĠSev
eredith
endif
thinking
bows
chief
bread
Ġpolitic
udes
Ġ20
Ġsoaked
iceps
READ
Ġbookmark
ĠNoah
venture
roleum
ĠAy
ĠLook
ĠPackage
Ġexperiments
ĠMuk
ĠLyn
Ġrealizes
oyd
Ġinternship
Town
aron
moil
AGES
ĠHol
afia
Ġrights
421
Ġcombine
PER
ĠTube
Ġcovari
ailand
ĠVanity
Ġsignificantly
dating
Ġabstract
Ġexcept
Ġistg
Ġdevastating
Ġhorrend
ĠMana
ocolate
okingly
Ġguideline
margin
rest
ĠSenators
Ġsynthesis
ĠParadise
Ġhust
zone
ĠÃľ
Ice
ĠActs
Ġchalk
ĠLIKE
Ġactivating
Ġrejecting
ently
ĠSat
appropriate
info
gorith
sense
ĠPresidential
Ġwrongdoing
ĠMetroid
ĠScorpion
ĠCreep
FH
Ġado
ners
amples
Ġinsur
Ġdolphins
Ġexposure
ĠUseful
Ġscale
ief
Ġmentors
Ġhaunted
CRIP
ĠConserv
isher
java
ĠEntityItem
ĠAcademy
Ġrub
Old
ĠJudgment
ĠNicotine
Ġquad
ĠSelling
Ġclaiming
ĠRaiders
bas
ĠCE
ĠBundesliga
orb
Ġtoured
Ġjun
official
express
hearted
Ġmush
Ġoutlawed
ĠMajority
Ġmake
Ġdraft
terson
Additionally
left
Ġwhistle
alias
Ġthankful
lan
Ġuninstall
orph
Ġmeager
icia
Ġnarcotics
sc
days
Ġcontentious
ĠPere
Ġund
Ġlobby
Ġflock
ĠChu
Ġdisillusion
Ġprobably
oku
ĠThanksgiving
Ġende
Touch
piration
VERT
erate
Ġwipes
Ġclever
inyl
%%
Ġthing
ammu
ĠOperator
ĠIBM
Ġanalys
Alan
Ġrefuses
ocations
stant
ĠEvangel
ĠReferences
igan
Ġuncertainty
piece
Ġringing
cussion
Natural
Ġevolved
are
Ġsick
Sys
Î½
IRT
route
ĠSing
policy
Ġtad
Ġ
Ġconstitution
ĠYong
ĠItem
aunch
1978
Ġ279
Ġroster
ĠNigeria
ĠKyl
Ġumb
abiding
Ġiconic
lest
ĠSTOP
cloth
Ġchaos
ĠMoh
Ġcomposing
Ġcolor
FC
waves
Ġharshly
Ġcopying
ĠLuckily
Ġlawful
Ġnoting
Ġguilty
bey
Ġverify
ĠVICE
upt
259
Ġ108
Ġessence
Ġfederally
Ġconservation
Ġboom
Ġsecured
Purchase
ĠElectro
grim
alore
Attack
Ġrefinery
Ġhashing
é¾į
ĠMiy
etheless
Ġexcuses
Ġworkings
Ġhyp
Ġhandheld
Ġauthored
ĠWinning
Ġprovide
login
Ġtriv
Ġoutward
ĠSwanson
Ġremake
Ġyak
ede
Ġunderest
Ã¡
æĥ
ĠParagu
Ġtirelessly
Ġaccording
Ġorange
MSN
Their
ĠRAID
Ġ"\
Ġtraction
oral
Ġmanifestations
lua
Ġinstall
ĠPipeline
ĠSHARES
Ġcombust
Ġune
}
gments
Ġhomeland
ĠPowered
Ġla
otide
Ġsuspects
ouched
Ġpermissions
ĠFavorite
ĠTrojan
ablishment
Ġestate
ĠGeneric
ĠGuatemala
ttle
XXXX
ĠMario
Yan
Ġformat
Ġbait
breeding
Ġ44
Ġcooked
Ġplace
Ġinland
iva
hammer
estine
Ġgenerator
ĠDep
Ġprem
Ġsuspend
Baltimore
ĠMastery
uds
Layer
English
Ġ00000000
ĠSim
ĠFriedrich
111
Ġpuzzles
Ġreviewed
Ġunofficial
nothing
ĠMidlands
Ġembr
Ġstriped
Ġbloodstream
Ġdudes
Ġseats
Ġadamant
Student
Ġnonsense
Ġdenied
ĠMash
pour
ĠSoftware
Sec
Ġcampaigning
Ġhom
llan
Ġdefy
Ġions
Ġvigorously
ĠDisplay
Of
heart
ĠTHEY
zens
ĠGabriel
ĠRodney
ipation
ĠStream
ĠNath
ĠRE
itching
Ġstops
ĠChristina
elled
ĠJacqu
TV
ĠBuzz
Ġexpelled
Ġirre
Ġeagle
ĠReverend
ĠFG
563
Ġimplying
Unlike
ĠGian
itage
ĠDyn
:#
ĠMarvel
Ġredemption
rared
ĠGunn
Spawn
rie
Ġharms
Ġunits
ĠRet
ategor
ĠLeo
Ġmanga
YL
Ġseparatists
Ġaccomplishment
ĠRab
ĠDumb
Ġegg
Ġfranch
CLAIM
alle
ded
Ġdismantling
Ġintimacy
ĠHill
Within
Ġsoy
Ġ1952
Moh
Ġphylogen
ĠEverton
MAX
Ġrate
ĠIX
Ġavailable
ĠTHREE
apter
Ġrailing
attr
ĠPoland
Ġfoe
Ġabiding
Î±
Ġbecomes
Ġweeds
License
assetsadobe
ĠIndie
Ġsuite
Ġroar
ĠReloaded
Ġac
ĠUN
Ġpollution
Ġjeopard
ETS
779
Ġterminated
Ġfeats
ĠDign
fill
UT
Meta
Ġsubstrate
Ġcurve
allah
Shop
ĠAssociation
ĠClemson
Ġprosecutions
2000
ublished
ructure
ĠAgents
986
Ġaffairs
Ġcuc
Scroll
Ġblades
Study
ĠLoss
ventory
ĠBundle
Ġsubjug
ŃĶ
Ġdismissal
Ġpurity
ĠConrad
Ġpalette
ĠPhi
ERROR
Apply
ĠWR
ĠRobertson
ĠKirin
EMP
ĠNep
Jud
Ġconcluded
Ġ61
ĠRey
onomous
ĠEl
ĠChoose
ĠNau
sufficient
ornia
Ġprotesting
Ġblinded
Ġejac
Ġresemb
Ġdaylight
Bytes
artz
bott
amin
Ġrepression
647
Robert
ĠClause
cribed
Ġtick
arily
ellen
Ġchees
Ġpoking
ĠFuji
OAD
Ġhtt
search
ozy
Ġpres
ĠALS
Ġprimates
Ġfeels
Creat
ĠYs
ĠDimension
do
Ġdefault
ĠWisdom
alking
endish
Ġlatent
Ġlisting
Ġpil
iott
ĠWave
Ġtutor
nr
Ġshuts
Ġtender
estial
Ġcomponent
ĠKim
Ġlesson
Ġwrapping
Ġscreams
Ġsacred
Ġinduces
ija
Ġatoms
Ġ503
Ġtongue
Hold
Ġment
amous
rogram
ĠSup
Ġdigestion
BIP
Ġconflicts
Ġcheck
meier
Ġsealing
ãĥīãĥ©
Ġquestion
YC
Ġdep
Ġfusion
ĠConservation
eligible
Ġneutral
ord
ĠHead
Ġavert
urs
ĠEPA
ĠSquad
Ġcellar
Ġunbelievably
Ġ218
heres
Ġsticks
majority
ĠCBO
684
ĠSheen
Ġcounting
Ġdigs
het
?
fox
dor
ĠOregon
CV
009
Ġdoctors
Ġinsider
Ġfailing
ĠMercury
Wilson
Ġsoared
!.
Ġinjunction
ĠAvery
Turkey
icient
ĠFac
ĠTaco
ĠPv
ĠSturgeon
Ġcarrots
Christmas
Ġcollects
Ġwhip
Ġadaptations
692
Ġgastro
Ġpious
ĠVictory
istically
Ġcombating
ĠLM
ologically
Ġdisguised
Ġpathology
ocry
conscious
Links
Ġevoke
INE
ondon
IM
ĠHarvey
overy
ĠIRC
ĠGoldberg
Ġdiscouraged
ĠNato
ĠDefault
ĠNim
ĠCouch
Ġtouting
ĠLocation
Living
ach
ĠAccount
Ġredesign
doi
Ġbrightest
Ġdetection
Ġinvestigating
Ġdrought
ĠPalm
Ġunnoticed
expensive
Ġunreal
hops
Tang
monary
Font
ulin
input
Ġcig
ĠWasteland
Ġplent
Ġloneliness
Ġtoddlers
ĠSniper
ĠOs
aign
claw
Ġpassing
regulation
perial
Ide
ĠCells
ĠAlive
EMOTE
Ġcout
ĠDiagn
ĠDani
ĠGDP
Ġassumption
Ġresidential
ĠClassics
Ġhistorical
Ġdelicate
ĠEstate
Ġvaping
Ġmoderator
Ġspan
ĠTransparency
hof
Ġsweat
Ġshakes
ĠOuter
RGB
Ġbrand
Ġencamp
Ġjoint
lves
Ġunreasonable
ĠAdmir
Ġcartoons
ĠNOT
ĠLuk
set
ĠFork
upe
Ġmedicines
ĠWarm
Getty
move
Ġcunt
Ġtraits
ĠExpend
Ġemitted
Ġmistakes
uve
Ġmassacre
ly
Standard
ĠHunting
asures
Ġevangelical
ĠTek
ĠAmazon
UG
Ġovercrowd
ĠPrice
ĠGrow
ĠVO
Effective
ĠQuest
Ġpriced
ĠCorridor
ĠHistorical
443
uitive
Today
Ġpayroll
ĠSabha
acity
ĠIg
Ġindications
ĠLl
Ġsurrounding
Ġgoto
kg
Ġdominated
Most
Ġuses
Ġnet
Ġunanswered
Ġsqueezed
Ġvolume
Ġforeseeable
Six
Ġweary
ĠNorwegian
Ġcommunications
Ġkindly
Ġrespect
mine
enth
Ġsewer
ĠCurrency
ĠBray
ĠVAT
coord
imum
Panel
ãĤ£
ĠJerome
Ġautomation
ĠHybrid
ĠSched
¹
ĠKendall
Ġinciner
Ġinept
Ġsuppressing
Ġtease
ĠJump
Ġdisdain
395
Access
436
Ġconting
ĠStretch
Posts
ĠIndonesia
ridor
ARDIS
Ġaccent
ĠX
Ġpicked
Ġteachers
Ġcommitted
ĠBerk
Ġfug
ixties
ĠMasonic
creation
Ġannoun
Anim
Ġbaths
Ġrupt
Height
ĠHundred
amaru
GV
FIL
Finish
Ġmildly
Ġregulatory
Ġrepaired
ĠPain
Ġcleaners
ĠWasserman
Ġincludes
Ġkinds
ĠGTA
ĠCostume
ATURES
Ġtot
Ġenthus
Ġ][
Ġmayor
views
Ğ
ieties
Ġairline
Ġcrazy
Ġresembling
Ġclinic
config
Ġcommercial
ĠSAP
Ġvets
Ġkernels
ĠEpiscopal
yah
ĠGIF
FontSize
ĠPhotograph
ĠHeidi
ĠAurora
Ġstraw
à¸
Ġpubs
ĠHelen
Ġmodified
sections
Ġjudging
olphins
ĠWednesday
Ġecology
Ġrepeats
Ġmanual
poses
Ġengraved
ĠDead
Ġrightful
ĠUkrainians
umbo
joice
Ġlivelihood
Ġincorporating
ĠEco
imated
Ġaccuser
oha
ĠUl
actory
ĠJJ
ĠRising
lifting
knit
ĠChamberlain
Ġcoron
cellaneous
ĠFold
Ġdancer
ospace
ĠApost
negative
Ġvictims
Ġmultiplication
ĠLauderdale
ĠSpl
ĠOPEC
Ġunderworld
Ġanomalies
Ġyen
Ġguardians
Ġfinal
ĠEngland
iod
Ġdollar
ĠDana
ĠCave
Ġtransf
Girls
ĠUpper
holm
ĠAre
ĠPersons
Ġmashed
Ġobnoxious
Ġcyn
Ġmeditation
Ġindul
rupulous
Alt
ĠRockets
Ġ2011
ĠHidden
ettlement
Ġgraves
Stat
ĠPlasma
Ġcorrelates
ĠTempl
Ġcoil
bsite
ĠBreaking
Ġnegotiators
Ġsnail
Ġgunmen
ĠPhysics
ĠRoose
wan
orically
éĸ
outher
Ġweight
Ġ540
req
Ġcode
Ġprocessors
Ġdefic
Ġdashboard
government
omas
ĠSkywalker
ivic
Ġearthqu
LS
onian
Ġinhal
vironments
rius
Ġferocious
ĠCommonwealth
ĠRowe
Ġdoping
ĠApprentice
Ġhaving
ĠWhole
Ġregener
BRE
Ġresolution
support
ĠClaim
Te
.</
Dallas
Ġhired
Ġlac
Ġconstraints
Ġbegging
Ġconsec
Ġelsewhere
ificent
ĠPrevent
ĠPeaks
ĠUm
ĠCrimean
avanaugh
Bear
Ġris
ĠIps
ĠSwords
ĠGeneva
Ġgraphic
Ġabilities
Ġunleash
pect
Ġdisg
Ġpastor
ĠAnnie
ateg
Ġlicences
Ġmanageable
Ġ"<
Ġfiery
Ell
Ġforged
much
ĠMOR
Ġinsol
ĠPreservation
Trump
Ġcomprehens
Ġindependents
ĠSc
turn
ITE
ĠBEFORE
Ġthinly
zik
Ġflushed
ĠFolk
iqueness
clave
local
Ġ680
john
NL
ĠCarnage
Ġidentifiable
iscal
ĠDARK
Ġmammoth
abella
Ġinterrog
crow
Ġbullied
=-=-=-=-
Ġp
ĠNever
Ġpedestrian
magic
Invalid
Ġhed
vind
Ġvillage
oppable
Ġbinaries
ĠLub
Ġcompanion
ĠTOUR
âĿ
Ġclasp
Ġproves
agog
Ã¶r
98
Ġboards
jc
ĠMMR
Ġboat
Ġexperimental
Ġarrogance
sun
Dou
Ġembassy
Ġworship
Ġairs
Ġcaramel
ĠIII
ĠGross
Ġlicenses
ĠRespond
Ġcars
ĠMicro
,
Ġthread
agogue
caster
ĠEMS
ĠBland
Ġaccessing
Ġpowerless
Ġobservers
Ġadequately
activity
tracking
Ġjuxtap
ĠCitizens
Ġtaking
Ġopposite
ĠHydra
Ġboosters
ansion
ump
Ġsweetness
ĠJing
Press
ĠTrash
Circ
Detect
iphate
367
Ġhonour
Vs
477
arten
ĠCon
Ġcampuses
Ġwarm
Ġsmart
Ġæľ
Ġserpent
ĠTW
ĠVenom
Ġjourneys
Ġdele
Ġdictated
ĠGraveyard
ĠActivate
ope
Ġlottery
Ġintentionally
ĠTwist
generation
Ġneglected
Ġinjection
Ġhous
games
Ġnominating
ĠTr
Ġarresting
ĠCompared
Ġmessed
termin
Ġminds
Sense
Ġwestern
Ġdefined
Ġbackward
Ġinherent
Ġlab
Ġcorrespond
ĠCalled
ĠCad
Ġversatility
Ġrookies
abit
Ġshout
ando
ĠMartin
ĠBere
Ġstickers
question
Ġforemost
Ġnipple
Ġmere
ĠCock
Ġgn
ordial
skirts
ĠVolvo
ĠUnlock
ĠEgyptian
GAME
Ġpeas
Ġtaxp
Ġhonorable
Say
DIS
Ġchromos
ĠThor
Ġupstairs
218
Ġcongressional
Ġdeciding
Ġoutraged
dimensional
fourth
Ġtint
Ġreached
ĠAccord
Answer
471
Lisa
PE
Ġkind
Ġserve
ĠFrancisco
asta
Ġhandling
Ġliquids
ĠCAD
annis
ĠRosenthal
446
loads
ĠDeVos
Ġforests
Ġfigure
HL
Ġho
ĠAWS
eve
ienced
asant
ĠLann
Ġdynamics
ilion
ĠOPT
Ġcountless
Ġ361
Ġtablets
ĠBam
kowski
upper
Ġchords
ĠJack
Sunday
ĠAside
Ġentert
Philadelphia
ĠPles
Ġcollaps
Desc
I
ĠMcDonald
ctrl
ĠSeek
ength
ĠSQU
gom
Ġparadise
ãģĦ
774
Ġrollout
Ġinfants
Variable
tails
ĠRemastered
Ġcaut
Ġ?
ĠSneak
ĠSoros
Ġtorch
Ġnonprofit
ĠElev
iggins
Ġabnorm
Ġtechno
ĠMeditation
ĠVikings
ĠDrop
blood
KB
ĠPerspective
Ġleakage
imov
Ġplutonium
Ġwatt
ĠBain
payer
ovan
Ġcafeteria
Ġlife
ĠHam
ĠME
Ġpostings
Blade
required
ĠTank
Ġneon
Ġhopping
Ġshalt
/*
Ġprofound
III
abel
Ġcandle
outheastern
jee
icio
525
Ġknowing
adra
ĠBrexit
belt
Ġthemed
Ġvirtually
Ġnewfound
imedia
ĠMaya
ĠTelesc
Ġarticulated
ĠKDE
Ġlaughter
Ġdistribute
ĠBitcoin
Ġlodge
RFC
Ġweren
Ġemit
ĠSite
Ġrelaxation
Ġsleepy
Ġconfrontation
Bul
perfect
778
Ġfisher
io
Ġbelow
ĠParker
Ġdriveway
ĠMist
Cut
ĠControl
Financial
ĠRoute
bors
Ġmeets
phans
Ġbooze
olerance
Microsoft
Ġoffender
ĠERROR
VIDEO
aghd
Ġ1895
So
ervatives
Ġdescribe
J
ĠNavy
icks
gon
oine
ĠMoons
alysis
ĠStruct
ĠWass
ĠAttributes
Ġcircumstances
skilled
ĠRoland
aled
Michael
ĠTrials
Ã±
Ġcalendar
ocket
Ġsecondly
Ġintersections
ĠTrance
ÃĥÃĤÃĥÃĤÃĥÃĤÃĥÃĤÃĥÃĤÃĥÃĤÃĥÃĤÃĥÃĤÃĥÃĤÃĥÃĤÃĥÃĤÃĥÃĤÃĥÃĤÃĥÃĤÃĥÃĤÃĥÃĤ
Ġstool
ĠSame
Ġpans
ĠFirearms
Ġrelax
Ñı
issan
âĻ¥
Ġsaving
Ġcollagen
pt
Ġdiffer
Ġstate
rose
Ġopting
%,
Ġfinale
Ġdisorders
Join
HHHH
Keep
metal
Rub
oration
mile
opher
Ġchatter
ĠWolverine
ĠPressure
Ġwaive
Ġfilib
Ġhig
Yellow
ĠKavanaugh
blers
Ġapplic
Ġhardship
ĠHitchcock
ĠSET
ĠSe
aran
ĠVector
ĠÂ¶
Ġirregularities
Ĺ
ĠFP
Revolution
Page
ider
alling
ĠRhythm
Ġskysc
?).
ories
Ġchloride
ĠGujar
Ġstatute
column
anta
Ġexplains
Ġarchitects
Ġsemi
Ġabundance
udging
Ġextant
Ġ\(\
Ġsetting
ĠLiqu
ĠHait
Ġpatriarchy
Corn
ĠAdditionally
ĠEddie
Ġinsect
del
alde
434
Deal
IO
Ġdodge
etermin
odder
ĠHHS
redibly
94
HP
ĠBuccaneers
oki
UME
Host
Ġcorpus
Item
parse
ĠIncluded
ĠTBD
pr
Ġdug
ĠMae
lins
iked
ĠCommand
ichita
bitcoin
Ġpretty
Ġapologies
Ġ119
ĠGEN
ĠLeonard
ĠTroll
Ġbegin
ĠSha
2012
ĠRuss
Ġworkforce
Ġenough
ophile
acea
Ze
Owner
Prom
Ġphilos
ĠAboriginal
=~=~
angers
leases
Ġvibrations
Ġlesions
Ġrepaid
Reference
asu
ĠLake
ĠConsult
Ġcured
shield
inburgh
Ġevenings
icated
Ġrect
ĠETH
Ġconco
Ġbreath
ĠMats
ĠCipher
Ġbec
ĠDAV
Ġabsor
venants
Ġnormal
Ġengages
arton
Ġ193
ĠBosh
Ġdirected
rition
ham
Ġnice
Ġsubsequ
ĠSquid
ÃŃa
Ġjoints
ĠFlor
628
ielding
isations
ĠComic
fts
ĠOccup
Bug
Ġresize
Ġdiagnose
Ġclicking
Paris
Ġspar
Ġcream
Ġ22
å¹
Ġvivo
Ġtrick
Ġswaps
UK
ĠMidwest
ĠDowning
Ġaloud
Ġdecide
Ġsmiling
Ġexiled
ãĥ¼ãĤ¯
Ġ499
Ġpurchaser
Ġphon
ĠMu
Ġdown
ĠFoster
Ġtheatrical
Base
ĠRefugee
Ġenhance
Ġreferral
angering
Ġgrind
Ġ1919
Ġdart
ĠIreland
Ġescape
Ġdisputes
UN
outh
ĠMes
ĠFantasy
Ġdetrimental
Ġtrigger
Ġdiaper
itamin
Ġsummarize
Ü
Ġlaunched
Ġinches
ĠForty
Ġattachments
ĠKerry
arget
Ġdisag
Counter
Ġ));
roads
çĶŁ
éģ
Ġcarb
Ġcreeping
Ġruin
Ġaffordable
Ġprostate
ĠCandidate
Ġcreditor
Steven
nesota
Ġtight
ĠBorg
Ġheadphone
Ġwards
Ġawhile
Ġstamped
Ġinnovative
Ġcorrupted
Program
Ġsaturation
aepernick
ĠCinem
ĠAnswers
Ġinterception
Vari
Ġcrashes
Ġfound
Ġcontainers
ĠAdvanced
Ġeducation
ãĥ¡
ĠHOW
ĠJam
ĠAnders
owder
Ġmatchup
Ġallow
Ġautomate
erker
Ġconfig
ler
ixty
ĠJordanian
))
sort
Ġfiguring
Ġteen
Ġbeers
Ġsad
igr
umbling
251
Ġvers
Ġfind
Ġallies
Ġunseen
Ġoccas
Ġcommence
ĠKS
Ġresort
ĠVerd
Ġreconnaissance
qus
Audio
ĠNuclear
okin
boa
Ġdominance
Ġmisled
Ġlowered
ĠArtists
ĠKL
AMES
Ġlo
Ã¶n
Ġlemon
HER
Ġtorso
ĠElf
Ġdrifting
herry
ĠCrawford
Ġ1922
Ġviews
ĠGravity
Pal
ĠBoth
ĠMedicare
Ġholdings
Ġarchetype
ĠRez
ĠCTRL
Ġbounce
worker
HAEL
British
Ġtrace
Ġcubes
embed
umbnails
riad
ĠKira
gz
()
Ġexhaustive
ĠRT
Gb
Ġdelicious
Associated
Ġjack
308
ocation
ETF
Ġarchitecture
184
nic
Ġpersisted
ĠAwakening
Ġimposes
ĠReplace
ĠChelsea
ange
ĠEQ
Ġerror
Ġeduc
onda
ĠCisco
Moore
ĠUSS
Ġreplaced
paralleled
ĠArlington
gp
Ġbaskets
Ġmissed
ĠRom
Ġunacceptable
ĠSAS
Ġout
Ġinfiltrated
Ġ283
rox
fur
ulty
roo
801
Ġbul
Ġelectrom
ĠStout
ĠAadhaar
Ġooz
Ġelectron
Ġrestricting
seven
ĠCassandra
Ġstared
ak
ĠLogic
Insp
ranean
Ġuncontroll
Questions
Ġeffectiveness
ĠHoy
Ġdeleg
owski
Ġseminars
Ġsixth
ociate
cd
Ġeverywhere
Ġsecretion
åĨ
ĠSem
Ġinstit
ĠBattery
Ġdams
Ġstudies
Leg
ĠDres
Ġticks
âĸĪâĸĪâĸĪâĸĪ
aval
agement
olit
Ġoptimization
Ġsanct
Ġconcrete
ĠJACK
ĠDied
marg
ambling
eli
Little
Ġsoccer
433
ĠDodgers
Ġunless
Ġrepresenting
Ġrestoring
Ġuninsured
Sol
selling
Ġcert
Ġsedan
escent
ĠPart
range
ĠInvestors
Ġgroundbreaking
Ġairplane
Ġcentre
Ġposted
idad
Ġtranslate
ucker
Ġquint
Ġexercised
ĠMEP
Ġpersecuted
Ġchoir
jpg
Ġgraveyard
domain
chel
Ġlake
ĠGy
ĠProspect
Ġbriefings
ĠBlake
Defense
ĠSTUD
Fill
ĠWonders
ĠCotton
orious
lication
Ġunknow
tv
Ġcongress
Ġlaureate
ĠTEXT
Clock
Ġcorners
ĠMack
Ġsimmer
Ġviolation
Ġentrance
Ġpoison
Ġconfront
Ġconsolidation
1980
Ġchrome
Ġsovereign
ĠShowtime
Ġmigraine
Ġuter
Î¿
Everybody
080
ĠReload
Ġdelivering
Ġscenes
ĠAOL
ben
Ġtransplant
ĠWise
card
ĠMap
Ġcongest
ĠGG
odo
"},
Ġvendors
Ġokay
Ġblown
ĠSYSTEM
Ġdowngrade
Ġavg
Ġhiding
Ġchuckled
Ġenv
ĠMot
ĠCo
Ġgunfire
missing
Ġfloats
Ġobjected
ierce
le
Ġinclusion
NB
ĠPAT
WHO
Protect
ambers
Export
Ġdru
ĠHed
rescent
ĠGates
Ġdeliberately
etus
clear
Ġveterinary
ĠBo
ĠFile
enos
Ġcomponents
viron
ĠOrthodox
ink
Ġconcentrating
ĠJunior
Ġraces
anted
Ġsynonymous
None
Ġoverflowing
Ġwidest
Male
Ġdiffuse
Ġorb
ĠJournalists
uria
layer
ĠSocialist
Ġdisplayed
prints
esque
Understanding
194
Madison
ificantly
enf
Ġepist
ĠPengu
Ġswallowed
usra
ĠKY
Ġvisualization
Ġ1962
ĠXeon
Trigger
Ġ178
Ġlettuce
Ġcontraception
ĠEagles
Ġriot
Ġiteration
Ġdwarves
Ġneighbor
Ġfringe
lu
grab
Ġparasites
Ġorganisations
ĠBTC
ĠPrincipal
ĠIgnore
ĠFALSE
gpu
Ġlady
Ġforge
Ġrulings
Ġcountdown
Ġhomegrown
ĠComput
ustainable
eled
ĠRomania
Ġvan
Ġblasphemy
ĠMonte
Ġabdomen
idem
Ġ392
iman
ĠFrontier
Ġglare
Ġ149
Ġquicker
Analy
Ġhit
Ġinstructed
Ġlegions
Ġteenagers
Ġrefute
ĠNovember
ĠUpton
Ġprofessions
Forest
Ġepile
ĠAdministrative
Ġopenings
011
irlwind
ze
Ġclimbers
Ġpsyche
Ġlabs
gery
mers
see
accessible
Ġvalleys
reaching
esthetic
Ġeighth
jad
Ġrenewables
ĠEmployee
Ġembryo
xp
ĠAdvantage
Ġslavery
Sty
Ġdeteriorated
ĠNorth
ĠBears
Ġlocal
aching
urga
ĠFinance
Ġsolved
Ġmissions
ense
Ġwaving
Ġinterviewer
Ġpermit
Calling
ĠEucl
ãĥ³ãĤ¸
ĠCult
ĠAuth
ĠBlue
ĠSho
Ġheir
Ġlen
yan
Ġformula
ĠSeraph
ĠBowen
Ġbiological
Ġinc
ĠMark
Ġaccurately
Ġredef
Ġmockery
Ġvalues
Ġintegral
urous
redited
Ġneur
ĠEXP
Ġsaid
ĠBrow
uers
Pop
ĠLt
eps
Ġminority
ĠRenaissance
ĠSpread
Ġcassette
ĠAwoken
Ġpresumably
Ġ322
cong
Ġ157
mong
Israel
oof
oring
Ġdegraded
Ġromantic
Ġdonating
Ġsuperiority
producing
Ġenlightenment
Ġincomp
pleasant
ĠOlymp
ĠInc
ĠStage
ĠAdjust
liners
ĠTexas
Unfortunately
ĠRodham
ĠMadison
Ġ>
ãĤ¢
Used
ĠPeoples
ĠChall
ĠPork
cknowled
ĠJune
Ġrealise
imo
rise
Indiana
ĠTactics
OX
Ġoils
Ġachievements
ĠMÃ©
Ġcounterpart
oiler
Staff
zbollah
oser
M
Ġtem
ĠConservatives
onz
Ġpublicly
Ġbrewer
gements
Ġscope
Yes
ĠBerkeley
ĠFX
Ġuncanny
ĠRage
Ġlevers
Ġmailing
Ġforming
ĠAction
Ġ375
Shut
ĠCarl
cool
Ġgreet
ĠInsight
ĠEast
lamm
complete
Ġauthenticated
opy
Opt
ĠDhabi
Ġcit
Ġradios
Ġupward
ĠHmm
oding
Ġ490
Az
Ġdilig
Ġ202
ĠDutch
Ġpixels
Ġfeminists
Ġtowels
ĠBlacks
Ġshipped
branded
Daddy
adas
Ġgeared
MG
structed
"/>
Ġlymph
tracks
Ġimplanted
?)
operative
ĠAqu
ĠKnight
Ġdirecting
stice
YES
licts
åĪ
ĠHezbollah
ĠChampionships
Ġstreamed
Hop
Ġdegrading
Ġheaviest
ĠÏĦ
ĠReps
ĠADD
Ġff
Ġcatastrophe
ĠMelissa
aton
Ġbomb
lat
Ġmanipulated
Ġallowed
ĠChavez
oder
ĠDale
ĠCV
ĠHands
wart
jan
NM
Sham
ĠStars
gins
ikes
alog
ĠKazakh
ĠBOOK
Ġtyped
Ġmassage
OF
Ġfemales
Ġunsub
Ġglean
ĠRating
Auto
Ġbarking
Must
ĠBowman
ĠReverse
ĠZone
ĠMiliband
ĠBetter
Ġeconomics
Ġbounded
ĠGUI
Ġindisc
ãģĵ
ĠLincoln
ĠBeard
Ġabs
Ġmar
Ġplaylist
ĠWT
rence
JSON
ĠHale
Ġcowardly
future
lc
Weak
Ġincomes
Ġupfront
Ġcommanded
Ġsalon
ĠSlim
Ġspans
ĠDiss
Ġwhiff
ĠUnicode
Ġangrily
Ġflowers
Ġfills
Ġinsisting
ĠFerr
10
Ġfibre
Ġsuitcase
ourgeois
âĹ¼
Ġtigers
Ġfairly
Ġsweeping
aldehyde
Ġethics
Ġpinch
Ġcalam
ĠSacramento
ĠVariable
ologne
Status
agar
SI
ĠMolecular
177
tp
(
ĠInstagram
Ġearnings
Ġquiet
Ġsimple
Ġexplosive
ĠKara
Ġarchive
Ġmodifications
Ġparity
Ġentail
Ġib
ĠBryan
Ġpearl
Ġhighlighted
ĠMim
ib
Ġhistories
Ġexamining
arma
æŃ
ĠAlternatively
ĠHaving
ross
ĠGiuliani
Ġsleek
ĠAltern
ĠMeal
processor
YD
Ġ287
Ġexpans
ĠYeah
Ġsoftly
Ġauth
Ġtricks
story
ĠFrank
Ġcab
bearing
Ġwhispered
controller
Ġsingles
Ġtoolbar
ĠMountain
Ġpopulist
icc
str
Ġdissenting
573
mill
continental
Ġ().
Ġslow
ĠDil
Ġconcerns
Ġpaddle
Britain
Ġprenatal
Ġviable
ĠAdventure
ĠGran
ĠBag
Ġwinding
Ġleave
ĠBosnia
emon
Ġ75
ĠMTA
ĠEs
Ġagitated
Ġmultip
ĠChina
ĠTray
Ġrighteousness
owler
300
;;;;
Ġsmile
pped
ĠTar
Ġanal
Ġorganisms
yang
Ġpractise
ĠVermont
Ġgoods
Ġceremony
733
urable
ĠGuns
Create
ĠKids
bs
zag
Ġwors
Ġoffenders
ĠHu
ĠMT
ĠAtl
ĠDante
64
Ġemphasis
same
ĠTelecom
Ġvoices
ĠDrake
EC
Ġcontribute
Ġsubst
Urban
Phone
irs
Ġstemmed
Ġbast
ĠRobert
ĠGleaming
Ġlose
ĠTea
Ġtow
ĠBelarus
Ġharass
Ġshaped
Ġvirus
ĠRM
make
Ġsuffering
ĠPearl
Ġfret
minster
Dad
ĠTransactions
Ear
Ġblind
ĠRegular
UTERS
Ġexpire
ĠFrost
Ġcombines
Ġapartment
Ġapprove
athering
Denver
ĠRepublic
ĠKill
Ġvolley
Ġuseless
Îµ
¬¼
Ġsid
Ġprosper
ĠDuff
Ġrevelation
Ġrestricted
ĠQuantum
ĠReds
utics
Ġgamers
ĠDram
Ġdecisively
Ġoverturned
midt
ĠDocuments
152
Ġsatirical
Ġgh
washed
bm
Ġhello
FIG
Pink
Ġentries
Ġpresently
utt
Ġraging
Ġmild
Ġbrace
ĠOlympia
ĠTRUE
Ġexclusive
Down
Ġoblig
Ġwreck
Ġsplend
ĠWell
ĠÎ¼
se
Ġholster
.}
Ġ1990
Ġdonation
aging
acing
chains
Ġoperating
Ġrecycling
Ġfifth
ĠFellow
Ġturbine
ĠDome
Ġserious
ĠBliss
Ġbackbone
Ġmats
odox
ĠPagan
,âĢĶ
bu
Ġimprov
Ġcapability
Ġcooling
ĠOlivier
ĠCra
Ġshowdown
Ġscams
Ġairliner
Supported
ĠPalest
Ġambitions
Ġafforded
Ġprojects
ĠEqu
ª
idge
ouf
Ġdamp
Ġnominated
ourcing
Ġslaughtered
ĠInform
prep
Ġ379
Ġtru
ĠMecca
Ġ198
Ġvoting
Ġreflect
seller
Ġframeworks
Ġmono
ser
Ġannihilation
ãĥŃ
Ġlett
Ġtc
ĠEarly
Ġ73
Ġvetting
nice
Ġcareer
Ġdiffered
FACE
Ġexpressed
ĠBarney
ĠSkills
rer
Enable
000
Ġskeptics
ĠBat
Ġtwin
Ġbelly
Ġmorphed
protect
Ġpsychiat
ĠGallup
Ġpersonally
rary
ĠRear
Ġoverest
circ
Ġwip
Ġme
ĠCandy
trace
ien
ĠLaura
Ġdepreciation
ĠSTR
Ġ216
services
Account
ĠSTOR
Ġpaving
Ġretali
Ġclip
Ġpneum
ãĥĢ
ĠRick
Ġmarrying
Ġforesee
ocument
Ġdripping
ĠGan
_-
Ġdelusional
Ġpriorit
ĠDates
620
Ġalliance
merga
696
Ġguy
Ġrevert
ĠIndeed
ĠBord
Ġjihadist
Loading
Class
Ġefficacy
Ġintellectual
Ġtelecommunications
lf
adiq
ĠPU
Ġcomet
bug
Iv
ĠArts
ĠFrancis
Ġurgent
Ġko
inces
stein
ĠOrder
Ġconvict
Crime
ĠNordic
ĠMyth
ĠInsect
ĠCaptain
Ġcorro
Enh
Ġasks
ĠDrama
ĠMata
ĠKem
Ġsaga
Ġformulate
gat
Ï
Ġpresets
sis
ĠMan
Ġwalked
Ġsod
Ġaccommodating
shed
Ġ284
Ġtook
uate
Ġreconciliation
Ġbake
Ġnightmares
rendered
Ġeasy
ĠHousehold
IFT
Ġhaste
uffed
pedia
Ġnavigating
etsk
Ġcontact
Ġfn
Ġofferings
ĠMcCain
ĠBud
sama
Ġcooled
anting
cod
ĠAustria
ĠMcD
ĠLIA
Ġany
ĠCoast
Ġorganizer
month
ĠFletcher
cano
Ġoh
ĠGaga
healthy
Ġboils
Lock
ĠWhe
¥
Ġ----------------
Ġembodiment
ĠDictionary
achment
Ġdesires
400
potion
Ġamph
JC
output
Ġidentities
Ġframed
finger
Rose
688
Ġrookie
eder
ĠMem
apters
Ġgoblin
Screenshot
Ġrestart
Ġ457
Ġblank
stroke
rators
Ġ359
Ġmoisture
ivariate
Ġgeneral
ĠVinyl
likely
ition
Gra
ĠChampions
ĠCol
ĠBryce
Ġrationale
ĠNeb
ĠPeg
Ġ424
ota
Ġmandated
ĠContinue
IVE
ick
ĠProsecutor
ĠInstead
Ġsuitable
Ġleaflets
Ġdescrib
Ġalive
Ġcelebrations
Extreme
ãĤ®
ĠKING
arya
riors
Ġupdates
Ġlibraries
Ġwrongful
Ġcrochet
ional
Ġconsolation
option
Ġvenom
rodu
Ġcompetitions
people
])
ĠShan
Artist
ĠWelsh
Ġrelevance
chell
Justin
Ġselected
ĠAsh
Ġconference
ĠInst
atory
Ġbetray
Ġaccusation
Ġunwelcome
Ġraven
aptop
ĠSort
Ġexasper
Week
Ġfiles
college
Ġobserves
Catholic
ĠJanuary
eering
ĠCowboys
Post
Ġaxe
Ġshortcuts
Ġnight
ĠHarbaugh
Ġveget
ĠWolfgang
lik
rival
Ġsurprises
cpu
[[
Ġ720
apan
itted
ĠHealthy
ĠDB
Ġclassify
Ġslain
Ġsab
asaki
WE
Ġdecorations
Ġexamines
ISM
Ġscoff
ĠBuddh
Ġaccuracy
ĠGhost
Ġ768
addr
Ġunused
iom
ĠAware
Ġpropriet
ened
acc
ĠFA
Ġseparation
Ġemploy
Ġadvocated
Ġreflective
ĠKILL
ĠRaces
Documents
Ġdocker
ĠAIDS
Ġadjustable
words
ĠLibertarian
Animation
ĠProvidence
Ġtactic
Ġfarm
Ġval
Ġlubric
ĠJim
Ġ620
Ġgravy
Ġdamage
flies
Ġ360
att
adj
Ġnecessarily
OW
ively
ĠNirvana
hesda
weather
25
Ġleak
vert
Ġ</
Ġap
ized
ĠPharma
ĠPlastic
ĠFrame
Ġrunners
Ġspecialize
Ġassures
ĠSanta
ĠDos
Ġrouter
Ġbounced
tail
etr
ĠVictim
Ġ399
Maybe
Ġpainting
1998
999
md
ĠWhoever
Ġcruel
ĠNI
nick
ĠNaples
lot
connected
Ġexpansions
Ġallocate
Ġacronym
ĠHMS
Photos
Ġspun
ĠCON
ĠOnePlus
ĠIke
brown
ices
ĠAlf
Ġsquarely
ICLE
Ġinspired
Star
Ġtell
driving
Ġsickness
ida
Ġlineman
Ġloving
Ġsurgical
points
Ġemailed
Ġditch
Ġbeacon
Ġpoppy
Ġempirical
nery
rites
ĠIro
ĠPanc
Ġreproduced
Ġnaked
ĠFace
ĠCompetition
ĠDalton
Ġmatchups
ardless
ĠHighlights
Ġcollision
ĠMulcair
ther
ĠTake
scale
ĠAssets
ĠMAD
EEEE
670
FI
Ġgracious
Ġlegislative
ĠGrounds
adiator
Ġdelayed
Ġgalvan
ĠElsa
Ġsolves
Ġredd
ottesville
Ġhath
Romney
Ġcoded
ĠFan
Ġapes
ĠReflex
ĠCarbuncle
555
Ġlowest
Ġdried
imeters
uron
Ġhunger
Ġselves
ONS
Ġhut
accompan
Ġgrandparents
ĠLynch
ĠVariant
Ġpasta
andel
Ġfunc
ilet
Ġflashlight
Ġsimultane
Ġpublicity
595
Ġres
Ġsuperflu
vol
Ġgathering
Ġstudent
hip
owe
Ġprecautions
Ġcentrist
ĠIndust
ĠBerkshire
ĠChat
ĠToronto
fail
Ġpartitions
zed
Ġpid
ĠMalfoy
owship
Ġ>=
////////////////
Ġtelephone
ĠSerial
ction
/(
Ġ197
ieri
Ġbluntly
Ġagain
Ġcarries
ĠTransfer
ĠReincarnated
ĠCaucasus
Ġupd
Ġprotein
Ġtrading
ayed
omething
Des
ĠTer
agen
Ġcomb
ĠNutrition
Ġpasture
Tap
COLOR
iking
Ġwaiting
Ġidentifies
Ġcatching
lled
IJ
worthy
Ġpassages
ĠDES
ĠFinger
Ġdelaying
Ġother
Ġtenure
Ġlesbian
×ĳ
estyle
Ġ555
ĠSponsor
Ġcrews
Ġsegregation
Ġnowadays
Ġthird
Ġhalftime
windows
Ġfreel
Ġarrange
apers
Ġpose
Ġadvises
ĠPip
ĠE
Ġham
Ġresurg
Ġbooklet
Ġcannibal
Ġfemale
Ġkills
ste
ĠLinux
Ġcontiguous
hma
Ġinsulin
BILITY
ica
shows
fficiency
ĠFlare
ĠCause
Ġreminding
è¯
ĠDevelopment
owell
Ġinstalls
ĠJenna
ĠVenture
Ġbacking
stra
ossibly
Ġcomplete
ĠHare
Ġlofty
OCK
ĠBristol
Ġcanyon
Ġtense
Ġstrides
Ġmaize
ĠEgg
Ġsponsoring
really
reenshot
Ġdisastrous
412
Ġobscured
Train
visible
Ġacts
livion
Contract
Ġastonished
ĠProductions
anium
ĠAmendments
ĠLucky
ĠViv
Ġarchitectural
Ġoffending
night
Ġmarried
Ġcomedian
trial
Ġlikeness
ĠMartinez
ĠGoods
Tab
Ġearning
Sometimes
ott
Ġcousins
Ġbullshit
Ġanarch
ĠSamantha
ãĥı
action
..."
Ġpromoters
filled
Ġpressuring
ted
ĠLiberty
ĠFran
Record
oche
lahoma
Ġmicrobi
ppings
Ġoutage
inals
ĠMell
Ġorg
ued
iminary
324
ĠSystems
roversial
ĠFidel
Ġliqu
ĠTeg
Ġtemplates
Ġdemons
Wra
Ġslot
ĠSituation
Ġroads
ĠZhou
ĠBahamas
ĠParad
Ġpresume
rentices
ru
Ġphoton
alli
Ġantid
ĠAst
Ġrespondents
itialized
Connect
ags
Ġminimalist
ĠBlanc
Ġnormative
issa
Ġstun
Ġcarriers
Ġfuse
amn
Ġ##
--
Ġbinds
Ġriders
Ġbegged
ĠWonder
Ġbalanced
ĠFashion
Ġslack
court
677
AD
Fan
Ġfoss
Ġburgeoning
ntax
Ġted
Ġpepp
Ġpushing
Ġsteak
Ġscalable
ĠSays
Ġupright
Ġslice
Ġworkout
625
luence
ivism
Film
ĠCONT
Ġfades
enz
wit
osure
aby
Ġbrainstorm
OSP
Tickets
payers
Hash
Ġawoken
ux
ĠNan
Ġdensity
Ġcustomers
oit
Ġfacilities
IAS
Ġnavigation
Ġmans
gs
due
ĠUrs
ĠHF
ques
Ġfarmer
Ġknack
Rachel
Ġrecord
Ġafraid
Ġpaced
istor
ĠDPR
Ġdumping
alam
ĠWeiner
Effect
Ġnicknamed
Jan
Ġfaire
Ġmerch
uttered
Ė
Ġchars
Clark
1964
Ġchlor
nine
tel
adelphia
ĠSomerset
olitics
Ġsoft
Ġharassment
ĠCRC
merce
ĠHogwarts
Ġofficial
Ġdescriptive
ĠFisheries
Î³
ĠBE
ulus
export
iform
Weapon
Ġkeep
Ġperhaps
during
ĠHar
Ġstarred
Ġmaximizing
Ġthreshold
Ġagent
ĠCod
urities
Ġgenerates
Indian
LET
OTH
Ġinher
Ġanimal
Ġclone
Ġtransportation
having
ĠRPC
ĠPrometheus
Ġdoubled
ĠZen
Ġgovernmental
Ġninth
ĠChicago
ĠMill
Ġdro
Ġreserves
Ġmor
Ġjerk
ĠPolish
onential
Ġvon
Ġhots
Ġelabor
Ġfixation
Ġpolicymakers
Ġlawmakers
ãĤ¿
Ġpersist
whose
ĠItaly
ĠEnter
Ġthreaded
slice
Ġ70
UC
Jet
Ġoxid
Tank
Polit
Meat
Ġfun
Ġfuels
178
ĠOP
ĠOklahoma
Beta
Ġindependent
ĠEdited
ĠKatrina
Ġbirds
Ġchampions
Ġprelim
Ġinquire
afety
Ġunfit
acists
chi
fuel
umbnail
----------------------------------------------------------------
Real
Ġrainy
ĠAmelia
Ġspills
MIT
ĠAX
Ġclearer
ĠHarm
ĠDEF
estones
Ġrapid
olver
Ġsexual
658
Ġsecurities
ĠHarvest
Ġfut
achus
ĠDean
uture
Ġspoilers
ĠRise
Ġforwarded
Ġchild
ĠRuby
Ġblankets
quire
Ġtendency
Ġpile
ĠOld
ĠAnfield
ĠPle
Ġideals
ĠSWAT
Ġpollutants
ateurs
Ġphosph
Ġcoronary
Ġthrilled
creen
Ġdestabil
ĠChev
itance
Distance
Ġtype
Ġvacuum
Ġshin
azer
ĠNE
Ġhungry
ĠLiu
Ġhorrendous
Ġscanners
tim
ĠBelfast
ĠFinland
Ġlang
lio
Ġtrustworthy
Ġextrater
Ġcleaner
ĠEy
Ġantiv
Gordon
ospital
ĠStupid
Ġaggro
ahime
Republican
FAULT
Ġprotracted
Ġbiologist
Ġwhore
ĠCobb
ä½¿
";
bones
Cook
Ġliv
ĠSmartstocks
engeance
Ġsilver
Ġconclude
Ġsoutheast
Ġrevelations
enge
Ġbribery
Ġmimic
omes
ĠFernandez
Ġpatriarch
Ġdistortions
ĠGuidelines
Ġgoof
ournals
211
Ġdensely
Ġprop
ãĤŃ
interstitial
ĠPride
Ġreduced
Ġsung
Ġappropriate
Ġreferring
Ġhomage
Ġenvironments
ĠMeg
ĠBabe
Ġrocks
chie
Ġratings
cat
Ġcoat
ĠUlster
ĠSignature
Ġafore
Ġcritical
Ġtraumatic
ĠInspired
ĠNevertheless
realDonaldTrump
Ġaddict
Ġmun
Ġeclipse
Ġcollabor
ĠCase
Ġquarantine
Ġenchant
hig
aaa
edo
ĠEmpress
Ġuniversal
ĠSingapore
odied
Ġtalks
berman
Ġepit
Ġincreasingly
kn
ĠBuenos
Ġretains
sticks
ĠLama
Ġjihad
/"
Ġ*/
ĠPerkins
Ġ290
ulations
ĠLegend
Ġvarious
Ġvisuals
rex
Ġrobes
Ġaccelerated
Ġbids
Ġtractor
ĠAccept
Ġquieter
Ġsends
Ġdiscrete
ĠRegional
ĠScientific
Ġplatinum
ĠBuddhism
Ġsilhouette
ĠNEO
ĠWal
Ġsyndrome
Ġaviation
invest
ĠCul
ĠDaryl
Ġlb
ansson
sole
ĠCalling
Ġoddly
Ġreddit
Boo
ĠGoblin
Ġtilted
Ġstarts
namese
ĠPs
ĠBron
ĠWilde
ĠConcepts
ĠModes
930
Ġobj
ĠGlover
Ġbenign
Ġlabelled
Ġhers
ĠFreddie
meet
ipl
ĠOlympic
Officers
ĠRooms
aris
Ġfascinating
Ġadvancements
ĠOCT
ĠPAL
elight
Ġtacit
ĠLAPD
Ġemulation
ĠNanto
iable
Ġinterviews
python
ishy
ley
illegal
Ġmeasures
Ġsubsidized
atis
Evil
Ġmicrophone
}:
Russia
Ġnotices
Utah
ĠFord
force
entry
i
Ġreminder
Ġanxious
Ġunemployed
Ġcasinos
ĠTaxes
Ġaffirmation
ampires
Ġattitudes
coon
Ġdefinitively
Ġweird
Ġmosque
Ġtun
392
Ġlauncher
Uk
ravel
uple
Ġeg
Ġrecover
Ġcompanions
ĠLyons
Ġgoddamn
Digital
ifling
Ġbasics
Ġintro
ĠHick
Ġ17
oslov
nesses
ĠRena
Ġlesser
185
ĠImper
ĠProvide
ĠGP
ĠSweeney
osion
serving
ĠINTER
Ġvandal
Ġanchors
Ġdign
http
ĠMeteor
Ġnovel
Ġmarching
uchi
Ġheadlights
fat
ĠMuscle
ĠHalls
Manufact
ĠPASS
trigger
haps
ĠAchievements
ĠIC
ems
United
anke
ĠAC
husband
Ġcloaked
Ġmur
Ġrandom
lus
Ari
Ġgrowers
Ġpunitive
Ġindividuals
MAS
ĠGoogle
Ġcigar
997
Ġinitialized
Ġclassy
Ġconsultant
Ġbishops
gall
Ġlum
ordable
Ãª
ĠTomb
Ġpoisons
upiter
Ġmarches
Ġshri
Ġingred
Ġlakh
Ġliabilities
pad
Ġintox
Frameworks
Ġexport
Ġdental
ences
Ġ116
ĠCorm
ATOR
acon
ä¿
Ġdivine
ĠGarr
fm
Ġvoid
Ġrevised
ĠRams
ĠUng
Ġlandscape
Ġimitation
Ġhumorous
Ġwrote
Capital
Ġperipher
Ġgoodbye
Ġvessels
ĠLaun
crazy
warning
ĠRothschild
Easy
ĠWarp
hhh
ĠProtesters
Element
Ġimitate
cmd
ological
Ġformal
Ġinvariably
wall
Ġsame
ĠEmmanuel
Ġskeleton
ĠXer
Ġyr
CVE
ĠHard
Ġ263
Org
Ġwildfires
stown
Ġpatriotism
-(
West
Ġconfidence
itives
Events
ĠGuess
Developer
Ġlockdown
Ġamazingly
ĠTrayvon
itech
ORS
Ġcredited
ĠDamon
vo
obo
rad
Ġwearable
ĠInvestigations
ĠInstitute
Ġdrill
ĠCrew
asts
OTO
Ġfuriously
ĠContent
ASON
Ġretract
Ġ********************************
ptive
romancer
Ġavoidance
Ch
ÅŁ
Ġdenounce
sers
ĠHi
eeper
Ġcatalog
Ġhi
Ġbystand
ĠUtility
Ġcoun
amsung
ARGET
Type
ĠIDs
ĠQuÃ©
Ġcapabilities
ĠCunningham
ĠCALL
ĠMourinho
Ġinconsistent
ĠBM
Ġmales
Ġolive
ĠSpe
ĠMPs
Ġlosing
Ġtaxis
Ġpelvic
Bec
Ġpackage
Ġemotion
Ġcomposer
Ġxen
Port
eur
Ġeh
Ġnib
Led
ĠMorning
ĠSh
Ġeveryone
Ġcompliant
ĠAngelo
rients
Ġsearching
OOOOOOOO
ozo
ĠEt
making
qi
Ġmastery
ãĢģ
Ġdebunked
ĠRocket
ĠMikhail
ĠSetup
$.
Ġanyone
ĠHy
ĠIMAGES
hesive
Sus
Ġtreat
ĠSam
Ġcow
AG
Ġwarmer
ettes
VR
ĠTemper
ĠNeeds
Ġfr
EF
sac
Ġ377
something
utra
ĠJosÃ©
ĠPSU
Ġpamphlet
ĠCorporation
wards
ĠPra
Chart
Nick
Ġsatur
ĠParameters
Ġappalled
Ġexample
368
557
ĠWall
plin
Ho
ĠTomato
DIR
ĠValencia
ĠBl
ĠReceived
Voice
mult
ĠVehicles
sett
sy
ĠWildcats
fol
dirty
behavior
ĠKos
rocal
ovych
Ġtim
ĠWeekend
ĠMat
ĠBuilt
016
Ġponies
Ġnearly
ĠAAC
ĠSodium
Ġheaven
Ġuniform
Ġefficiently
CONCLUS
Ġhoping
Ġstim
>>
bridge
Ġneeded
ĠCardinals
Ġstimulated
Ġbreeds
js
Ġpremie
notice
cfg
ĠAssociated
ured
Ġdiagnosis
Ġreprodu
COL
eah
Ġreinvent
Ġcrispy
ĠCommunities
arger
Ġbailed
Ġbars
Ġtrivia
Ġemanating
Kind
Category
Ġanalog
ĠPowell
backer
illon
Ġrested
block
lain
ĠRespect
Ġhabitable
ÑĮ
ĠThrones
Ġinquest
ibus
Ġbureaucracy
Coin
Ġimporting
ĠCanterbury
ursion
igil
Ġscientist
\">
ĠBody
static
Hillary
Ġpotential
Ġpessim
ãĥ´
Ġrefreshing
Ġfactors
Ġadapting
ĠSY
ĠSith
otti
Ġextermin
ĠAfgh
Ġdepart
Ġfocused
Ġmyth
Handle
Ġpornography
.''
Ġshort
Ġpoorly
ĠMakoto
ately
ilt
Ġinterpretation
ĠMorg
ĠBel
ĠGuardians
ference
llor
ĠNorfolk
ĠRad
Ġgraft
Ġrestrictions
ĠBas
Ġcould
ĠKe
Ġstructured
ĠResident
Ġpainstaking
Ġhitting
Ġnotification
Ġshouts
expected
ĠMeadows
Ġhatred
Ġspectacle
Ġsubscribers
Ġextends
quest
346
ĠAncient
Ġromance
Ġprett
ua
1960
ĠSlash
ageddon
ĠNBC
ĠWilson
Ġlearnt
ĠJudith
ĠSeed
both
ĠPrepar
ĠAnne
Ġhasht
WAY
NK
1977
community
Ġtheoret
Ġheadquarters
ĠEng
]:
Ġmetals
Ġarcane
Ġtrove
Ġ???
razil
Ġdecks
Ġparams
oldown
ĠTyph
ĠGateway
Ġcite
Ġfleet
Ġrallies
307
ĠRoyale
Ġcalmed
ĠBrus
dozen
1967
593
Vol
Ġuneasy
Ġcomforting
Ġarsenal
Ġdestined
peed
Ġcounselling
currently
Ġhairc
ĠSimone
Ġstares
Ġglyph
Ġtriggered
ĠPokÃ©mon
ĠSchl
ĠEmacs
Ġoffered
ĠTro
ĠSullivan
ipedia
Đ
chip
Ġtempted
ĠReference
Ġvoucher
ĠArena
ĠChair
ĠHyundai
Gay
Ł
Ġdrew
Ġfigures
Ġascent
Ġmount
Ġbip
Ġredundancy
1981
ĠHist
Ġkil
ĠOak
ĠNe
Ġdick
ĠAUT
Iron
500
Ġopponents
Ġsaddened
ĠKang
137
gu
By
Ġvain
tell
ĠMunich
Ġso
Ġheav
Specifically
ably
ĠCargo
047
Ġstreng
Coach
could
Ġcostumes
ĠConsumption
Ġpanel
ĠGreat
Ġsees
icken
Ġderived
Ġwrath
Point
querade
Ġmeasurement
tie
Ġ144
ĠSTART
aways
mods
\.
anguage
ĠMonitor
orough
Ġexchanging
ĠBounce
mania
ĠSlay
poly
Static
ĠEchoes
Ġtolerated
wrapper
Ġ}}
IDS
Ġadults
ãĤ¼
Ġabsorbing
ĠOutlook
Ġpreach
ĠSnap
ĠHun
ĠBYU
Ġstrained
Ġmillennium
650
Ġabsence
Ġexile
Ġclipboard
fighters
iliary
ĠWinds
HT
ĠThief
equality
Ġbreakfast
Ġcontinent
ĠGrande
Ġashore
Ġorbs
ersed
Ġexposures
Ġ281
recomm
intel
ĠSystem
FINE
Ġgenerously
Ġunt
outheast
ĠMohammed
ñ
Ġcovering
667
Ġshowers
Jesus
ĠBlackburn
Ġhack
ĠHIM
ĠOvers
BO
ĠCards
Ġtet
Jes
Ġdigitally
Ġbod
Ġsignings
IVES
Ġdistinct
Ġadvertisers
res
Ġversa
aternity
uper
ĠMini
Cal
Ġdeficiencies
ĠII
Ġdrinkers
conom
ĠHA
Ġwhopping
elaide
Ġpictures
Ġmetric
Ġreverse
ĠCycle
ossal
translation
Ġsoap
Ġsubstitution
ĠSummon
ĠFnatic
umeric
Ġpronounce
t
weet
Ġsche
Ġcarnage
Ġsure
ĠMD
ĠSJ
ĠBlow
Whoever
Metal
Ġuploaded
Ġinch
online
ĠDoyle
eny
Ġprey
Ġairborne
Ġtemporary
sheets
156
adapt
rib
Details
Ġgathered
ĠGriff
Ġaqu
ĠHarbor
ĠSacrifice
Ġrecollection
ĠSydney
"âĢ¦
ĠPROT
URA
Ġ||
Ġtrio
Form
ĠLonely
Ġtrader
otomy
Ġrese
ampunk
Ġharvest
cms
Ġdetermin
ĠScale
Serial
Ē
ĠDunn
Ġpu
Rh
Cost
Ġgrounds
Ġmaritime
rr
Ġambassador
ĠMID
Ġunquestion
Ġtolerance
Ġheterosexual
ĠLB
Ġhats
ander
Ġblaze
Ġmarines
remote
Ġexterior
ĠSomehow
1997
xton
ĠVas
ens
Int
Ġcontaining
Ġpumps
ĠIk
Ġnit
Sean
AC
Ġsitu
ĠEra
Listen
ĠAMERICA
ouble
atan
ĠPhilippine
ĠRosen
ĠYam
whel
Ġworsen
itar
Ġclassmates
uku
Skip
Ġfavourites
ĠCreation
Ġsituational
Ġunim
ĠRichmond
ĠMars
Ġtandem
ãģĹ
ĠBale
Ġdeg
Ġinsin
ĠAthena
ĠAD
Ġbadge
ulsive
Ġescapes
ĠSas
Ġcaste
skinned
Ġrein
interest
ĠDynasty
onel
Ġexcluded
Ġaccuse
coin
icrobial
ĠGothic
ĠPt
ĠTHEN
«ĺ
·
Small
IX
æ°
OWN
ĠLite
prime
ĠClancy
Ġcapita
Ġcarriage
Ġmuse
Ġmanifests
Ġdisparity
ĠLess
ĠCorinth
ĠThornton
Ġsteering
Ġkidnapped
ĠGloria
Ġbalance
pots
Ġfingerprints
ĠPupp
ĠSEN
Ġlocks
FORM
aspers
âĵĺ
ĠOilers
ĠGupta
Basic
Ġblacks
Ġinquiry
Ġreplacement
ĠRecreation
Ġï¿½ï¿½ï¿½ï¿½ï¿½ï¿½ï¿½ï¿½
Ġpussy
ĠAmbassador
Ġsmarter
week
Ġcautioned
62
Ġwomb
Ġcann
Event
nce
Ġapologise
bah
Ġworkplaces
yrim
Conclusion
ĠSaur
ĠHaiti
ynt
Policy
ĠDuring
ĠPradesh
Ġcrabs
Ġmath
ĠCastle
Ġ425
anch
Ġdivest
chron
Ġorganic
\'
Atl
osit
ĠBarnes
agues
ĠCommunist
Ġforensic
Ġunnecessary
ĠChi
418
ĠHarris
Ġillustrious
reality
Ġalleg
Ġbrid
ĠYour
ĠStarter
Ġlawsuits
np
Secret
Ġdiscount
qua
Square
Ġdecoration
Ġsecurity
Ġmusic
Ġgrades
Ġcount
Ġopenly
Ġrelying
Ġformulation
Captain
ĠND
Ġdisciples
ĠACPI
Ġburial
Ġcreativity
ĠLots
ĠTwin
ĠMP
pa
Draft
ĠComics
ĠSTE
Ġrouters
hea
Ġpersists
ĠRousse
lee
,"
Ġchairman
dc
ĠRole
ĠRae
ĠHook
hatt
Ġafford
ĠWriting
ĠAdobe
Ġpublishing
Ġapostles
ileaks
ĠGhana
ĠOber
Ġpod
loc
Ġtighten
Ġquantitative
Ġcontinue
Ġresponsibly
ĠRange
Ġpurchased
Ġbru
Ġrant
Ġforgiving
effects
Ġchemist
ĠPyramid
Ġkan
LO
etary
Ġacquaintance
Ġbows
ĠCaleb
blue
Ġdelve
Ě
iot
imet
olf
Ġstereo
Ġapproaching
ĠStephen
ava
Ġpoisoning
Ġtendon
cci
ĠCloak
VALUE
ĠLight
Ġstructures
Ġbroad
Ġtropical
Ġseamless
Otherwise
admin
Ġunsigned
ĠSections
Ġmutant
Ġdb
Ġcovers
Attempt
Ġarra
ĠPizza
Ġmotivations
ĠFel
ÃĥÃĤ
Ġlone
odynam
LR
Command
uments
Ġcontroversial
Teen
ĠAhead
ĠRapp
oho
Ġacquiring
Ġcontradictions
Ġjump
Ġkne
inge
Ġcultivated
Ġhighs
Ġchrom
Ġbit
Ġhits
Ġdigit
gress
arbon
Ġcir
Ġcreator
DON
ĠTwisted
WORK
ĠCu
onductor
atican
Mom
ĠNvidia
dated
Ġcolorful
lesi
ĠIncre
acular
ĠRevenue
olly
Ġaims
ĠUnique
Ġmaintaining
Ġregarding
Ġimplemented
Warren
Ġplant
ĠBugs
aneous
miah
incent
ĠStefan
agra
WARE
Ġauthority
Ġpilgr
Ġjumps
Ġpotent
Ġlogin
ĠSyracuse
umbled
Ġmuddy
Ġconfirms
Ġabusing
ĠWhatsApp
ĠSchmidt
ĠEarlier
Ġrewritten
mat
Ġceased
ĠRebels
ĠMerc
Ġgrading
Ġalpha
Ġgrids
Ġconfirmation
Ġclaimant
ĠSacred
ĠGrace
Ġ269
789
ries
PC
ĠPLUS
Ġapocalypse
Ġte
ĠTownsend
ĠWester
Ġmustard
ĠGREAT
leted
Size
combat
tto
Helper
Winged
Ġstair
Ġagainst
ĠDenis
side
Ġtel
iggle
Ġsuicide
ĠAm
ĠImproved
996
ĠEVEN
IED
Ġperpetrators
elli
rogens
Jer
ĠMahjong
ĠIdeally
chid
controlled
ĠHistoric
Ġoverlooked
ĠBil
ĠDiablo
Ġclust
estead
Met
bole
roups
bands
ĠMaiden
Ġtrash
Ġsurrender
Ġtroubling
ĠProvince
Ġsuggest
ORE
Ġmore
Ġvegetarian
Whereas
Ġcounterproductive
Ġnormally
ĠShin
ĠOnes
dist
ĠBlueprint
Ġsomeone
Ġnoticed
ĠSong
olicited
Ġ1913
ĠEP
entin
ĠMarxism
aming
Way
enemy
ĠRun
Ġdissect
ĠXiao
127
ĠProbe
rant
ĠWelfare
ĠSov
Ġplaces
Ġsessions
ĠRobotics
Ġmurders
ĠRory
ĠJerusalem
ĠMidnight
Ġhors
ishable
âĢ¦)
Ġsubmar
aucuses
ĠWag
jen
Ġlaugh
que
Ġcontents
ĠKarin
Ġbonds
Across
ahead
ĠGovernor
ĠINFORMATION
Ġbackfield
Matt
ĠMinimum
uces
ĠâĪ
422
Ġdisrespect
Ġstraps
ĠMinecraft
ĠWalker
aer
Ġdata
272
erd
Ġtapes
ĠHealing
burst
Ġplanners
Ġindistinguishable
Ġsilly
Ġdeparted
apixel
prof
Ġperformers
ombs
Ġleans
ĠQuantity
none
incarn
Ġaccents
gres
Ġspeaking
Ġradical
ĠEmma
ĠOpen
ports
ĠPace
ĠKay
abeth
culture
lla
ĠRailway
Ġsmokers
Ġprincipled
etchup
466
ĠManafort
Ġdebunk
monster
ĠClothing
ĠStaten
ĠDist
ĠFUN
Ġdazzling
nis
Ġvalidation
ĠDrawing
Ġscandal
Ġ970
Ġwidget
LOC
"""
ĠPharmaceutical
inction
é¾įåĸļå£«
StreamerBot
locking
Ġcollections
owers
ĠRamsay
Ġgrain
les
ĠNicola
ĠFunds
cÃ©
Ġblond
Ġinconsistency
Ġthereof
ety
Ġpiety
Ġparticipates
Ġtraged
Ġdeepest
oft
Ġendangered
Ġ49
ĠMEM
ĠSting
ĠAmendment
Ġgreeted
ĠRAF
Ġwriter
Ġmornings
Ġsilicone
810
Ġvictim
ession
immune
Comp
ĠBelt
280
ĠAndy
ĠRussia
ĠTimeline
ovo
Ġwill
Ġapi
ĠSm
uddin
ĠCuomo
wald
Ġrubbed
HQ
abwe
Ġholiday
ĠQU
Ġdissatisf
marks
ĠLate
June
Ġlifelong
America
Ġtending
Byte
ĠPlayStation
Ġbriefly
256
ĠCrane
IAL
ĠFlorida
ĠTulsa
ĠDock
Ġecstatic
ĠCullen
Ġship
Ġ242
Ġnovels
Ġotherwise
Ġlighting
ĠCOM
Ġthefts
ysics
Ġstricken
ĠSiberia
ĠValues
Ġstated
Ġinform
Ġhalluc
glas
elligent
ĠOsborne
1979
Computer
esity
ĠBenn
ĠMarkets
Chuck
Ġclans
118
Ġportals
MX
Ġbyte
ONES
ĠFont
ĠAnti
Ġsteals
Ġ174
issance
iny
Ġshocking
ĠTimber
cl
Ġcirculation
Bad
ĠRatings
ulated
ĠZoo
ĠLegion
ĠBurr
NAS
Ġ=====
employed
idelines
ĠShe
ifestyle
Ġstimulate
apple
Ġidols
arus
Ġactresses
Ġpublishers
ĠDemo
ĠWOM
Ġripe
ĠMiracle
Ġhappiest
ĠRegistered
ĠUNC
Ġgeographical
ĠMcCartney
Ġglance
ĠJunk
cellent
458
Commerce
Ġshortened
ĠSIM
Ġmanip
grading
ĠHampton
ĠCarey
ĠPeriod
ĠMethods
Ġdisl
Ġ${
ĠNy
igated
ĠSignificant
ĠEvaluation
Part
Independent
179
Ġsometime
Ġbeings
oS
[_
-
ĠReich
Ġfandom
Ġpsychiatric
ĠWIN
Originally
ĠAlvarez
ĠCPU
ãĥĳ
ĠDest
Ġsack
boot
ĠDel
Ġpharmac
Mos
ĠScholars
DM
ĠCousins
ĠRehab
Ġswing
intend
ĠDreams
Ġexplanation
isin
od
Ġgenius
oky
Ġbleed
Ġfaux
Americans
Ġessentials
Mech
978
French
Ġplayground
legate
ĠVerify
ilibrium
auntlets
Ġupgr
ographical
Ġoutstanding
Ġskelet
true
ĠWard
cca
Ġsexuality
Ġrealization
Ġcreation
ureen
Ġsubdiv
Ġedited
Ġformatted
ruciating
Ġrecorder
Ġmatched
ĠLeBron
ĠGohan
umbledore
Ġskeletal
ĠBecause
vil
ĠLuffy
/âĢĭ
ĠTemple
Ġlumin
tiny
ĠMetall
core
Ġtagged
ctx
685
ĠWarwick
Ġemployment
Ġinduction
Ġnewcomers
Ġboard
onest
ĠSpielberg
DO
Ġproto
Ġwretched
Ġpsych
ĠVeterans
Ġenlarged
Ġsimulate
Ġdistilled
beaut
Ġfrown
ĠLegislature
Ġpow
ĠHemp
276
Ġflared
ĠOlder
Ġinterface
pheus
ĠPOWER
crete
Ġmonuments
Ġfounder
Ġphysicist
Ġpassed
Ġ69
Ġmarine
Ġempty
Ġsharp
Ġrevisions
ĠZion
Ġportraying
Ġbatting
September
ĠHurt
Ġthere
Ġunmarked
Ġshareholder
ĠCEO
Ġdefaults
Ġswept
Ġsensational
Ġattribution
ĠBegins
tch
ĠInterstate
Ġscr
Ġstandard
razy
ĠSon
idas
Ġbelieve
ĠFern
Ġskirts
Ġcannabinoids
Returns
Ġstances
ĠHermes
Ġdoctrines
Ġload
Ġrests
Ġfresh
Ġattempted
page
ĠDR
Ġpel
ĠRubio
OLD
ĠCompass
ĠLIST
Ġsimplistic
ĠSpark
Ġalmonds
hospital
Ġcosmos
Ġhemor
Ġinfl
Ġperimeter
Ġot
wordpress
ãĤĬ
Australia
ĠSanchez
Ġinevitably
Ġtimes
ĠTrans
ĠBald
agles
Ġ213
Ġcritic
nih
Ġpund
Ġcarrying
vision
Ġadditionally
Ġownership
Ġadversary
diagn
Ġhrs
Ġjour
Ġtogether
ĠT
Ġunderstand
Ġcur
ĠStanding
ĠNCAA
ĠPaige
Ġins
NC
Ġcruise
Ġincidence
rained
uton
zers
Ġprovocation
196
ĠINT
Buy
Ġinauguration
ĠBCC
yne
ight
Ġwaits
ĠDudley
cum
winter
Ġlug
Ġshields
Ġchar
Ġmessing
lyss
Lady
allas
Ġindoctr
ĠTinker
rider
dm
Ġrape
modified
ĠClone
new
aah
ĠParliament
ĠPlayed
Ġleukemia
OOOO
Ġ(%
avorite
Ġantidepress
Ġautobi
Ġexplicit
ĠBrooklyn
awan
Ġstrawberries
Ġbalcon
ĠFree
ĠRamadan
ĠDeV
Ġantic
ĠGau
classes
iscopal
Ġsupreme
Ġoz
eln
Ġfuss
Ġupdate
MET
ĠRazer
Ġtrailers
Ġlangu
ĠVIS
Ġsank
MAR
peror
6
Ġ1971
Ġmajorities
ĠRevenge
Ġchopping
Ġwizards
Weiss
taking
ĠCart
non
ĠBig
ĠSuccess
ĠKind
ĠEd
ĠBible
ĠIvan
Ġbalcony
Ġenergetic
Ġtimed
de
Ġdesert
ED
OO
ĠWiFi
Ġarose
Ġkisses
Ka
Ġextracting
ippi
Ġgif
Ġadditive
ĠSilent
ido
onia
Ġcreates
Ġshoved
ĠHappiness
Ġgib
ĠVim
1993
ĠDuration
Ġstudy
half
Ġrationality
theme
Package
607
Ġdistribut
Ġcentral
Ġch
Chief
Ġtreasure
Ġvault
ĠKilled
Ġtricked
Ġplanned
ASS
ĠNoise
Ġboolean
Ġexamined
eez
Ġmaster
ĠBakr
Newsletter
par
path
Ġbook
Sword
everal
Ġfranchise
ĠSoviet
Ġretiring
ĠChicken
76561
ĠSIGN
abulary
ĠAmanda
Ġthirteen
Ġtape
Ġsymbolic
Ġcent
ĠBob
ĠCoffee
Ġattorneys
years
Ġ401
ĠPAN
ĠScience
Ġdiscriminated
ressing
ĠRee
idian
Ġexhibited
Ġcultivation
Ġque
determination
Ġcontag
O
Ġdistant
olution
Ġmanifest
ĠOf
ĠBenefits
Ġeasiest
Oil
IP
ĠMonths
Ġgarments
243
Adams
Susan
esville
Ġnegative
Ġafterlife
switch
Js
Ġtom
ĠSpoiler
itional
ĠScientology
Ġattraction
ĠAust
Ġindependently
Ġperm
ĠRudolph
Dim
å½
Ġouts
Blue
ĠMartian
Ġpetition
ĠLes
ĠJa
Ġpant
backs
riv
Ġcyclists
Ġgrou
Ġcreepy
Ġsounds
ĠTend
Ġshining
Ġaggressive
Ġpromotes
ĠRevel
ĠStan
ĠStrateg
Ġillusions
ĠSimpl
Ġmonopoly
ĠLovely
Thor
Ġdeserves
Friends
iko
Poor
llular
ĠRock
ctr
Ġairstrike
appings
Ġsteady
Ġcolors
Ġcanceled
ĠDocker
De
umblr
inguishable
Ġreinforcing
ĠAtkinson
___
natureconservancy
Ġcornerback
Ġassassin
Ġcenturies
weights
asper
ĠGonz
theless
integer
Ġne
ÃĥÃĤÃĥÃĤ
Credits
ĠLucas
Ġstormed
Ry
ĠBarbie
Ġfab
Ġarbitrary
iah
Ġfloor
ĠMarin
4000
Ġincrim
Connection
Ġstation
market
Ġmeal
gre
Ġbuffers
ĠInstallation
ĠNiagara
ĠKuala
ĠProfit
Ġexcessive
Ġadvertise
306
uine
Aust
niper
ĠStella
Ġceilings
methyl
ver
Ġdifferentiation
Ġbiom
urn
Ġrazor
Ever
ĠOrlando
Ġnovelty
Ġeluc
Ġqueens
Ġkept
ĠStronghold
ĠThirty
Ġimpart
Ġunpre
uh
ĠDemand
ĠDraft
Ġempowered
ĠDigest
apons
Ġintrinsically
ĠTrading
ause
ictions
ĠHath
ĠLast
Ġinvolvement
Ġmerging
Ġrebuilt
ĠBars
Pak
Ġornament
ĠScout
Ġgranted
asking
eteenth
ĠRelic
ĠHorses
Ġbeats
Ġfries
ĠBarth
Ġspate
Ġpamph
iox
gets
507
Ġstomp
Ġreach
0000
Ġwives
Ġcolder
Â½
IU
Ġurgently
Ġ315
ĠDefensive
ĠTrave
ocular
]"
htar
Ġsal
88
Ġinserted
Bright
hi
ĠRocky
ĠSpy
Ġvolatility
ourage
QU
Ġsincere
Ġcastle
Ġsw
atta
Ġseamlessly
ĠOrig
retch
ĠFarmer
ommod
enture
Ġscrut
ĠKubrick
aza
Ġanten
riet
sbm
Ġchoose
rawdownloadcloneembedreportprint
EP
Joe
Ġapplication
Ġstrains
Ġclear
erella
ricks
ĠSauce
Ġglucose
constitutional
REDACTED
ĠSafety
ĠBieber
asket
Ġcorrection
Ġnascent
Ġlyric
ares
States
time
Ġassigning
ĠSherman
Ġinduce
Ġsnippets
ĠGamerGate
Ġscor
Ġcurs
RED
ĠBullet
Ġcheckout
Ġwebs
Ġ114
Ġundercover
Ġsabot
Ġorphans
Beginning
araoh
çĭ
Obama
orea
Ġset
Ġjar
Ġhypocritical
ĠAlbert
Ġvelocity
unts
ensible
cross
Ġoutlining
${
Gi
ĠOrganization
phasis
ĠSmart
Prin
ĠLetter
edom
ĠASCII
ĠHUM
Ġsqor
Ġnegoti
motion
wh
odore
Ġdistrict
agi
eval
Against
ĠBoots
YOU
oxy
Ġjam
ĠWynne
ĠProsper
ĠKH
itzerland
Ġrul
Ġcorrelations
atomic
Ġmask
ĠOrganisation
Hall
ĠBaal
background
share
Ġboy
Ġrink
Ġdiary
591
ï¿½ï¿½
ĠPrest
Ġallowance
Ġcongen
Ġcryptographic
exit
Ġdifferences
generated
Ġanat
Ġcarry
ĠShade
ration
)'
uras
repeat
tick
ĠBuk
alla
ĠAce
ĠInterview
ĠIbrahim
Ġcandy
Ġ<
Ġrevolves
Ġfurnished
Ġaperture
ĠRefuge
atars
ĠCriminal
Ġsolitude
ĠAmazing
Ġonset
ĠIndia
Ġingest
Ire
ĠTF
Ġå
Ġconceal
Ġscores
Ġsoutheastern
soType
Ġslaughter
Ġended
ĠTig
ĠAlexandra
Ġtant
elligence
ĠMeans
Ġtelesc
Ġalong
Ġincreases
Ġrobotic
ĠGarner
Ġcollaborating
ayn
ulative
Ġstupidity
ĠMedieval
ogyn
ĠExplore
Ġclauses
Ġreactor
Ġscales
Ġmuseum
Sy
iguous
Ġexits
ĠRecommended
Ġbow
ĠPaw
Ġmechanic
archives
Ġkey
atell
ĠVisual
Ġseem
drug
Ġstance
atility
ĠFDR
":
Ġoper
017
Ġtaste
47
ĠAtkins
Joshua
Memory
mb
Ġextravag
ellation
Ġamen
ĠGiles
iever
unt
ĠExposure
inav
Ġprayer
ĠDU
ĠMiss
Ġprogrammes
Ġshooting
Ġpads
ĠSheldon
ĠJung
natural
ailing
ĠSergio
Ġclashed
Ġdownhill
Ġequal
Ġmeasured
ĠPeters
Ġridiculed
Ġ__
Ġsurg
Ġpige
Ġthick
ĠWatts
Andy
orthern
Ġhumili
Ġrecommend
ĠSussex
Ġ1200
ĠArmstrong
Ġcamping
Ġstruggle
Ġmitigation
Ġbanquet
Ġmart
ĠUX
Ġtho
Ġfundamentalist
linear
vp
ĠGrateful
Ġsophistic
Ġbreeze
onymous
Ġclerk
PRESS
ĠMadagascar
ĠBless
ĠBout
ĠMoving
ĠGazette
Ġali
Ġspoof
please
tsky
Empty
kill
usive
ĠVerizon
Ġwent
Ġcrowd
Ġmultiplying
ĠAsset
Ġdisappears
ĠCountdown
Ġtest
Ġenjoys
ĠKurd
nan
ĠSasha
ĠEuras
ĠBrig
ĠSunrise
ĠPress
Ġwildlife
Ġimpatient
ĠVen
ĠTrap
ĠSupported
ĠAPI
unic
ciples
ĠHowell
Ġthr
Ġaddition
Ġexcluding
Ġroyalty
ASH
Ġadop
Ġguests
Ġdriver
Ġimprisoned
ĠGirl
tex
ĠFriends
ĠSpectre
Ġ*.
ĠUncharted
ĠAdelaide
Ġthrilling
Ġfib
ĠNotwithstanding
äºº
Ġgotta
Ġtitan
Ġplaced
ĠThursday
Ġaren
Ġtheft
Ġti
ĠTBA
ĠModern
Ġinsensitive
Ġdetectable
cases
ĠGuatem
erning
atech
Ġrocked
rev
Ġbut
ĠPID
Ġshouting
Ġbaby
aks
footed
anyl
Ġroot
bern
Ġspoke
ĠPalin
might
ĠBeware
Ġduct
ĠBS
ĠPresidency
ala
ĠCrime
Ġcarbs
pd
ĠDartmouth
Ġresponses
Original
ĠElon
Premium
ollo
heads
Amid
Ġvic
AND
idental
Ġdiamonds
Ġlaser
hov
ĠCaucas
Ġmilk
ĠAdvertisement
Ġmodule
Ġfiction
oven
Ġbal
ĠRa
Ġhyper
Ġworrisome
ĠUnit
Ġsincerely
uminium
roxy
command
exper
Ġgubernatorial
ructose
leanor
Ġworkload
Gene
GG
ĠReck
:{
emer
.,"
Ġdaddy
Ġhabit
Ġbelie
Ġrevived
Yang
au
Ġinnumerable
Ġestimated
Ġproportion
liber
Ġ76
ĠJagu
Ġmindful
='
ĠCOL
Ġdisconnected
299
Ġpiano
Ġprecon
661
Ġwiping
Ġslated
Ġshaft
ĠMelody
ĠkW
ĠChatt
Software
Ġinvestigation
Ġurge
ĠLori
ĠForeign
Ġcouncillors
Ġcrew
KN
Ġundis
Nothing
ĠNeptune
Ġnumer
Ġori
Ġcoalition
Ġproclaiming
Ġresearcher
ĠCinnamon
ãģ®å
avoid
ĠDragonbound
ĠAdjusted
Ġpistols
Ġsouthwest
atal
ĠContinued
omm
Ġunderway
Ġbust
ĠLatino
Ġ650
ĠUnity
addin
Ġtorture
Ġcalcul
ĠShot
ĠMedal
ĠLED
Ġretired
ĠRah
is
Ġhurting
Ġwa
ouk
resistant
eger
VERTIS
ĠSpac
Ġnobility
menu
Ġchasing
Ġdism
that
Ġcommissioned
ĠSad
friends
ĠAnother
Ġsalads
Ġarte
Ġnow
Ġ1915
asc
imental
ĠZer
haar
ÂłÂłÂłÂłÂłÂłÂłÂłÂłÂłÂłÂłÂłÂłÂłÂł
Ġmelt
ĠPract
ĠTrees
Ġciv
ĠLIM
Ġaccompany
focused
Kelly
ĠRestaurant
Atlanta
Ġcheapest
Nov
ussion
Map
icative
ĠMiscellaneous
ĠCao
Ġaddr
899
iggs
Ġmotion
estate
alo
FF
Ġpossibilities
Ġinvalid
NetMessage
bing
ĠStr
ĠRoss
ĠHenry
pur
Ġshortages
Ġrethink
Ġclinging
Ġshrug
ĠSimpson
ready
Ġpacking
comp
terror
Brend
Ġnomination
Ġ----------------------------------------------------------------
460
Ġdesignation
").
class
ĠBolt
itt
Ġrestraint
angelo
Ġrounding
ĠMilky
Ã©
Ġinterpreted
Through
gran
ĠGerald
Ġdrastically
Ġunve
each
Ġcontamination
Ġops
Ġcombination
transfer
?]
Late
Ġlicking
ĠProcessor
ĠSomali
Offic
Ġmotel
acky
ĠRip
ferred
Ġbegan
aea
Ġpurchases
ĠMages
Ġopinion
Ġintroducing
Ġmaj
Ġensl
mits
aughlin
Ġinitial
ives
ĠLivingston
cious
ĠLun
Ġoutreach
Las
ĠSkinner
idently
wer
Ġ101
Ġadvantages
opus
edged
cessive
rozen
ĠMyst
raham
Ġlongtime
dding
ĠParadox
ĠNicarag
dra
********************************
Ġpoor
more
Ġsurvival
phen
Ġtrust
enment
ĠJaime
Fax
thora
Ġeuros
Ġposture
ĠVor
etics
ĠAuthorization
åį
ĠHills
ĠUniverse
Ġessential
Ġaides
Ġpurple
Ġcharities
anked
Ġupsetting
ĠRR
enser
Be
*.
ĠCrate
Ġspontaneous
ĠBMI
ĠPIN
Analysis
SIM
Ġreassured
ĠFighters
orno
PDF
OIL
ĠBundy
Ġanalyzed
Lib
Ġunivers
Double
Ġdeploying
Ġnomine
697
ĠGorsuch
ĠSaras
ĠMicrosoft
ĠHorse
Taylor
udder
ulhu
Ġcontradicted
Ġpreventing
Ġheadphones
Imp
ĠGaw
Ġparticipants
Ġdefiant
Versions
seek
ĠGu
Ġthoughts
ĠEditing
Ġseemingly
ented
ĠMam
Ġlift
heid
ursed
enders
ITY
Public
atus
Ġexempted
ĠLeap
Ġ257
Ġhangar
Ġdrowning
ocre
Ġ276
Ġfoo
ĠWinc
Ġtransferring
rc
ĠWim
Ġpaintings
Ġextra
Ġrespectful
ĠContact
seen
Ġrebate
Gary
ictive
Ġalerted
Compl
alis
Ġchapter
ĠLE
Ġmi
Ġchili
Ġglaciers
Ġ580
Ġ422
Ġhuh
Ġretention
Tube
ĠeBay
Ġdissolved
Ġfake
ĠBY
Ġspins
asions
SH
Fear
ow
aff
workers
Ġtam
Ġgunshots
ĠNON
Ġsuffer
Ġcached
eatures
Ġgit
045
Ġping
California
Ġeleph
Ġappraisal
produced
Ġbikes
ĠPositive
Ġevolves
Ġsorcerer
Ġfermented
Ġmaturity
Ġsexism
Ġrye
ip
Ġpenetration
Ġreminds
Ġimplication
oola
ĠSCP
vector
ĠCU
amphetamine
ĠLiga
Ġsorrow
eren
Ġcommands
ĠShows
ĠâĶ
Ġfue
North
Ġ1944
World
Ġwarped
intuitive
Ġ1902
Ġabnormal
ohydrate
:\
Ġintens
ĠMish
excluding
à¹
eem
Ġoverseeing
Ġchilled
Ġfiner
Ġpeeled
ĠUriel
Ġsed
ĠModerate
Reader
wav
Ġsuccess
Ġsquare
eded
Ġhighlight
Former
isters
ĠSheila
ĠDoll
ĠMelbourne
Ġbehaving
Prep
Ġdepot
ĠDak
Ġoptim
Ġmuscle
Ġ1967
ogie
Ġreactions
ĠOl
Ġpatriarchal
linked
olesc
Ġtheme
dress
ĠMalk
Ġtraject
ĠBraz
Ġdoesn
eking
Ġturbulence
Ġgeological
Ġboundaries
Ġinsight
ĠSox
OSS
Ġvot
iak
131
Ġrewards
lein
minute
Ġimmersive
Ġenjoyed
ĠHilbert
Ã¼
ĠNathaniel
041
ĠJackets
Ġinflicted
Ġgamb
Ġyoungster
Ġapplauded
ĠVeg
SpaceEngineers
>>\
Ġconsolidate
Ġdim
c
Ġdescendants
Ġaddressed
ĠSen
Ġwalks
Ġassembled
Ġproportions
Ġinner
ĠCaval
Done
ĠMAR
ĠFlex
ĠEsk
ĠFever
Ġspectrum
ĠStudios
ĠStreet
Ġreck
Ġtransformed
Ġharming
Ġdimin
Ġcomed
ccoli
Ġnewcom
ĠLon
ĠZIP
ilaterally
Ġ(>
NER
olphin
SEA
Ġevaluations
ĠWr
ĠUniform
battle
ĠTooth
erguson
Ġcle
icky
Ġperform
His
ĠSell
ĠSOL
ograp
ĠDemocr
ĠRep
ĠDetection
ĠShort
Ġfilter
Ġash
Ġpian
Ġhistor
Ġodor
Ġlookout
Ġmah
ĠâĢİ
Ġestim
ĠguiName
Ġail
ilantro
Ġtemple
995
ĠD
ĠBoy
Ġenh
Ġreform
ĠWay
image
ĠDiscrimination
Ġelect
ĠWilderness
lime
ĠSecurities
Ġexercising
utor
ropy
etrical
Ġcontrols
ĠRobbie
Ġvowel
Â°
Ġmanufacturer
hou
Ġrepairing
ynam
upuncture
up
imb
ĠLenovo
Ġtrainer
iece
Ġunconsciously
ĠGenetic
Ġdebilitating
asio
ĠHarley
":"/
Ġowes
ĠTeams
ĠNoon
Ġmyriad
ĠGuth
verson
Ġunstoppable
Ġconsultations
Portland
Ġweep
ĠDisco
odcast
dds
Issue
Ġ2021
Ġoffended
à¥
ĠQuarterly
Ġentitlement
ĠCONTIN
itsch
ĠTTL
Ġwhole
amation
ĠSteven
ometric
ĠSkydragon
rawdownload
ĠSchultz
Ġcombinations
ĠRIS
ilingual
ĠBarclays
olic
alg
Ġappointments
Ġ-
Ġdealt
place
Ġlifting
Ġvoluntary
Ġshrine
ĠFlight
Ġactu
Ġpesticides
Environmental
Ġexc
Ġrefuel
ĠMilton
Ġmultiplied
osaurs
>]
ĠIndustries
ĠRandall
Ġ107
establishment
Ġredistributed
enny
rouse
Ġedition
ked
à¤
Ġhorribly
Ġbunny
Minecraft
ĠAfghan
ĠJeanne
XL
Ġtether
Ġperl
Ġpresenter
emale
70710
Ġtap
ĠPortugal
Ġshorts
Ġnoticing
ĠAthlet
ĠWillis
Ġseaw
DAQ
ĠMerchant
Ġpiercing
Ġsubstance
Ġcharacterize
ĠForums
ĠImpro
kins
aque
Ġbottles
arine
SA
Ġlifes
Ġold
wow
ons
Ġmindfulness
Ġfamed
Ġlogger
watching
campaign
Ġcinematic
ĠUp
Ġharmful
ĠBlooming
305
ĠMurd
faith
Ġhippocampus
erenn
Ġinflamm
Ġcommentator
apo
Ron
ĠBlair
Ġofficials
Ġnatural
Ġconcess
Ġdiscourse
onet
Ġstrategy
ang
haus
Ġacrylic
Ġnil
aining
Ġchained
depend
Book
stanbul
ĠBonds
ĠDenmark
Ġrendering
Ġtuition
Ġpine
broad
ttes
enza
Ġneuronal
ĠWerewolf
Ġauction
ĠMembership
ĠMarcus
indu
nosis
Ġeverlasting
itial
Ġgloss
Ġ298
ĠMAN
Ġrehabilit
Ġbatters
ician
Ġunnamed
HO
Ġconstit
riott
Ġwidely
ĠPT
Ġmesmer
Ġphosphorus
rices
Ġranged
former
Ġhealthcare
Christian
Ġconferences
ĠRyan
ĠRainbow
Apr
ĠFounders
ĠPence
ĠPros
Ġden
ricted
Ġchains
message
Ġpoet
ĠImmediately
Ġsore
McC
Ġdisabled
ĠSana
ĠTI
Ġdisposition
Large
Ġoperates
Time
fed
ĠVir
Ġclarification
ĠDiesel
timer
Ġprimary
CLOSE
main
ĠIL
igue
ĠMore
Ġbeen
Ġhelpful
erry
Ġoxygen
Ġfist
Ġweakest
holding
344
ĠPDF
iated
ah
ĠTG
Ġhorrific
beat
Ġtherm
fle
Ġ2001
ĠFist
Ġplacing
Ġanalytical
ĠPers
illas
ĠMcN
shock
Ġgeneralized
ĠLearned
ĠWarden
ĠHallow
remove
Ġresh
osterone
ãĢį
Ġjointly
sheet
Ġtuna
Ġhardcore
ĠSeconds
Ġdangerously
Ġmathematical
%).
Ġtattoos
ĠGuitar
Ġgrapp
LECT
ularity
Ġser
Ġsuburban
ĠBoat
ode
Ġchunk
Ġunspecified
Ġimaging
AH
Ġsides
Ġovere
Ġcircumst
Ġcontext
Ġrevenge
ĠDrill
scripts
Sharp
elman
etsy
din
omsky
Ġundermined
phal
Ġdamning
Ġprayed
iverse
Ask
._
ĠDirect
Ġ7
Ġacademics
ogi
clusively
ette
ĠHaunted
Runtime
Ġapp
Ġuncomp
ATE
.]
ĠCream
Ġfreak
Ġang
Ġsummoned
Ġrealised
Ġcamouflage
ĠCenters
Ġ460
Bull
Ġdisco
Ġpresumption
ribut
ĠPLAN
rors
ravis
ETHOD
Ġtouchdown
ĠPure
Ġoutpost
cler
Prot
https
Ġtactics
Ġrunoff
âĢ¦"
Ġburned
Ġusability
Ġeffortlessly
Ġmurderous
insured
Ġinsane
Ġimmigrants
ÃŁ
song
CHAR
imester
ampion
ĠSouls
Ġachie
Ġmakers
idan
Rober
ĠDRAG
ĠNRA
Ġoverloaded
Ġactivates
ø
ĠSonny
legates
ĠChili
ĠBuddy
Ġastron
ĠãĤµ
Ġreusable
Ġfriendship
Ġbicy
Ġpist
Ġpremium
ourses
othal
uddled
Ġquestionable
ĠPau
Ġsmelling
metics
Ġdiscour
uber
Ġspicy
Ġnav
pring
Ġhect
rol
public
691
Ġhike
Ġcigarette
Mario
Ġmid
ĠCaesar
isSpecialOrderable
Xi
Ġattractive
Ġ"âĢ¦
international
ĠApplications
Jo
ussions
Ġbeams
ussen
Player
Ġfumble
arius
Ġtherapeutic
Ġbisexual
ĠPulitzer
Season
Ġpredictor
Ġestablish
ĠDice
warming
Ġads
silver
ĠBucks
ĠDeliver
Ġrept
Ġlived
ataka
Ġ21
hold
Ġtire
Ġstay
Ġflora
ĠChild
ĠCentury
ĠYoutube
Ġnegativity
Ġpathways
lang
itute
Ġgul
568
brates
Ġconsultation
Ġhampered
ugs
Ġprincipals
Ġpolyg
Ġfonts
ormon
ĠSecond
192
ka
ĠSwitzerland
Ġparted
Ġbarr
Ġdownloading
Ġrumors
Ġstrongly
Ġchemotherapy
416
ĠSieg
ĠCapitol
ĠCubs
Max
Ġdiscouraging
Ġ451
Ġcompromise
Flow
ĠU
Ð²
ĠiCloud
aaaa
POST
ĠWast
ĠPathfinder
Ġhorny
Ġjson
Army
Ġbatches
ĠFif
Ġkidding
ĠWeiss
oult
Scientists
ĠRot
encers
Ġ)
ĠImpact
Ġemployed
Ġcertified
Ġdepos
ĠBASE
ĠSOM
Ġcampaign
Ġnons
Ġexpect
ĠCentOS
icing
iably
Ġinexplicable
stood
Ġmisery
Ġdetail
Ġproductions
Production
ĠWireless
Ġnickel
Ġgem
ULAR
Ġsl
Ġanecdotal
Ġstrawberry
ĠExplicit
Ġtraditional
Ġhospital
ĠCord
ĠRed
uates
Ġdroid
Ġperformed
munition
Ġhighly
Ġnext
Ġchamp
Ġplanet
cultural
Ġchanged
Ġexplaining
Ġdisappointment
ging
Ġdeferred
ĠAdventures
ĠBackground
ĠSonic
Ġphenomena
atcher
Ġcase
ĠLands
ĠSalman
Ġnovice
Ġresilient
312
ledge
Ġproclaim
adequ
too
ĠConcept
ĠClin
Ġfurious
Ġfemin
Ġgasp
Shadow
Ġplaceholder
Ġrg
urances
ĠMeng
Ġunsu
ĠDid
ĠNetflix
Ġbelieving
rick
Dep
Upon
Ġresorts
Ġbigotry
ulton
operator
Mask
Prem
atural
Ġbun
Ġclinically
ĠCole
FO
ĠRagnarok
iggurat
icip
Ġsubreddit
603
Ġgradient
ĠChak
rolog
Ġfreeze
ĠApparently
Ġspiders
473
ĠMoto
Ġ372
Ġhideous
ĠYemeni
Ġwildly
Ġmelee
Ġlaunch
ones
ĠGENERAL
Ġalarmed
typ
Ġpont
Ġcaller
Ġworry
ication
Ġhostages
Ġwast
Ġcontrolling
eus
ĠMetallic
Ġstrategically
umption
library
Ġsells
ĠHug
ĠDSM
ĠGuide
ĠPayne
Ġarsenic
Ġinequalities
Ġtum
sav
Ġexports
Until
Ġunderwent
wick
Ġchopped
Ġincre
Ġhy
ricane
ĠPrices
ĠMaul
Ġjust
Ġvisa
Free
HM
Ġev
ĠYear
pure
omics
olid
ĠDeer
______
occupied
Ġdoors
fall
ĠBase
ĠOg
Ġpossibly
ĠObamacare
amba
Ġstrangers
ANI
ĠJensen
Australian
Ġbursting
ikhail
ĠAura
ĠFiji
ĠUser
parent
ĠNETWORK
Ġfederation
January
Ġveil
anchester
wu
ĠKru
ren
Ġlaptops
Ġnational
Ġinclined
ĠPale
Notice
ĠGER
RESULTS
Ġ55
rika
ivals
Ġbaker
adult
Qaida
Ġshould
`
Ġdeprived
Ġincorrect
ĠEastern
Ġguessed
Ġleverage
izens
Ġpriceless
Seg
Ġnurs
angular
ĠTroy
Ġwidened
ĠSelection
Ġfriendships
cos
SU
resp
Ġintegrity
Ġinteractive
obiles
Ġmsg
Ġuncon
ĠMacro
Ġtruly
ĠShields
aska
enario
Ġunchanged
Ġhonors
Ġgrapple
ĠKoch
Ġfountain
ĠPublication
ipient
Ġunresolved
FIX
Ġunden
Ġframe
Ġ[&
mont
Girl
Ġfollowing
Ġselfish
ĠOverall
Ġspoil
ĠAffect
asha
ĠER
Ġmalicious
hurst
Ġescalation
ĠDrew
ĠTonight
Ġprob
monitor
Ġeating
ĠCollection
ĠNSW
Ġshortstop
amara
ĠBluetooth
Ġdoctr
protection
Temperature
av
hur
ĠServ
ĠCongo
ĠAnthrop
very
igators
Politics
ĠGoodbye
Ġantagonists
ĠColon
KA
vict
ĠCardinal
rums
Ġpeer
Ġomega
sharp
cycles
ÂłÂł
Ġbrothers
ĠCroat
Ġse
ccess
odka
ĠDH
Ġvictories
akes
NET
ĠSaid
grad
Ġcurator
Ġlamented
Ġforceful
ĠPolicy
Great
Ġsoon
Ġtips
itiz
Laughs
Pa
ba
Ġelectronic
ima
oning
ĠBlack
bb
Ġmilitants
Ġtag
ĠColonial
rigan
Ġweb
ÙĦ
ĠDeveloper
Ġmerit
auts
ĠFRI
Ġcollapses
visors
ĠJu
ĠÂ»
child
ĠBeh
ĠClare
Ġfought
Ġrelativity
ĠShack
Ġsatire
ĠWander
izard
ĠTata
575
ĠIPM
Ġservices
Ġfren
Ġwand
ĠCanberra
Ġcourtroom
chan
Ġdow
ĠConnect
920
oks
Ġscept
oting
tainment
Ġrally
host
Crash
anova
Ġsol
clusive
hess
ĠBah
Ġdominating
ĠNEC
iii
onics
aking
ĠPotential
ĠBooster
ĠSurvey
ushed
Ġneedy
ĠTrog
eries
.âĢĶ
ĠAz
ĠSchw
Ġterritories
Ġspoiler
ĠHas
ĠQualcomm
Ja
Ġphyl
ĠFDA
ĠKejriwal
Ġlinks
ĠABOUT
Ġvalued
ĠFBI
ĠNL
Ġcalcium
Ġaggress
identally
304
aughters
House
ĠWildlife
Ġrespons
ĠRodrig
468
ĠStellar
ĠKeyboard
igger
isms
Road
125
ĠKod
Ġcomfortably
ĠDiscipline
Ġpronouns
Progress
ĠMorocco
aques
Ġdiabetic
Ġaffirmative
Ġlaunches
rit
ĠKevin
Ġmph
Ġimprisonment
pmwiki
cture
ĠLibyan
Ġeman
Ġ369
ĠSlov
istence
Ġhypothal
Ġ78
Ġrepr
268
Ġwetlands
Penn
Ġ<@
Ġcongratulations
Johnson
Ġdiscounts
ĠTOP
umin
warm
ĠFasc
heet
Ġbudget
irection
Ġsheriff
ĠAttack
ensitive
uminum
å£«
Ġdescript
Ġexpense
itions
Ġadjective
ĠJude
Ġdeployment
err
Ġetiquette
Ġincor
ĠAuthorities
Ġracing
Ġcommissions
Ġfraction
============
ights
ĠCur
Ġsaved
Ġspecial
Ġfeat
Ġshapes
Pr
blank
ĠRomantic
ixt
ĠDruid
pret
xxxxxxxx
imir
ĠTH
Ġmissing
False
ĠAnniversary
Ġtherein
ĠTY
plugin
ĠDickinson
Bel
Ġpound
Ġawful
ĠJoined
ĠDL
Ġreconnect
Ġrover
ĠTerry
wra
uth
SY
Ġeducated
Ġeditors
Ġforearm
ĠReaper
ĊÂł
Ġlaunching
ertain
ographers
oda
rl
Â±
cule
Ġspared
device
Ġtore
ĠScal
Ġrevoke
Ġissues
ankind
è¦ļéĨĴ
Ġfencing
Ġbesieged
ensical
ito
ĠInclude
iers
ĠBroad
proven
Ġangled
Scar
Ġdisclose
Ġ365
Ġdrug
ĠChildhood
Ġscholar
ĠABS
Ġpounding
29
ĠIdea
parable
Ġremedies
Snap
ĠVoter
ĠXII
Ġcontempor
Hardware
pling
ĠNam
Ġdetect
you
prop
ĠIvanka
Ġmole
,)
Ġbasic
ulates
ĠScouts
Ġ2018
ĠBruins
Ġstrips
Ġembold
ĠTrinidad
Ġpoems
ĠCrom
anship
ĠALL
ĠIPv
ĠVirt
Ġwhispering
avorable
Ġpsy
Ġdisclosing
ENDED
Ġinformative
olesterol
Ġcops
ĠMemories
Els
Ġaccomplishments
Ġtrials
Ġslapped
ss
ĠMonument
Ġfisherman
ĠClover
ĠJes
Ġday
Ġpeace
ĠMaduro
Ġauthorization
Ġlayoffs
Ġlabels
charges
Ġ170
Ġdisgusted
ĠKle
acqu
affiliated
olation
kun
615
Ġ278
alert
ĠOffense
Send
pixel
Compan
Ġmouth
Ġlengths
Ġturbines
eals
Ġ2100
Ġstatutes
ĠShattered
1959
Ġsolutions
ĠSetTextColor
Ġhating
mass
Impro
jl
Parser
Ġpathway
Ġrainbow
Â§
vier
Ġages
Non
Ġdisp
Ġgrand
Ġflip
Ġ341
Ġdelegation
Ġdyed
Ġbland
623
ĠGun
ĠOwens
Ġanyways
ĠTRE
ĠPe
Ġbreach
Ġwoo
Ġrooft
Lower
Ġremains
Ġplunge
iner
ĠAllies
ampoo
ĠPainter
UES
Ġmidst
ĠASS
llo
Ġheed
Ġdiscrepancies
Ġgems
Ġpatronage
Î¹
Ġpencil
ICA
Ġreplicate
ĠTelecommunications
Ġdownstairs
Ġtransitioning
Ġparts
Ġfinances
ĠRachel
Ġdeveloper
ĠDownload
Ġbass
Ġdefensively
ĠEdison
Ġseizing
Ġsoaking
Ġincess
Ġbull
arent
Ġtyranny
deck
Ġphotoc
Ġcortex
emis
Ġimg
SIGN
ĠCavern
gt
Ġportal
ĠCatholicism
Ġautonomy
Ġthought
cus
ĠSaddam
ĠDet
Ġinstruct
Ġrestructuring
locked
08
OPE
Ġharb
ĠMcC
ĠTE
Ġnavigate
Ġinformation
Ġrigging
ommel
Ġskulls
Legend
Ġagre
ĠFed
ĠProceedings
Ġoverwrite
Ġhypotheses
ĠShir
ĠProp
Ġhistorians
adan
ieg
Ġswath
ĠGeek
680
Chat
Ġfinan
ĠNAME
ibel
Ġmean
IUM
!!!!!!!!
writers
Ġcivilians
Ġunderrated
ĠAliens
ĠAcad
Ġhypers
Ġ63
DER
Term
Ġmortgage
Ġdescriptions
Tr
ĠTECH
Ġelections
Ġhumming
Ġremission
Ġsandwic
Ġsacrament
Ġhorr
Express
Ġrestrained
Ġ43
Ġstoked
Ent
Ġextravagant
674
Ġhypot
transform
Ġeuph
Ġterrorists
ĠSea
iste
azon
Ġclergy
Ġinfinite
Ġchoice
ĠWembley
Ġexhaust
ISION
itures
ĠSapphire
l
InstoreAndOnline
Ġredu
Ġpromulg
Ġautobiography
Ġski
Ġslight
ĠExper
Ġnodes
ĠKrug
ĠKand
Ġlaptop
Ġya
Ġteamed
Ġexponentially
Ġha
Ġmon
Ġconscience
Ġfiltering
ĠDoe
ĠDog
Ġimmortal
Ġtalked
ĠHamilton
ĠJiang
Ġinterview
ĠJeb
Ġregeneration
Ġseries
Brown
Ġcrab
(*
ĠHumans
verb
ĠTo
Ġoccupied
AUT
ĠCoil
immigration
idel
atical
Ġ1930
Ġecho
gado
Ġshift
ĠPog
ĠKaz
ĠMondays
Ġamnesty
cb
ĠEaster
Ġemb
Ġharness
tax
ĠGiving
Feb
=$
uxe
Liberal
Ġturrets
foreseen
achelor
Ġ132
ĠSubstance
ĠPages
Altern
atra
Â¢
426
iamond
ĠMIT
ĠDevil
kB
Ġnap
ĠSouth
Ġdoctoral
Ġgy
Ġrang
ĠIndependence
Ġaccompanied
ĠChern
Oracle
***
Ġinstallations
Ġclimbs
isode
Ġpiracy
Ġagreement
Ġparole
assets
Ġoften
Ġbald
ĠQuan
Big
ĠHebrew
Ġecosystem
Ġderiv
ãģį
Ġinstr
Ġ])
built
quant
ĠRadio
ĠTy
Ġcomput
ĠWong
ĠGiovanni
Ġexcitement
Ġoppressive
Ġtremendously
ĠPlanned
iour
ancel
ĠCit
Ġrhythm
ĠIncreasing
Ġrecurrent
ĠLaurent
Ġwrit
aka
ĠCarr
holder
Ġpegged
Ġuniversities
ĠOsama
Ġplainly
ivil
Ġdf
ĠOffline
Tech
ward
ĠMachina
Ġpredecessor
ĠTears
Bruce
Ġambitious
Ġexacerbate
OUNT
Ġ2006
ĠCrunch
Ġro
ĠForum
ĠHeadquarters
ĠNetworks
Miller
ĠBattlefield
Ġhonestly
teness
378
Ġcor
Ġhaircut
Ġcholesterol
Ġundermine
front
63
119
Ġconservatism
fashion
Ġgerm
ĠGandhi
Letter
Scient
outs
Sort
################
ano
ĠErik
dos
icates
ĠEW
Ġpigment
Ġpotency
Brandon
Ġprophe
ĠPort
ĠGru
ĠGrenade
516
ĠBullets
Ġglossy
Ġliable
Ġacknowledgement
Ġseven
Ġmurm
Ġreads
Ø©
stock
ĠWorldwide
Ġrecycle
itored
ĠGn
ĠRomney
Ġdra
iments
sold
Ġbitter
Ġchambers
ĠSister
Ġirreversible
evil
rising
Ġtown
ĠCoke
Ġanth
Ġmotions
Ġ373
lr
ivia
ĠPsychiatric
Ġjudges
forward
genic
Ġassum
icals
ãĥĥãĥĪ
Ġexited
rieved
Ġcru
ĠBuilder
vez
Ġslave
src
ĠSomething
Ġsurreal
ZZ
ĠKy
Ġhurts
rued
texture
Ġacting
Ġlegitimate
Ġpoles
Barn
339
Ġmaterially
ĠMarijuana
bringer
existing
LIN
ĠAngel
Ġlawyer
Ġchest
Ġsilence
ried
enter
Ġconcession
Ġyelling
FIELD
Ġnutritional
aten
Ġ211
Ġlongevity
ĠPurchase
Ġsauce
ĠTrack
Ġunit
gas
Ġhazard
ĠKuro
Ġfoundational
ennett
ĠDav
Ġsworn
ĠKelly
Ġ253
714
494
assembled
Ġwitchcraft
Almost
Ġasshole
Ġexcuse
enta
Ġbulls
gem
Ġ440
Ġalleges
ĠRally
ĠApproximately
Ġfigured
Ġhopefully
Ġital
Ġblowing
ĠWHY
ĠBulgar
Ġembell
ĠCSV
75
Ġsubsection
ę
ĠOcc
lean
Ġfeathers
classified
inement
ĠRiy
even
killers
Ġ1993
orses
fp
Ġnickname
ĠManz
Ġunsafe
Ġdebated
ordon
ĠFlags
ĠEdgar
Ġcomplement
Ġrestraints
Ġdisson
Ub
Agent
Ġsy
Bell
Holy
ĠMonaco
Ġ1996
iche
Ġinsistence
ĠJub
ĠALP
Average
ĠKenny
country
Ġak
rams
Ġinsecure
Ġregulars
ĠCincinnati
aceutical
ĠPurpose
cession
Ġerg
ENCY
ĠJan
Ġlinen
Ġreckoning
alph
Ġadaptation
carb
Ġpenis
Players
byn
Ġenchantment
ĠSter
Ġforeign
ĠWRITE
?ãĢį
ĠDu
Ġepic
Ġpert
.[
Ġwrecked
ĠInvestigator
Ġinviting
Translation
office
Ġlure
Ġechoing
atorium
Ġformulated
choes
Ġfatty
icket
ĠHG
Ġwallet
Ġministers
lead
Such
601
Ġpredicts
rehend
ĠWorkers
Ġutmost
ĠLeopard
Ġsubsections
anu
Ġgave
ku
Ġbroadly
Strength
Ġunder
ĠHighlands
wyn
Ġbrav
Jessica
brids
eta
Ġrockets
ĠVoters
ĠWH
unction
Ġconstitu
Ġsig
Ġpowered
ĠMostly
Ġcomplexion
ĠSands
ĠKoen
ĠBloody
runtime
Ġresignation
ĠMaking
Ġcrash
Ġquantum
Ġdehuman
ĠSecret
icycle
Technical
ĠWaterloo
Ġgrasp
Ġsummarizes
Ã©r
Ġinadequate
Ġroundup
Ġcried
Ġspying
ĠWallet
Ġchemically
nostic
Ġfounders
Ġcustomary
gha
ĠAviv
addy
ĠSpirits
Ġunderlying
Ġdecision
ĠTitle
Ġsnatched
EY
+++
ĠSco
Ġlap
Ġoust
Ġdisplaced
activated
formation
ĠRAD
ĠCherokee
Ġ"$
ĠExecution
ĠMaher
borough
Ġexempt
ĠTwitter
ĠOv
Ġcare
posure
ĠHaj
ĠKar
Ġtied
Ġpredominantly
izations
Ġpalm
ĠGiant
unte
ĠPacific
ĠProud
bench
ĠSwap
manac
ĠInferno
Ġmom
Ġwonders
itton
ĠGary
neutral
Ġmorphine
xual
Ġ367
ĠRox
ĠVERS
Ó
ainment
Ġsuper
color
Ġventilation
Plot
ãĤ¼ãĤ¦ãĤ¹
Ġ1500
Ġcompany
Ġrestored
ĠâľĶ
usk
Ġpatents
's
ĠDevin
itary
uked
Ġ8
irement
Ġdecentralized
Ġwarning
Ġignition
Ġwondering
Ġcontraction
Ġdiapers
okes
Ġantibodies
ĠAngola
wagon
Ġfiber
flows
IK
-------------
ĠFlask
Ġphysic
Ġinflict
Ġprototyp
ĠEdward
Ġexcludes
ãĤ¬
ĠSQ
-"
arre
ĠLakers
Ġcorresponding
antasy
abad
Ġcoll
ĠThur
Ġcontrolled
norm
820
Ġcandid
Ġunsustainable
Ġeconomic
inding
âĢĳ
Ġcarve
despite
igans
($
ased
inged
ĠHaven
rade
546
Ġå¤
mail
ĠChip
enne
ranging
Ġnarcissistic
ĠRuntime
ĠIGF
Ġmess
Ġawkwardly
stem
Ġmatured
Ġrib
Auth
Numbers
Ġexert
Ġtax
Ġcomment
ĠUnion
ĠAccounts
ĠAssuming
Rate
Ġclearly
ĠADS
ĠMuslim
Ġpolit
Ġperman
Ġdeline
Ġbrands
ĠJohannes
Ġaspects
ES
Ġedit
ĠOper
Ġbillionaires
Ġcultural
Ġclinch
Ġpainful
ĠPas
ĠRebellion
ÙĲ
ĠWish
uz
ĠYes
ĠOR
Ġentered
ĠSUPPORT
Ġvitality
ĠLuck
ship
Ġfreeway
.
ĠCourts
azor
ĠNak
contact
Ġvacated
Ġperiodic
ĠAccounting
ĠScript
ĠTesting
Ġannexed
ĠSpa
753
Ġconditioning
utton
Ġhurdles
Ġlewd
Ġ414
peg
ĠCluster
Ġpistol
Ġhefty
ashes
Ġinstrumental
Ġeastern
ĠTw
Ġdevelops
Ġhandgun
ĠSummary
yth
give
Ġorganize
ĠCry
While
Ġdeparture
Gh
ĠQuit
ĠGentleman
Ġcalibr
Jar
ĠHiroshima
ensis
someone
neapolis
uggest
Ġlibertarian
Ġmathemat
ĪĴ
EMA
Ġchatting
Bridge
ĠIPA
Ġmuster
ĠConvention
ml
bats
Muslims
Ġappellant
ĠThou
Brave
ðŁĳ
Ġdiscriminate
IRC
Tag
Ġdialogue
ĠQt
dinand
ngth
Ġreturned
¤
Ġfather
144
Ġrele
Ġdeleting
Ġprodu
ĠexternalTo
isine
Ġevangelicals
Ġupdating
ega
Je
ĠRonald
ĠMatters
endor
9
poon
808
ĠChemistry
ĠMean
ĠMum
ĠReleases
tta
Ġpenetrating
Obviously
ĠShooting
nesday
Ġfiercely
Ġarchives
ĠTaliban
isitions
ogs
Ġprofiles
ĠFAA
Ġfailings
Ġparanoid
orry
ĠAmbro
ĠInstructions
ĠMood
Ġrows
Ġcontaminants
Ġpersons
Mode
Ġpunt
imp
ĠRemote
ĠCorvette
Ġexqu
Mult
ĠAnch
Dist
\\\\\\\\\\\\\\\\
Many
Ġcharacteristics
Emer
Die
Ġhoney
onut
350
ĠEcho
Ġpredecessors
ĠNYC
ĠCircus
Has
ĠFuck
ĠBear
writer
fing
ĠHey
ĠDefense
Ġpizza
ĠJob
ĠTit
Ġembarked
Ġintercept
Ġdistract
ourn
ĠCG
ipes
Ġpathogens
ĠExtrem
ĠSly
KEN
William
ĠDys
organ
dominated
Ġlandowners
Ġ%
ĠTwins
Ġmuscular
ĠAtari
Ġantigen
lett
AUD
Ġidentifier
/,
ĠSurvive
stract
unicip
æľ
kept
Ġpartial
ĠController
Walker
MS
Ġendeavors
ĠIntroduction
Lt
Ġapprehend
ActionCode
Ġfriends
Ġimpairment
Ġsomehow
Ġtoe
ilitating
Ġrated
ĠZach
Johnny
ĠPuerto
ogen
link
ĠCasino
ĠString
Ġstamp
ĠAkira
Ġdecorated
Ġgesture
ring
Ġep
Ġtabs
Ġbrutality
Ġguitar
Ġdisrupt
618
Ġfetish
Ġnationwide
ĠGolden
ĠVoc
Ġdictates
erc
Ġheal
802
ĠCurry
Ġinspectors
ĠFraud
?,
Ġabstraction
ĠMPEG
Ġcalled
ĠNAACP
ĠVoyager
11
Web
Ġsurges
Ġmarketplace
Ġfamilies
ĠClive
Ġreferences
Ġindign
ĠOdin
ĠMaximum
light
Ġnights
metadata
Ġfeared
acher
irtual
Ġantibiotics
Ġskin
ĠOu
ĠSao
Ġpartially
animous
Ġsewage
ousse
INTER
Ġemployers
ĠNarendra
eth
fired
Ġbra
Ġtechnician
ĠSharing
010
Ġtrustees
Ġpessimistic
Ġsaf
ĠElaine
TIT
ĠDrac
ĠDisapp
ĠBiological
ĠWarning
Ġsubjective
ĠMaurit
formance
Ġofficially
Ġelimination
Ġshifts
Ġcrossover
anka
cats
ĠDele
ĠBelle
Naturally
Ġdrawn
awk
ITT
oss
Ġairlines
060
Company
ĠHistorically
Ġintrinsic
ĠJudging
Full
sofar
ĠOr
ĠRin
Judge
Ġcabinet
Ġ];
ĠORDER
ĠABE
Ġtechnical
Ġlie
ĠHandle
Ġcontem
Ġdrums
Ġuntouched
536
Tony
ĠAlic
Ġtowed
ĠMace
Ġviewing
Ġwhis
450
ĠPokÃ©
RAG
ĠImmun
Ġthrow
kind
Ġvel
ĠBill
ial
II
Ġexclus
Ġroared
Ġfan
Ġdearly
clerosis
Ġacquies
Ġscholarship
Ġdecom
irgin
Ġtidy
Ġinfusion
Ġamplitude
authorized
respected
ra
Ġobserver
Ġ_
acements
Ġbanned
Ġrolls
ĠCLI
Ġflares
Ġrace
ĠBD
avier
ATING
Ġdish
Ġexiting
ĠPTSD
ĠDifference
1966
Other
Ġmosquitoes
Ġ'[
Contribut
ĠLoop
Ġministry
itizens
Bre
idespread
ower
Remove
Ġjails
Ġhorns
Ġgrep
ĠFair
ĠPand
nea
che
Courtesy
Ġacadem
Nev
Ġmodifying
ursive
ĠCrow
Ġweakness
Pro
Ġfunky
Ġuntold
dose
Ġplugs
Craft
ĠPoo
ĠReuters
ĠFunction
Ġmoderators
ĠMY
Ġspears
ĠChile
erva
ĠPoke
joining
Handler
Ġvulnerability
grid
edar
Ġcloves
Ġbusy
Ġdialect
ĠKung
Ġstarring
Ġsauces
Ġmocking
Ky
engu
Ġassist
Ġmalware
ahs
Ġduties
Ġparamilitary
ĠSE
Anyone
ĠShift
Ġdivided
Ġdisplays
ires
Ġcarc
Ġtill
Ġcapt
Ġdealer
ĠRedux
Ġreflecting
ĠEU
orr
234
essors
Initial
ĠDow
Ġstern
ith
ĠAppeal
ibia
Ġvs
Ġregardless
Ġwheat
fits
volent
coe
utsu
ĠFarming
scl
Ġunimagin
Develop
thumbnails
Ġchamber
ĠAppeals
ĠEllison
Ġblush
Ġded
allow
ĠLair
Ġspiritually
ĠExperimental
GOP
Delete
Ġsong
aney
ĠIzzy
ĠDJ
Japan
ĠPsal
Bee
ĠChart
isSpecial
ĠPF
Ġseconds
ĠCorrection
594
Ġ=>
Ġ1960
ĠLust
ards
Ġthresholds
hran
41
Ġdisrupted
Ġexce
Ġdeposits
ĠStockholm
Ġgran
Ġcloth
Ġdefences
Ġcaliphate
Pol
ĠBuckingham
ĠDonkey
ĠSpecial
Ġreservation
370
Ġconvin
ĠCombined
ĠChief
Ġ~
ĠDickens
kee
ĠComposite
form
Ġscreenshots
Ġcell
ĠGym
Ġspending
ĠCarmen
Ġelectric
Ġrepeated
Ġrival
Ġrifles
Ġknob
ĠAlexa
May
164
Every
cknow
Ġquick
Ġstrings
uttering
eanor
Ġdigging
aminer
ĠHardcore
avan
ĠVec
Ġuint
520
orthodox
adders
Ġshun
Ġtissues
Neigh
Äĩ
Ġpower
Ġoutright
Thousands
ĠðŁ
Ġsuicidal
Ġsynaptic
OTUS
Hill
Ġrotation
Ġcovenant
omorphic
Ġbitch
ault
ĠReed
Ġcy
Dean
es
done
332
ĠCourse
Ġhierarchical
Ġtier
Ġenthusiastically
æĿ
ĠDave
ĠParkinson
ĠSung
Ġlost
Ġwalking
fre
ĠCourt
Ġschooling
Ġpengu
igers
Ġ436
Ġdavid
ĠCrash
Ġrend
ands
Ġattacker
Ġpalpable
ĠRaleigh
Ġcorporate
ĠInfluence
Ġespecially
w
Ġsee
Ġrewrite
client
Ġsolvent
Ġcuriously
IVER
Ġcropped
ĠRih
Ġresided
ĠAnthropology
Ġdespised
Ġdeprecated
²¾
adin
ĠHope
Eric
č
Ġhooked
ĠArab
Ye
onsequ
,'
ĠIng
angle
Ġshades
Ġbrewed
Ġfell
clusion
Ġquitting
Silver
Ġcath
ĠCrypto
Sarah
Ġcheers
ĠMyanmar
ĠTob
Ġbiblical
Ġthemselves
ĠCambridge
ĠTerror
ĠEDITION
Ġerase
ĠBom
Ġkcal
%
ĠKenobi
enthal
ying
Ġtournaments
Ġfortnight
Mania
Ġattacks
Ġonions
ĠAndrew
Ġunique
ĠDong
Ġespionage
Ġstimulation
Market
Ġvacancies
Ġcerts
Ġspectral
keys
AN
ĠIowa
Ġaside
andestine
Ġphosphate
Ġrow
Disc
Ġguns
Ġprominent
Ġexplode
Ġinflicting
Ġsolicitation
Ġacid
ĠâĿ
Ġassessment
Ġ608
dam
Ġserum
Ġpuzz
ĠSadly
fashioned
odes
ĠActing
Ġibn
Ġcondolences
ĠSpring
ĠBetsy
Ġ2400
Ġsnack
ĠParticipant
)))
und
Ġtimelines
ĠShu
ĠIly
Pick
ĠBad
ĠLar
Ġempire
ender
2015
Ġflashy
ĠSHOULD
197
ĠTenn
ĠMV
Ġanalogue
ĠTTC
ĠTODAY
Ġrotate
Ġtransmitter
Gr
Ġear
Ġloosen
ĠAK
ĠIND
organized
authent
Ġpassport
ĠTourism
ĠPetra
RET
ds
ĠFormation
ĠPinball
Ġaspiration
Ġmandatory
Ġcentury
Ġpipe
ab
flower
ĠSpiritual
Ġcommentators
÷
ĠBecome
Ġbladder
Ġfully
venth
Ġinfantry
ĠJose
Ġaddressing
target
Ġ347
urate
ĠABV
Ġ164
actual
internet
Guest
Ġblessed
oteric
ModLoader
ni
Ġoutdated
Ġbuoy
Ġcomputer
riel
Ġstuck
Ġbird
Ġign
Brew
Nav
Ġenvironment
Ġimported
ĠLarge
Ġaluminium
ĠIntermediate
Ġtraces
Ġledger
iferation
ĠErr
BP
Ġanarchy
chard
Mont
Ġunlocking
Ġspilled
Ġbug
ut
children
Ġcomprom
Ġquar
ĠUSDA
Ġsin
ceivable
ĠCl
ika
Enabled
Ġtouchdowns
Ġfruits
ined
ulators
Ġgriev
Ġliberals
ĠLe
ority
Ġinterstellar
Ġslim
Ġtwenties
ĠBaltic
======
meric
Ġcompliments
racted
ĨĴ
ĠStack
Connector
wise
386
Ġincom
Ġfat
Going
ĠEx
esan
imately
Ġprostitute
Ġline
Icon
Ġhypnot
Ġsnake
âĤ¬
Ġcannabinoid
ĠThem
Isa
ilitarian
Ġmanage
Ġdioxide
Ġlinebackers
Ġrelated
na
rine
ĠTransformation
Ġraged
TP
Temp
Ġexemption
Ġmakes
Ġinitially
Ġhandset
ĠAlbion
Ġwolf
Ġimmobil
ĠÎ¼g
Ġsecretly
Requirements
Ġfeasibility
Ġexecut
ei
Ġcolored
Ġaddiction
Will
Ġexquisite
ĠNation
1200
obb
Ġconnections
Direct
Ġsplendid
OC
Ġinstallments
Ġvicinity
Ġplayers
control
efficient
izza
Ġislands
ishly
ĠEb
ĠCable
isive
Rah
442
Ġparking
Ġfumes
Ġpickups
Ġsaints
hiro
ĠAlberto
undreds
duino
ĠKaw
Ġ147
Ġdysfunction
udic
ĠEsports
lyn
Ġfavourite
ĠLauren
Ġconstructive
ĠMeanwhile
aum
Ġsalvation
Ġpromised
brace
intage
Ġweaknesses
ĠMuch
ĠHera
ĠKorra
berry
irsch
Ġpret
ements
ĠJail
ĠLeth
Marvel
Ġlegality
Ġkilometres
ichi
Ġtarget
LV
Ġgo
Ġpundits
pta
Ġundermines
Ġendeav
ĠIllusion
ĠLeaf
ĠUS
ĠSecondly
Ġamplified
Ġvolunteers
ĠHO
bowl
Â²
ĠCorsair
terday
Ġteachings
cit
Merc
SHARE
Ġbehest
atable
ĠBook
Ġscam
Ġsaturated
Ġrecounts
!'"
ĠLex
Ġpending
Ġinsurgents
Ġarrow
Ġlithium
ĠDaw
ĠâĨ
Ġshowing
::::::::
384
ĠJulius
ĠATF
Ġbob
ĠTheatre
pi
Vision
large
Ġmalaria
Ġsyntax
Ġsimpl
Ġupgrading
Ġappeal
Ġvoc
ĠMichaels
ĠLabor
Ġlime
Ġ173
Ġbeautiful
.-
ophical
Ġ265
Bush
ĠSunder
Ġgoddess
ĠTD
Ġcorrecting
ĠUCH
Ġfronts
sit
inational
Ġsew
ppo
jay
Ġsparking
Ġafloat
Ġowns
ĠHawking
Ġtwitch
ĠUSPS
Ġoversaw
roud
Ġhandy
ifying
Ġcapturing
ussy
Ġimag
Ġrecap
ĠMORE
ĠManuel
Ġ1934
Rick
Ġlawsuit
ĠUb
Ġeternity
Ġ344
ĠAmnesty
171
Ġcontraceptives
Ġdoub
Ġcheeks
ĠTechnology
Ġflung
bach
Ġ..........
Commission
Ġschizophren
hammad
Ġworkaround
Google
Case
Ġmil
Ġhypothesized
iltr
::::
Ġsighting
Ġblasts
Ġdiscriminating
Ġenterprise
Ġclad
Ġpept
ĠChess
Ġmonths
ĠEG
Frag
ĠYog
Ġmalfunction
ĠSacrament
Ġwindow
ro
Ġpropagate
DOM
ĠMet
pper
ĠReborn
ĠJanet
raved
Ġbaseless
Ġwinning
Ġtweets
ĠModels
Ġdil
ĠNormandy
Ġqualifying
ãĥĻ
Ġresting
Ġsideways
ĠColorado
Ġdecrease
ĠCould
ansen
Ġblames
ĠDrivers
Ġsteer
uing
Ġrem
Sn
inx
Rust
increasing
ERS
utations
bled
Fixed
ĠFoods
psons
interpret
461
Ġsnapped
ĠAluminum
ASE
ĠInstrument
ĠCLASS
ĠGB
borg
Ġtoxins
ĠScher
huge
nb
eson
Ġrust
Ġoriginal
Ã§
Ġpresentations
wd
Ġsensation
Ġsandwiches
Ġrecl
Ġexecuting
Ġstroke
Ġgroin
uu
ĠBaz
ĠNTS
0200
dan
Ġinund
RIP
Ġdressed
ĠLOOK
ĠJulia
Ġapartments
Ġhomers
ĠTup
Ġappend
letal
Ġsuspension
ĠPhelps
Gear
ĠProducer
toc
Ġindo
Ġbeliever
ats
ĠTribunal
Ġip
ĠAntonio
uming
Ġtravelers
Bi
Ġpreservation
Ġtiers
antry
Ġterminating
Additional
Ġparachute
ĠFaces
nell
Ġlatex
ĠNPR
ĠPartial
Dialog
Ġawa
ĠCoin
Ġdoct
Ġinitialize
Here
ĠPo
Ġdetailing
sudo
Http
Ġ"_
Ġbought
estival
Ġdignity
ĠCummings
Ġcheesy
Ġplatoon
Ġparallels
Ġlarvae
ĠCrossref
Ġ{:
Ġdemise
ĠWOR
itals
down
Ġfree
Ġinline
Ġharmonic
resents
ĠLiter
actively
Ġ1943
scope
Ġnostalgia
Ġcomrades
Ġitching
Alien
othes
ore
swer
ĠIdol
ĠBangkok
Ġadmin
ached
Ġdrain
ĠPratt
Ġbillions
thing
scrib
ĠVision
ĠLov
rolling
Ġbrown
Ġfrivol
A
ĠSeeking
Ġsuccesses
ĠÂ·
Ġim
Ġink
Ġflashed
mission
lv
ĠBone
corn
eous
Georgia
sex
Ġbombers
ĠOptional
Skill
Ġuncertainties
ĠService
ĠMattis
Sanders
View
ĠSCHOOL
Ġcustomization
ĠEmb
lace
agonists
emort
andra
Ġsurviv
ĠVID
Ġinflux
ÂŃ
rolled
ĠPhilly
ĠDrain
èª
Ġsoldier
Ā
Ġcontributed
ĠLegislation
Ġç
Ġencouraging
Ġ$$
Ġcompatibility
Business
create
Ġingrained
,''
Ġcongratulate
Ġspeedy
Ġclash
ĠStop
ĠCeltic
âĢİ
akespe
DEBUG
ĠRD
ĠTunisia
kos
Eventually
Ġruth
Ġwasteland
Ġeligible
ĠMcF
Ġextras
ĠBillboard
Ġreprim
Ġ[-
ĠCes
ĠPatreon
Ġdetermining
ĠHenri
Ġadvise
cence
ĠPaladin
Ġdefect
Ġwhisk
ForgeModLoader
Office
ĠOuts
ĠBella
Ġflawed
Ġoperation
Ġflows
Ġdiluted
Ġescalated
Hopefully
Ġassumes
ervation
utive
uned
reg
ĠNotre
Ġbrings
icion
ĠEmanuel
ĠLanc
Ġmultit
ĠLOW
arette
rast
oples
cache
faces
187
-+
ĠKro
Ġchiefs
Ġdefender
Ġsimilarities
ĠArchie
689
Ã»
Ġexams
ĠDE
Ġselfies
Ġconstituted
orer
ĠBeng
Ġflowed
Ġkinderg
kus
ĠCabinet
Ġeventually
axis
bash
Info
ĠLad
Ġphys
ĠGore
ĠTuesday
Ġrendered
ĠShares
Ġvaluation
201
ĠProgramming
ĠTranslation
ĠAnton
Ġdictatorship
Ġentrepreneur
izarre
è¡
Ġmixing
Ġgarn
thought
ĠOrigins
Ġhunter
XXX
Ġliked
ä½ľ
ĠEpstein
ĠHouth
Ġsor
Ġenzyme
Ġpolicy
Ġunanimous
ten
ippery
)-
Characters
Ġdivert
particip
Ġeconomies
Ġswoop
Ġaccelerating
ĠMcCann
Ġunc
Ġstrat
Ġredirected
Ġpicnic
Ġvehicles
ĠBret
Ġinclusive
Ġbuddy
shaped
Ġcurrents
Ġbreaches
Ġexclusively
Ġpolish
Ġconnectivity
Ġcringe
0010
--------
Ġcryptocurrencies
oreAndOnline
Ġessentially
ĠSome
vacc
Ġax
Ġcitizenship
Ġreactionary
Ġweave
Ġinterfered
Ġinfect
Ġ289
Ġshutting
inger
Ġtaunt
ĠBeatles
rek
boss
Ġindicted
Ġï¿½
Ox
Ġimmortality
Ġ309
Ġobjectionable
Development
Ġspit
ĠHonduras
Pass
ĠKam
Ġ"$:/
Ġlipstick
ĠDaly
Ġinhib
ĠCatalyst
ĠSync
ĠWolves
ĠFloat
ĠMcCarthy
Detailed
Ġsenior
avis
ĠCrimes
Ġmocked
799
Ġobsessive
893
Ġecstasy
ĠPUBLIC
Ġlonely
Ġrook
SPONSORED
Ġhast
Ġ77
Ġuncovered
Ġplanner
ĠCompet
Game
ĠConfederation
Pierre
Ġseen
brother
ocated
monton
CEPT
egg
ĠAqua
ĠRein
Ġouting
Operation
Ġlashes
Ġreson
Hot
Ġrecipes
ĠCanyon
ADD
Rating
Ġinmates
Ġraids
ĠSpec
defense
?",
Ġsequence
ĠGa
AF
Ġaspir
Ġdem
ĠMis
Ġtossing
ĠParties
Ġincorrectly
Gl
ĠNib
ĠGron
Bitcoin
ĠTV
osponsors
-------
ĠMesa
Ġintercepted
Ġphone
Ġexperien
Ġindeed
Ġresolved
ĠPing
ACTED
Ġreally
ĠHodg
usual
Ġâī¡
Ġassure
Ġdangerous
ĠQuant
Tu
izational
iques
âĢ¢âĢ¢
Ġattempt
ke
psc
Ġsyrup
ĠJays
Wan
Cod
Ġ34
Ġderailed
Ġcasts
Ġfulfil
ĠTEAM
Tre
ĠPony
Ġmultif
Ġlapse
ois
dh
ĠPaid
ez
1080
Ġmultic
Ġones
Ġplot
Ġlaund
ĠBehavior
Ġsuffix
Ġscient
template
ĠSeg
Econom
ĠCaribbean
ometers
wcs
Ġcompetitors
Ġcontradict
ĠClearly
ĠWiz
oop
avez
Ġhavens
"},{"
ĠAstron
158
Ġsorts
ĠDuty
Ġ×
Ġcultured
fg
ĠOn
Ġteaser
markets
Ġexalted
Ġexhibits
Ġstartup
Lew
ĠFraser
æĸ¹
ĠBrick
Ġtraveling
Ġcommanders
Ġactivists
ĠRomo
onso
ĠDroid
ĠEvolution
foot
Ġshine
ushes
Ġdelusions
Mal
Ġhire
Ġimproper
ĠLiberties
Ġasses
Ġmiles
ĠNOW
âģ
ĠLatinos
Ġware
ĠUpdate
ĠDestruction
ĠAxis
cern
Ġfem
Ġevaluation
Ġvisited
ĠCab
Ġspirituality
ĠPermanent
Maps
Ġdmg
Ġcheering
Ġblonde
ĠOPS
agh
Ġbesides
ÃĽÃĽ
ĠAircraft
ĠEmerson
Ġproport
Ġfools
ĠGrass
ĠMarks
uzz
Ġbreakout
ĠInspector
mented
ĠChecks
ĠGEAR
Ġesc
ĠCR
IONS
ĠProcessing
ĠOtto
Ġberries
Ġspokesperson
Ġgenuinely
Ġtitle
ĠNB
ĠFloating
ĠAvatar
Ġexacerb
ultural
ĠDisciple
ĠVilla
igl
Ġhard
Ġshirt
Ġrain
Ġsmallest
...?
Ġpixel
Ġcasting
ĠToro
Ġadapted
idd
event
ĠVan
omers
Am
Ġinevitable
Ġdeceit
Ġretrieved
Ġselections
Ġcontinuum
Gy
Ġnoble
ĠBooks
Ġtablespoons
232
Sk
oubtedly
itz
ĠRwanda
Ġbusinessman
Ġhomeless
eful
Ġeconomist
ĠLarson
ĠKrist
Ġcolumnist
Ġheadlined
687
Ġspherical
adies
lon
Ġwavelength
Ġrewarded
Ġsector
Ġexecutives
Ġtoss
Ġweaker
oday
alach
ĠGray
Ġadministrator
ression
ĠDialogue
Neill
Ġcategorized
ĠLobby
Ġecc
Ġteleportation
GW
Start
ãģ¦
ĠOsh
Ġbuyers
arranted
ĠTownship
MJ
Ġsupplementation
ãĥ¼ãĥ³
ĠFant
olor
po
Ġcontexts
Ġjustifying
Ġtapping
ĠFinish
bsp
ĠPoison
Ġchannel
ĠDress
ĠIslamists
ĠAbram
Ġsumm
Ġpursuits
ĠGord
Ġacknow
ĠSecrets
spec
Cl
!--
ĠBei
Ġaccuses
Ġimpe
suit
ĠStrategic
Ġtrusts
Ġdistinctly
Ġsets
Ġmembrane
Ġamused
ĠVar
Ġsunny
ĠIOC
unda
ĠSimpsons
regor
drm
ĠSummoner
Ġvictorious
Ġabout
Excellent
Float
ĠZub
ĠFour
ĠClinical
Ġcruelty
ockey
ĠEthiopian
Ġstrike
ĠMar
ĠMonica
ĠSymphony
olves
Ġcohorts
Ġreclaimed
Ġoverturn
SAY
achy
Ġlimiting
node
ĠAuckland
Ġhovering
economic
Ġruler
Ġrelocation
ĠHok
Ġstrikers
Ġrupture
Ġanaly
Ġvectors
å®
Ġfists
ĠArbor
Ġfeatures
updated
ĠLR
Ġembarrassing
Ġpulse
Ġ217
ĠJoel
Ġunaware
ĠArd
Ġoutset
analysis
ĠLiterary
ĠHate
£
Ġâ
their
lar
Ġil
Ġcirc
ĠAllison
Ġcontrasting
Ġbead
Ġlimits
Ġwid
Ġplank
oms
Ġcontaminated
Seven
early
Ġmicroscope
Ġextraord
ĠWarner
Ġinadvert
ĠKaplan
885
Ġamongst
Ġbits
regation
ĠNobel
item
05
_______
ĠIDE
Ġlawn
ä¸
Ġforest
Ġasserted
ĠScriptures
Bro
ĠDirectX
Ġsocial
Ġgauge
Ġderail
ĠTow
hani
ĠInsp
ics
tle
ĠSau
ĠIncrease
Ġchew
Ġformulas
CIA
ĠFlesh
ĠHH
ĠConstantinople
Damage
Frame
omial
Ġdry
á½
Ġfolks
ĠOrgan
Ġmicrobiome
662
Ġgap
ossom
ĠTrudeau
Ġmodeling
Ġrebell
'';
Ġ""
Ġspree
Ġnewsp
Ġwielding
inho
ĠInspection
Ġspreads
ĠLean
ansk
quad
ĠLDL
Ġ226
Ġthinking
Ġintervene
ĠJustice
ims
Ġdisturbance
ĠZac
respond
ng
ream
Try
Ġarchaeologists
Limited
Ġlandscapes
ĠRug
president
East
articles
terior
ĠPerception
Ġtheorem
Ġ~/.
Ġfriction
volt
ĠItems
030
ĠQuincy
dollar
ARM
Ġpinnacle
urion
Ġbene
Ġaka
href
1016
Ġstellar
Fit
Ġoverarching
Ġhist
Ġelector
Ġinterpol
ĠIdentified
Ġcharism
ĠPed
Ġmidterm
Ġ(),
ÅĤ
Ġformulations
Ġpig
inition
afa
ĠFamous
Ġslashed
ĠCareer
ou
Ġtalent
ĠNerd
cyclop
wt
ĠTribe
âĻ¦
hed
Ġconvince
ĠCanon
missions
Ġrepetition
ĠHeat
Ġsinners
RELATED
ĠSTATS
Ġexposing
Ġ387
ooked
erek
Su
otin
ĠHungary
ĠByr
ettings
Ġhepatitis
Ġcopyrighted
gradation
ĠMarriott
Ġcanine
dit
Ġmiraculous
Ġcrane
Ġweighs
Nobody
letes
Ġeaves
Ġblinding
Async
Ġanniversary
Ġbeautifully
ĠNC
ĠsrfN
jer
Ġredistribution
Ġcycling
145
ptin
Ġcries
ista
igham
series
Ġglanced
Ġoutcome
bots
Ġscaff
Ġmanipulation
Vel
ock
Ġlayer
Ġpartake
Ġhaz
Ġfirms
Ġ39
ĠBa
Ġexploitation
DERR
ĠMcKay
Ġcrystall
thin
Ġdragons
å¦
Ġreviews
ĠEisenhower
authored
ĠCec
JA
iop
ilated
Exactly
âĶģ
lex
Services
Ġmeans
Ġconcussion
Ġenrich
Ġremain
ĠLutheran
Ġsmugg
ĠAssassin
ĠIT
ĠCelest
stellar
aliation
Ġfeeble
ĠMLB
ĠShare
aneously
Ġenjoyment
ĠCosmos
Ġforehead
lake
ea
Ġstra
ĠPanel
Ġvac
ĠEug
assed
Ġcompositions
Neal
Tur
TABLE
ĠCoat
Ġdebt
War
Ġmyst
Correct
Ġtroublesome
ĠBarg
ĠHak
Ġpolite
Ġration
bart
arrett
ĠJamal
onnaissance
alkyrie
double
ĠTsu
Ġdenotes
Ġtowel
Fox
Ġpartic
EPA
ĠAlas
ĠBallistic
ĠHitler
ĠCrack
Ġchronically
Mis
Ġfian
ĠZel
enezuel
ocalypse
Ġviol
ĠMinutes
Gar
ĠBirmingham
Ġskirm
ĠZed
çľ
Ġillustrate
ĠFIRST
ĠVanguard
ube
Brain
paralle
Ġmember
Ġbribe
Ġsatir
åĽ
Ġcontended
ĠReady
ĠOlympus
Ġ[+
Ġthankfully
ĠWHERE
uana
Ġuncont
Ġ/>
Ġinability
Ġobedient
intendo
Ġnews
Ġhomebrew
ifle
ĠComparison
Reb
ĠEconomist
OG
Music
Although
Ġconquering
rules
ibliography
urd
outube
Ġhearing
ARK
rift
Ex
athe
ĠTree
ĠKnow
Ġdoubling
ĠPassing
Ġ229
ĠArkansas
Ġposed
ice
ĠLester
erald
ĠBaseball
Ġdestructive
terrorism
Ġunrest
Ġcalculating
ĠIn
forced
Ġplantation
Ġ2007
Ġdisappear
istrates
Ġsixteen
Ġpropulsion
736
hematically
Stud
Pg
di
Ġadjusting
Ġenvisioned
Ġlazy
Mu
ĠMald
urger
Ġadvant
ĠMickey
Ġrock
Ġprepare
ĠInfo
Ġvillains
Hit
ĠSouthampton
ĠGuant
agate
ĠPrec
artist
Ġabund
ĠMant
hs
ĠADV
Ġfactories
Ġcompromises
ĠDeter
Ġwants
ĠTHAT
Ġconsciously
season
Ġprow
day
Ġstriker
Ġstip
urgy
Ġparentheses
ures
Ġimpressive
mie
Ġretro
ĠUnited
ĠIvory
Ġbicycl
783
ĠGut
rils
ĠUsage
ĠThis
Ott
ĠExile
ĠNarc
ĠBhar
ĠContest
ĠFrie
Ġaccusations
Pot
ãĤ¤
ĠMisc
Ġconsent
ĠShaw
Ġmotives
gnu
EX
ĠMets
Ô
Ġresearchers
Ġcontroversies
Ġreconstructed
ummy
Prior
Educ
axter
Ġcontested
Ġqueues
Ġgrocery
ĠBeast
BE
Ġmicrowave
Ġmetres
Ġbrought
pir
exclusive
ĠFired
ĠMoral
ĠINST
Magn
67
follow
Ġcreatine
Ġdice
execute
ilateral
Interface
Ġbree
Ġrevolt
Ġclassification
igrated
6000
ickr
Ireland
ĠComcast
Ġcompress
ĠOCD
Ġacron
={
essen
Ġmathematic
gur
Ġmidnight
ĠZeit
ĠHad
tern
ĠPCB
ĠAstros
crew
Ġdirt
Ġunison
Ġ-------
perm
401
Ġbrawl
Ġrodent
ĠMachines
ĠCou
ĠWow
ĠProblems
english
christ
activation
ĠpH
Ġcomprised
Â·
Ã«
ĠBrowns
atted
verts
Ġentirety
Ġstabilization
Ø¯
Ġtopple
Ġfrequ
ossession
Ġtray
ĠCH
Ġgr
ĠAward
ĠSunshine
Ġdetectives
Ġfanbase
Sounds
tymology
Ġwinners
Ġwheel
Ġshovel
Ġelectronically
Ġteenage
oney
Ġpictured
ĠPremiership
Ġost
ĠPersonally
itte
Ġearn
oma
Ġt
ĠPhilip
ĠPentagon
city
iful
Ġsince
ĠGod
Ġbikini
Ġhostility
Ġexplored
Ġplung
Ġdemonstrators
ĠAcquisition
Ġutilized
ĠSinn
Ġbutterfly
Ġcorrelated
cean
ĠOECD
Ġsuperiors
SER
Ġfirmly
Ġexposition
ĠIntroduced
Ġmotor
ĠArchitect
Ġadvice
ĠLatvia
saw
Ġknight
ĠId
Ġinfertility
",
onomic
ĠInquisitor
Č
ells
ĠHorton
Ġlicens
ĠMichele
Ġsouls
ars
Several
waukee
Ġunpredict
Ġrhetorical
als
968
ĠDeputy
Ġevident
Ġdrained
localhost
Ġappearances
Ġpa
brush
Ġcandidate
ĠRaz
ĠLac
afer
RAW
Ġscoreboard
¦
nie
Ġnotebooks
scient
Agg
Ġ=================================
Ġrevital
Ġrigid
olate
Ġmounts
Ġconvent
ering
ubs
Cloud
!).
Trust
Ġclustered
ĠDefin
Ġcrawling
Ġgestation
Ġbastard
ENTION
Ġmilit
Ġsens
Ġexceptionally
ĠMcGregor
ĠUnt
isen
Ġexcav
Matthew
Ġcryptic
ĠCabin
Low
oggles
Ġvigil
Ġmammal
Ġshelling
ivities
Ġrot
later
584
ĠHeavenly
Ġlandfall
Ġ37
infeld
rovers
ĠJelly
Sov
erers
dfx
Ġinferred
boxes
ete
Expl
Ġsomebody
ĠConan
ĠMetal
Ġbeneficial
Ġcollaboration
laus
Marx
Ġclitor
Mother
Ġ1970
ĠWorkshop
Ġastounding
503
Ġstanding
Sil
feat
Ġresolving
Ġhunt
aryn
su
Ġlaw
Ġerroneous
Ġhockey
EU
Ġlisten
ĠAmericans
ĠVirtual
ĠDesc
ĠCame
ĠMassive
ĠWhen
Ġcomposition
Ġpassengers
ĠHom
ĠAtlas
eele
ĠTi
ved
Ġliking
grey
Ġcorner
Ġ())
ify
Iterator
Ġidentified
ĠStraw
ĠGer
Ġrand
ĠRahul
Another
ĠSchools
WR
Ġpaed
ECH
opathic
Token
Ġlas
Ġportable
ãĥĺãĥ©
BL
Ð
ĠCauses
Ġ181
Ġtoward
ĠVeter
Wednesday
Ġassay
ĠTie
Ġmaps
Ġ366
alions
048
ĠPalace
Ġrifle
ĠPOW
Ġperv
Server
Ġriff
ĠDame
ĠFas
Ġletter
ĠSta
±
ĠGujarat
Ġembracing
Looking
ĠBar
ĠCalendar
ogged
Ġmeticulous
Ġvariants
Ġenzymes
Own
Ġdonkey
goal
ĠPirate
license
Ġsits
irst
ĠKnife
Ġcondo
average
Magic
Ġfluor
Ġrelics
cheat
Orig
451
ĠJohns
ching
dden
ĠSessions
ranked
Ġrarity
Ġvaried
Ġstrut
urdy
legraph
alt
ever
Ġmes
504
ĠDoct
anas
Ġfluids
Ġintuitive
Ġveggies
Ġropes
Ġpretext
ĠHence
ĠSach
ĠColiseum
Ġprompting
ĠArrow
Ġlooked
ĠEquity
Ġlodged
arks
arie
smart
ĠMotorola
agging
ĠMayer
Ġneedles
Ġrisk
UCT
Ġslipped
ĠTop
ĠKant
Cu
Always
Ġsensibilities
ĠFey
Ġanatomy
Ġrede
Ġ138
Ġfascism
esthesia
ĠBulg
ĠHornets
ĠJefferson
ĠJace
ĠGround
bos
Tea
ĠJUSTICE
Ġconceptions
ĠBy
ĠPhantom
pathy
perty
Ġstopped
Ġdedicated
ĠEve
Ġgradually
Ġbreakup
ĠWhere
god
hetti
Jack
Â¯Â¯Â¯Â¯
ĠUSSR
ĠJustin
Disable
Our
Texture
Ġgreenhouse
Ġgamble
Ġ2012
oso
ĠPiece
Ġforay
ĠFreddy
yer
Ġspinning
basic
ĠTanz
ĠMontana
Con
Ġobtain
Ġspeculate
ĠâĨĳ
Ġ1000
ĠFusion
ordinate
iru
Ġcoal
rec
Ġprefer
ĠTang
225
ĠGreatest
Ġnarrower
ĠReader
engineering
ĠLeah
ogly
Ġmistrust
ny
ĠMode
Ġsourced
97
PT
Ġillicit
dog
Ġpopped
Ġassociate
IGHT
ĠEmerging
section
Ġwield
Ġcompressed
Ġsynchron
doc
Ġselection
ibr
Ġunveil
Official
Ġardu
icidal
ĠChic
ĠGay
antle
Greek
Ġnotably
ĠMusk
Ġbacker
ĠSupports
ĠExt
Ġwrists
cience
Spec
hner
Ġunsurprisingly
ĠTent
Ġcelebrity
amoto
Ġleaning
ĠAbyss
ĠControls
ities
urg
Ġrad
Ġtrench
ĠMagnum
Ġballet
Ġthey
gate
ĠDuc
ĠTort
Ġentitle
ĠGMT
472
ptr
Ġinvites
Ġonline
KR
Ġfighting
Ġannouncement
Ġgradual
Ġcrocod
Ġdamned
Roberts
Ġunpaid
iq
Ġscratch
Ġextraordinarily
WER
Bride
Ġdriving
ĠName
eper
Ġstitch
Ġillegitimate
ĠKhe
ĠLines
ĠRoller
ormons
casts
Ġsuburbs
Ġtwisted
ĠTwo
Ġasking
Ġbosses
Working
kernel
Ġresumed
Ġyielded
ĠPeggy
shaw
Ġlinear
ĠNES
Ġponds
Ġonstage
Ġtasty
ĠPercentage
cigarette
Ġoriginated
ĠChow
Ġpresent
tg
Ġconducted
68
Ġpass
ĠCompl
ĠCorps
Ġstorylines
ĠWalt
practice
ĠWife
Ġrestless
644
ousing
Ġmicrobial
izu
ĠReality
ieve
Ġprosecutor
loe
Ġknowledge
Ġcommits
Ġappendix
Ġenabled
ĠIslamic
alan
last
ĠBird
556
Ġcaus
ACP
eat
relation
ĠAbrams
onyms
Ġguiding
åĬ
ĠSquare
ĠArc
ĠHua
ociation
Ġrounded
Ġcarcin
CD
Ġrpm
ĠHIS
ĠBolshe
swers
nt
pressed
ĠFer
ONEY
ĠKepler
database
Ġtall
ĠTeddy
ĠYen
Ġ),
Ġanarchists
sent
Ġberth
ĠScottish
Ġalert
Ġamulet
priority
ĠScha
Ġnationalist
Ġbroken
Ġcement
Ġblend
Ġvent
Ġnucleus
chnology
ĠAdams
Ġanswered
Ġminus
Ġreversal
Ġsuggestions
ĠProt
ĠStuff
ĠJun
Ġinscription
FUL
Ġrefriger
carry
Ġsemantics
Url
Ġsurprisingly
ionage
Ġsmugglers
essim
ĠFar
Ġad
oppers
dis
ĠDepartment
Ġmundane
Ġparent
Ġ121
ĠBike
ĠCAN
Ġaffiliates
Ġneurolog
Ġrefugees
Ġfal
Ġmonarchy
Ġdelegates
uble
ĠHaskell
arcer
versive
Ġsending
hu
Ġtotals
Ġreporting
Ġcruising
assadors
Italy
Ġcycl
ĠQuint
Ġdetermination
ĠJoyce
Ġrubble
Ġruthless
ĠCST
ĠWAY
Ġforfeiture
Ġengulf
ĠKNOW
Ġfame
Ġdownload
iership
BIL
Ġchase
Ġfollows
basketball
Ġfors
ocyte
ĠAmmo
Ġreper
Ġtypew
ĠChallenges
Ġmarital
ĠArmen
eming
Ġprefers
ĠControlled
iatrics
Ġprogram
through
Ġinnoc
ĠLamp
417
588
inst
agy
Bas
669
Ġseverity
Cent
porate
ving
Ġenhancing
ĠLions
lly
arat
Ġarising
Ġmob
Ġsands
949
psey
ĠArchangel
Ġextremist
Ġmotif
ĠGraphics
Ġcancer
Fif
ĠPricing
Ġlacking
charge
Ġstyled
Ġphotography
Ġdisciplined
Who
Ġaddresses
ĠPBS
Ġsen
Rex
Ste
Ġilluminating
room
Ġstaunch
Ġimpunity
ĠGillespie
Ġmutually
Ġbelongs
Ġclutch
Ġveteran
ĠFR
table
ĠPeter
ĠFinch
ĠGCC
astery
ãĤ¶
final
Ġorbit
ĠProtest
ĠDepth
ĠFCC
ohn
åĤ
ĠKonami
ĠLie
Ġcomic
ĠFest
rum
538
OA
Ġannoying
ighton
Dur
Ġdeaf
ĠRamos
ĠGavin
Ġplaque
Ġtink
ilver
ĠUber
ĠSV
ĠDaily
AU
wo
Ġmedals
ani
ĠArgentina
ĠELECT
aclysm
ĠFargo
Ġteammates
Louis
ĠArmour
ultimate
Ġfruit
Ġrecounted
lux
ĠHess
Ġ670
Ġprohibit
ãģ«
Ġcorporations
ĠHilton
chem
ollah
atts
edIn
scoring
Ġamazed
ĠInquiry
ibli
ĠSATA
ĠStarr
Ġdeep
ĠPhen
ysis
Ġstacking
_>
ĠTul
ĠDOI
oÄŁ
Ġcombo
ĠTIM
752
rw
Ġsupplements
ĠHQ
ĠOdyssey
ĠGreenland
rera
-----
Ġgloves
ĠAppro
Ġrains
Ġbombardment
offset
ogenous
Ġprefix
ESPN
Ġmonthly
instance
Ġmorph
ĠFang
++++++++++++++++
ĠFerrari
Senior
ĠDaniel
Ġsmiles
Ġfloat
Kh
ĠDOE
Hi
ĠPurple
ĠHumph
Ġbouts
Ġremarkably
ĠJava
Ġgame
const
Ġnest
ĠCLE
Egypt
Ġabundantly
FIR
374
atism
Resource
Ġsupporters
Mobile
Ġsalvage
elling
planet
astic
Ġalphabet
nox
Ġcoach
Ġlively
Ġscrim
Ġintimidate
ĠAlberta
Ġunlaw
ĠSlide
ĠPatton
Ġjazz
Ġcharacteristic
Ġbeam
proclaimed
seeking
ĠSina
take
ĠChurchill
Ġthroughout
Ġmanif
ĠVenezuel
train
lag
ĠPatent
Ġexpresses
ĠAnswer
ĠRoy
372
ographics
Ġpillow
ĠEminem
Ġgrab
ĠWik
Ġtabl
ĠObjective
Ġbillionaire
Ġdrawing
ĠResearchers
ĠPearson
Ġremove
Ġcane
Ġairplanes
Ġ;)
begin
Ġ.
Ġsmoot
ĠDiane
ocese
Ġcateg
Ġseparate
istani
review
ĠBlues
ĠSalvador
rers
ĠKirby
Ġpanicked
Ġ331
Light
oppy
white
ĠHew
Ġtribute
Op
Ġautumn
Ġsteps
Ġparks
ĠJonas
ĠMacy
zig
ĠRolls
Ġlions
Ġstumbling
voc
Ġlaced
Ġprimed
ĠRandy
Ġmerry
Ġdigestive
ĠAssignment
ĠPlague
rans
Ġhp
Ġpharmacy
Ġoste
âĶĢ
Ġspe
Nice
seconds
mbudsman
Tool
ĠPersian
Maria
ĠBai
oths
nuclear
ĠEz
estinal
ĠKodi
Ġ405
Ġdispers
Ġsun
ĠStalin
mud
Love
lor
ĠFilip
Ġconveyed
enged
Ġgeop
Origin
steamapps
ALK
atch
offensive
ĠLich
CLA
Ġnuanced
ĠTong
ĠUniv
Ġsponge
ĠInput
ĠOrb
Crit
example
ĠAGA
ĠDemocrats
Ġaggrav
Ġbeneficiary
ĠMen
Ġgently
ĠChem
ĠZack
fest
Ġepidem
diff
Ġconsidering
ĠJacksonville
ĠKre
OTT
ĠIntegrated
Ġcrystal
333
Ġsimulated
Ġdistributed
ĠFILE
collar
Ġserves
Ġgenome
ĠSlack
Deep
Ġ1925
ĠAlright
ĠRomanian
Ġ1904
Ã¦
ĠMobil
anuts
Ġquietly
chanted
ĠJet
03
ĠStewart
Ġcontributor
disc
ĠHiggins
decl
hate
ĠStatue
pkg
FE
erg
Ġdefin
Ġorganization
Ġherd
Ġmischief
Ġcocoa
Ġsnipp
ĠLocations
Ġpremiered
ĠConor
ĠDM
ãĤ»
ĠRacing
Ã±a
Ġprivileged
453
DC
ĠPax
ĠCutter
ocratic
Ġgoblins
Ġreceipts
Ġenroll
153
atisf
GB
Ġskillet
Ġbelievable
785
hester
viks
Ġrenewed
Ġambulance
ĠCasey
Bow
Gre
ĠRy
Ġmodelling
Ġenhanced
burse
ĠWaiting
Ġrevoked
ANE
imation
Ġhighlighting
Ġants
ĠLemon
gru
fleet
ĠKun
Ġadject
sonian
Ġmarijuana
nants
Ġrc
ĠDanny
Ġprotocol
Ġcounter
Ġskating
ĠNero
Ġcorrel
utonium
Dragon
Ġaided
opes
Ġpostwar
Abyss
Ġspaghetti
Ġshorten
ĠPerez
ĠBaby
Ġtransforming
madeupword0000
ĠSave
MM
Ġcontractual
oqu
Ni
Ġauditory
Ġpremier
ĠTickets
Ġbir
Mer
Ä
otech
noticed
Examples
WATCH
birth
Ġgain
peria
friend
ĠCherry
Ġpremiums
Ġstage
employ
ibal
Į
current
Mc
Ġviability
aster
ĠNews
ĠHarlem
uckle
ĠWraith
mit
Ġpeak
MD
comb
ĠWalking
VERTISEMENT
VA
stay
Ġbrutally
Ġcher
ĠRockefeller
Ġaston
ĠKris
strous
ĠWood
ĠPLAY
Ġsidelines
bons
Ġcarried
tre
Ġembroiled
Ġhauled
Ġtablespoon
ilers
Õ
ĠTorah
Ġbrill
ating
ĠTycoon
Ġdiscriminatory
URN
Error
ĠStur
ĠClapper
Ġappeals
ĠDial
Ġ510
ĠPats
ĠexternalToEVA
gmail
Ġpivotal
bottom
ĠLies
ĠJuan
Ġinitiate
Ġsubmissions
Ġide
ĠTanner
Reports
ĠUnemployment
Ġblog
ĠHarrison
ĠHuffington
ĠSeas
463
ĠRoosevelt
oodoo
Supplement
ĠProtoss
Ġairflow
ringe
okia
Ġbehaviors
Ġten
ĠAudit
Ġcollapsed
462
Ġinver
illet
ĠClayton
Ġbeginnings
ĠNEWS
ĠKorea
ĠTommy
Ġsailor
ĠForced
connect
Ġcircuit
Ġhorm
Ġovershadow
hello
Ġbreaths
Ġeducational
vern
Ġsynd
Ġsourcing
Ġmeasurable
String
ĠMA
ĠJA
Ġfielder
ĠDevices
sth
Ġspoiled
icted
phony
Ġ445
ĠRhino
Ġblood
avery
ĠMord
Ġagreements
income
Ġperpet
tun
ĠLance
Ġcriticizing
ĠCurrent
Ġthanking
Ġinnovate
406
ĠDeluxe
abal
ĠCanadians
Ġpsychiatry
Ġreiterate
Ġstren
eday
Ġdiced
Flo
ĠFunctional
trump
Ġpillars
ĠFors
Ġensured
Ġdreaming
Ġv
Ġdegrade
walker
ideo
ĠDiscord
Ġpatriot
henko
Ġphysique
Ġreb
TC
iri
ĠJin
Ġheads
Ġmaintenance
iders
Ġcellphone
Ġinflammation
including
AE
books
ĠBernardino
ĠLok
resses
ongs
Ġchoked
Ġ(+
Global
flag
Ġinventor
ĠNate
ophobic
Ġsizeable
Ġcolleges
ĠFunny
mol
Ġingenious
adesh
Ġir
Ġcommissioners
enburg
ĠBigfoot
orest
Ġdemocracy
Ġexecutes
docker
tn
1973
Ġremark
ĠEduc
ĠLancet
uilding
Ġcommencement
becca
caliber
ortality
rix
ĠAg
ĠUSE
15
Ġstreamlined
747
751
Ġstimul
ĠLOL
Ġretailers
Ġraft
ĠPsychology
Ġwhile
ĠExit
compliance
ĠRegarding
Ġholidays
Ġwarrants
ĠBrighton
ensions
ĠScores
Ġstock
Ġdiversion
read
į
Ġdiffers
ĠTags
Ġbarbar
Brit
react
Ġheroin
Ġencouragement
orman
ĠCustomer
Ġabl
Ġinvitations
iring
Ġadjunct
207
otally
arate
rated
ĠCall
mort
ĠAntioch
Ġaccounts
Ġdependency
Ġscientifically
Ġshrew
edded
ĠGear
ĠPlatform
ibaba
Grad
Ġtalented
yi
por
Ġfunctioning
Ġpatterns
Ġsummar
ĠStamford
Ġsn
Ġdoses
Ġcorrectly
ĠBrent
independence
restling
ĠAncients
adi
Cell
Offline
ĠInnov
Lv
ĠAzerb
ium
ĠCooke
usb
Ġtasted
ĠIncreases
iolet
ĠMann
Ġrespectfully
arta
âĢ¢âĢ¢âĢ¢âĢ¢
Ġ());
Ġ<[
will
Ġfrig
Ĥ
Ġundertook
ceptions
OPA
ĠReef
Ġsurface
ĠCPC
ouch
Ġadv
Ġenlight
ĠLouisville
Dis
Ġunexplained
Ġhikes
ĠSax
Ġdismiss
Ġartic
ivery
ĠGive
ĠMaple
ĠGPUs
Ġiterations
ĠDEAD
illes
acked
ĠVolunteer
ĠTOM
ĠHung
ĠForsaken
Ġsit
ĠJimmy
itude
Ġthus
Ġsystematically
ÃĹ
_
Ġbrowser
Ġwrest
arson
Ġmaker
âĢ¦.
Ġaccountant
keep
ĠSee
omet
ĠWine
rosse
Ġrats
ĠWatkins
channel
izes
ivable
Ġshaved
356
Ġperfume
Ġrebutt
âĢĶâĢĶâĢĶâĢĶâĢĶâĢĶâĢĶâĢĶ
Ġadministered
amped
ĠKiw
405
ĠPersonal
Ġteleport
mur
Ġpens
HAM
Á
Ġoccupation
ĠPower
Ġdisability
Ġsupposedly
Ġsunglasses
Ġorbital
Veh
ĠPaula
Ġaffect
Ġacupuncture
uddenly
Ġcommitment
Ġstrip
ĠChallenge
Ġwishes
Ġinstitutions
Ġmemoir
hew
urned
Paul
enhagen
uckles
ĠAl
Ġrepairs
Ġswarm
Ġclin
isson
ĠBirth
ĠSA
oli
Ġinvari
ĠMcKenna
ĠMoroccan
meg
ĠInsider
Meanwhile
é¾įå
gen
Ġimport
ĠBeing
Ġhappen
Ġinning
ĠTak
MON
houn
Ġachieves
Ġplotted
ĠCortex
ĠPall
Ġbandits
Ġflash
Ash
Ġpursu
ĠNokia
Ġannounced
ĠAbbey
ĠRanking
ĠAutom
269
RD
code
Ġreview
ĠShelter
ĠBO
ãģĮ
ĠToday
attle
OY
Ġfabricated
Ġarchaeological
ĠArmory
tem
Ġoverrun
Ġprinted
765
Ã©e
atered
Ġslew
million
ae
Ġobstruction
Ġunintentionally
ĠSandra
Ġsusp
Ġbreathing
Ġceramic
register
ĠSerge
ĠFib
ĠFarn
Ġdeeply
oslav
ĠAwards
Ġurges
Ġ14
ĠStranger
ĠBeirut
Ġleadership
Ġoverview
ĠChap
ĠAram
ĠNort
.'
Duration
ĠMah
ĠHipp
ĠMutant
Ġcriminal
ĠTor
ĠTransport
ĠEconomics
Ġtor
mem
isu
Ġlicensed
Ġion
Ġchuck
Ġplanning
iliate
Ġdecrypt
ĠGadget
Adv
ĠFlan
Europe
onde
Ġwinters
ropolitan
ĠDj
not
ĠChristensen
Ġfuel
hm
ĠYoung
Ġseq
boards
Ġpigs
Ġimpression
Based
Visual
ĠDET
Ġspinach
Ġdiarr
ĠArray
usting
Synopsis
_{
sam
Phys
Ġholes
Ġinspir
GMT
Ġhandled
Ġ84
airs
Ġcytok
cold
Ġravaged
Mit
ĠLiam
Ġarbit
ĠEnemy
ĠSoy
Ġsubordinate
ĠSpell
TION
shown
ĠEUR
Ġcrore
Ġdungeon
ĠLooks
Ġverbs
ĠLauder
Ġdonate
ĠCharlie
Ġ::
Ġtemper
ĠKN
ĠMcA
ĠRas
ĠSimilar
Ġstems
Ġwouldn
YE
iae
zl
ĠThreat
Linux
ruby
Ġtx
BUG
():
ugh
Ġreactive
Ġchickens
thur
ĠCov
Ġfetal
ance
ĠSight
Ġmanufacturers
Ġhandmade
Ġdiseng
Ġdeemed
resh
Ġhours
ĠMI
Ġ90
love
ĠLaur
ĠâĢ
ĠOre
ď
Ġwebsite
awi
ĠJunction
Ġthroughput
Cas
IDE
Ġalk
ĠReason
antic
Ġstore
Ð°
798
worms
eware
IE
Ġcourthouse
Ġcombustion
ĠOG
Ġbrushing
Ġtract
Ġprol
Ħ¢
ĠWikimedia
ĠLumia
Ġconvention
ó
ĠCharleston
armor
More
score
ĠThiel
ĠHuge
Ġsucceeded
Ġintermittent
Ġopened
Ġexpiration
Ġleader
ĠDAM
iphany
Ġdiseases
ĠPhilosophy
Woman
ĠCodes
ĠSince
Reward
utral
Ġabandon
Ġmassacres
Role
Ġhear
agan
Ġrental
Ġwells
Ġ750
serious
Ġtyph
cing
ĠFuel
install
Ġdemographics
rent
887
Ġfram
personal
Ġbolstered
moral
Ġidiots
missive
ĠSeal
Nusra
technology
cohol
ĠThomas
undle
Ġdaily
Ġdop
Ġgeneration
opian
Ġbindings
Ġinval
slaught
Go
Ġey
Ġpopulate
Ġprin
Ġmsec
Ġdiscord
ugu
ĠSchro
Ġ227
Ta
ĠDOS
Ġdurable
ĠNile
ĠRobot
azo
Ġ380
Ġunfolding
ĠJos
Ġfantasy
ĠDescription
Ġappar
ĠVaj
Ġworkshop
Ġ(Â£
ĠâĢº
KK
Amazon
Ġlighthouse
Ġnuisance
Tx
ermanent
Ġ155
raged
Ġenlightened
Ġreleasing
ĠCe
ĠWork
Ġãĥ
ĠCapitals
roc
Ġremoves
cher
tar
kinson
ĠScy
ĠCanada
ilight
Ġtossed
Ġ525
Ġmathematician
Ġmamm
Ġmarks
carbon
ĠThailand
ĠJoker
pc
Prim
Ġanything
Ġconduct
ĠBudd
ĠSanford
Ġmathematics
Ġmercy
akens
ĠAgricultural
TI
K
Following
ĠURL
Ġtrolls
istration
ril
Ġsleeves
aceous
ĠHot
Ġautonom
ocrin
Ġcrank
046
Ġ950
ral
Cur
Ġbarbaric
Ġdominant
ĠMath
Ġmentioning
Ġsup
square
Ġtechnologically
Stew
Ġimperialist
REF
isy
ĠTampa
lings
Ġtortured
Ġgest
491
urses
Ġangle
Ġseparatist
ĠZur
PHOTOS
ĠStri
Ġfearful
ĠâĢĵ
Ġ330
repl
Personally
Ġsolution
kat
ĠCollections
Ġsewing
ĠGardens
Ġwaist
Ġrid
Ġfavored
ĠInvasion
ĠAds
Ġsympath
ĠCertification
Ġperforms
ĠBalls
ĠLil
940
ĠChips
ĠColumbia
Ġcharisma
ĠTP
Ġlaborers
992
Ġmaintained
Robin
illo
Ġaccordance
ĠCyn
ĠBor
SAM
ĠTWO
ĠParan
orkshire
Does
Ġprog
Ġmodesty
Ġhopped
oooooooooooooooo
SIZE
Ġdynamic
Ġteacher
Ġconsciousness
Ġportray
ĠCommissioners
conn
Ġtalk
ĠUnless
Ġvote
ĠTucker
ieu
Ġdischarge
ĠHollande
Marie
collection
gression
Ġ[âĢ¦]
')
Ġforget
Ġbalk
Ġoriginally
Ġmeantime
arg
ĠTottenham
ĠShiny
ĠLegs
\\\\
tl
524
Ġounce
consumer
resent
OSE
anos
anol
probably
Ġhuge
ency
ĠPse
Ġleague
Ġlocals
Ġfunds
Ġsublime
Ġluckily
Ġtremb
Ġoverhead
ĠIll
taker
167
Ġrunway
Ġcharity
Ġresurgence
Ġstained
Ġcradle
ĠNoct
ĠIncome
ĠRub
ĠGale
gov
ĠMarx
??
535
Ġconqu
Ġpropositions
Ġagencies
ĠIran
Ġvar
Ġsubscribe
Ġexplore
ĠBattalion
pace
Ġjoke
oresc
Ġimmoral
gregation
Ġmeet
Ġ301
Ġfucking
Ġdocumented
ĠArgent
ĠModi
Ġwash
ategory
castle
Ġvisibility
ĠLopez
ĠCre
Ġabsentee
ĠDod
aments
Ġmodification
Ġlandsc
Ġmention
Ġdissatisfied
ĠImagine
ancies
éĩ
Ġsettled
igmatic
olia
ĠFilipino
Cr
Ġindispensable
Ġfog
Ġbullets
Ġphotographers
ĠBottle
azing
Ġtrying
Ġ900
ters
Ġintermedi
ĠPledge
Ġupheld
Ġperf
Ġdirector
57
ĠRomans
Ġtransform
Ġspac
Ġcircular
ardo
ĠBachelor
ĠStre
ĠTX
rees
Ġwashed
Ġcataly
Ġhop
Ġirrad
Ġdisappointed
Ge
Offset
Ġtenth
sized
ige
ogue
Ġanx
ĠTanaka
351
else
paragraph
spect
Ġclimbed
width
ãĤ·ãĥ£
Ġdisenfranch
ĠOPEN
Ġfuzz
Ġdivorced
ĠIQ
ĠStrength
Ġ50
player
ĠSok
face
ĠDorothy
imon
772
Ġprism
Ġparadigm
oes
ĠDavies
Ġignite
ihu
tile
athered
Ġscrew
Ġcage
ĠEnt
anced
Ġprojection
indle
UFF
Ġproblem
ĠRice
acles
Ġcolonial
ĠMacintosh
Faith
Ġunsolved
\/\/
ĠLuc
Ġcouncil
Ġsound
tra
lem
Ġtowards
ĠPolitics
!!!
Ġprotests
ĠCindy
amel
posium
°
Ġjuices
ebra
Ġpirate
secure
involved
Ġlikely
Ġker
ĠBlank
ĠThompson
327
Ġsons
ionic
ĠRalph
Ġ600
Ġcomplains
Ġdisgust
ĠFairy
ĠStarship
Ġconven
lisher
Ġlosses
Ġfeelings
Ġsenators
Ġinit
bytes
ĠPett
Ġindu
inka
Ġdracon
umbn
Ġappearance
ĠYet
ros
142
Ġreformed
ĠGrowth
ptives
velop
Ġ15
Ġsorce
.#
bending
`.
Ak
ĠEstimates
Ġangst
Ġsoak
ĠProsecut
Ġdeposited
Ġintervals
ĠNaruto
Ġ1800
."[
Ġcommissioner
ĠIndiana
Ġaccessory
hood
ĠTale
ĠPug
Ġfurthe
Ġmassively
ĠSmoking
ĠNFC
Ġreptiles
Ġweaken
BF
ĠTerminator
ĠFULL
Ġnurturing
Ġnatives
Ġbeginner
data
vote
ĠHY
ĠApplic
Ġinstinctively
ĠmRNA
ry
ĠWid
cedented
ĠContents
ĠWindows
Ġlingu
change
Ġcivilisation
achusetts
ĠOperations
});
Ġtastes
ĠGlou
ĠFast
Pri
st
ONDON
ĠLund
comment
Ġintentional
Â¨
mans
Ġbenefit
Gaming
Multi
Ġbenefits
ĠGall
Ġnotable
Ġmiserable
overs
950
ĠS
ĠGift
Saturday
ĠShadow
ĠJohann
ĠDATA
Ġprime
paying
Ġblot
Ġflavorful
Ġbould
ãĥ¼ãĥ«
ĠAnchorage
Ġballistic
ĠLeslie
Ġignited
ĠBusiness
ilty
ĠAch
help
Ġupbeat
ĠFTC
ĠIV
Ġbliss
ĠUbisoft
Ġperverse
Ġgrave
ĠDry
Cho
Ġaccelerate
known
ĠUI
Report
Ġwave
...
ept
Ġ340
Wood
Ġinjections
ĠUnc
ĠSemi
Ġmiss
Ġdepri
Ġcollateral
Ġbellig
ĠOversight
SPA
901
Print
Ġpredict
Ġracist
Ġaccidents
ĠEid
Ġentrenched
Ġconvey
Ġneighbourhoods
ĠReturns
am
fam
Ġpreacher
ĠSubjects
model
Ġcourtyard
Ġapprehens
ĠBapt
Ġclick
Ġpissed
IGN
Ġpaperwork
ĠIceland
Ġgrenades
Ġunderpin
Episode
Ġrecycled
Ġ....
Ġcountries
<mask>
Ġest
ington
``
ĠWATCH
ĠSar
ĠDiego
;"
Ġgrim
651
ĠShelby
reset
ĠET
endants
Ġrenegoti
Ġdetailed
financial
Ġimb
ĠSou
ussian
]).
Ġperfection
Ġtreadmill
ĠConsequently
Ġ+/-
sexual
Ġfunny
Ġcoins
Ġru
Ġpayday
Wait
Ġmetrics
Ġbuffer
ritional
Ġsyll
ĠAdmiral
ĠFog
Ġalarming
Ġ$
ĠCue
oler
Ġdoctrine
Ġpadded
Minnesota
Ġrevival
Ġunfavorable
EEP
Ġ112
Ġretrieve
NES
Ġmyths
Ġracism
ĠMehran
update
ĠKardash
Ġglory
Ġ210
Ġ2024
Ġheight
Aug
497
iddles
std
SK
Ġsocio
definition
ĠDrupal
Ġ1961
TD
ĠJoey
find
ateful
Ġlot
Ġgalactic
Ġtickets
Volume
ĠByzantine
ĠForbidden
Plugin
Ġinactive
President
ĠJapan
ĠBMW
esa
ĠMicha
Ġstatistic
times
pha
ĠWTO
Ġaccompl
Ġcorn
daq
Yu
ĠWriters
Ġanonym
Ġattention
owan
Ġintegration
Py
Ġastonishing
Ġrenters
Ġcoma
turned
Capture
ĠUniversities
Ġmascot
Ġreopened
iga
Ġthickness
Value
ĠRNC
Ġsituations
ĠSuperman
âĢĶâĢĶ
pire
ĠDat
Ġinspire
ĠRender
oak
Ġsurf
isal
Ġcredit
ĠGerman
Ġacquired
Ġsky
Ġelevated
int
ĠPA
before
325
Ġreactors
Po
ĠZan
enges
Ġruining
Ġflavored
Code
daughter
rises
use
supp
cause
554
Ġbig
Ġreinvest
ĠAudio
ĠBMC
Ġexperienced
ĠParks
Ġfet
Ġcups
Ġoutlets
ĠTa
photos
num
success
Ġpainter
Ġreferencing
Ġmindset
Ġabduct
ĠWyoming
Ġsynopsis
Henry
ĠMosque
Ġfingertips
107
Mind
Ġtreacher
ãĢ
Ġunch
Ġuproar
Ãł
Ġrooftop
Ġresearching
ĠSavannah
LLOW
ĠSqu
Ġelderly
Qu
osi
Medic
Ġprolifer
Ġmagnetic
thirst
ĠDawkins
ĠFlames
ĠPlain
Ġhep
watch
Ġexported
panic
amus
ĠInfantry
Ġcautiously
ĠAttention
Quite
ĠRX
Ġconstituent
Ġmeaningful
However
Ġillustration
LP
yet
ĠTorn
ĠFranÃ§
isa
Bloom
ĠNeck
poral
Ġ146
holes
Ġhumanities
Ġsuggestion
ĠMeyer
sel
Ġramp
amas
Ġaddictive
Ġcoincide
âĸł
ftime
Ġhemorrh
ĠNoir
om
Ġblues
Ġ256
Ġscreaming
ĠEden
Ġprogressive
Ġfavoured
ĠTwelve
Ġtemplate
ĠAttacks
rehens
aday
Tier
Ġactors
Ġtorped
Measure
ĠDecoder
Ġthorough
deep
Ġscrews
?),
180
Ġunh
ĠHai
Ġerosion
Ed
Ġcompounds
Tra
RR
æ©Ł
cycle
Ġdstg
ĠNM
Ġtallied
ĠPolly
ĠKum
Ġyeah
lection
ger
725
ĠFixed
Ġhill
":[{"
Ġ+#
ĠKit
aundering
Vo
427
Spoiler
Ġopening
Ġrestitution
aldi
sites
Ġexpired
alties
ĠImportant
ĠEuropa
Ġopportunities
Ġnuns
ĠSavior
Usage
ĠImport
763
Ġ$_
Hist
wich
ĠMcM
ĠConstantin
ĠSG
âĸĳâĸĳ
Ġorphan
Ġdrilling
Ġasserting
ĠNinja
Ġcogn
ason
arte
ĠChung
Ġnorthwestern
Latest
Ġcoaster
art
Ġfestivities
Ġcolon
Ġprecious
ĠHerrera
ussed
ĠRio
ĠJerry
Also
iction
+.
Ġpointer
Ġneurons
levision
ĠUEFA
Scope
Ġplenty
Ġpatients
Thu
ĠNich
Arthur
ĠMovie
Ġdrink
Ġsex
ĠCounter
ĠSleep
ĠCombat
heter
Ġorganizing
Ġcertainly
ĠNem
Ġreun
ĠVentura
ĠPerfect
Ġdraw
ĠMous
ĠDonation
Ġwing
ĠCity
ĠTER
ĠBethesda
Ġgou
ĠAvalon
ĠMeaning
Phot
Ġverified
Ġburns
raising
ĠSplit
antly
ĠHorn
Ġsubdivision
vu
Between
ashed
ĠMacDonald
entially
ĠHERE
Ġbeloved
erred
254
lined
nered
ĠIMF
Ġbre
Ġunethical
ĠLithuan
hole
ARD
Ġtransaction
OV
Ġmutation
erto
ĠTail
Ġatro
apsed
Ġbends
Ġ192
)!
Ġcurb
Ġmitochondrial
ĠReserve
ĠCain
Ġdrones
ĠReached
juven
Ġoutnumbered
ĠPsychic
ĠModule
Increase
Ġmodifier
ĠPlugin
ĠSolution
ami
Dar
Improved
Ġbeta
ĠBradford
emp
Ġlith
uit
Ġarsen
Ġimportant
Ġgases
ifiable
ggy
Ġpreserves
Ġawaken
Ġvideog
isions
ĠShortly
ĠCalm
Ġbox
ĠAFB
Ġsaint
ĠDund
ĠAvenger
mite
Ġup
548
otropic
ĠErie
ternity
ĠWear
278
isively
opted
ĠPsychiat
486
ĠWhit
Ġtranscripts
icking
worm
ĠThorn
Ġpolymer
ĠHull
ĠAcid
zero
Ġdownt
ĠSega
Ġdup
Ġdumps
ote
Ġcreating
Ġcalendars
ĠMcCl
orig
ĠChromebook
Ġcoloured
apolog
Ġsinging
Ġgamer
ĠRealm
Ġrepet
MOD
ICK
ĠFIFA
ĠAccordingly
Ġmankind
ac
ĠRail
cele
Ġinsulted
ĠDive
ĠReplacement
ĠInfinite
ways
illus
Ġquarter
Ġhurricane
ĠProv
ĠPiper
ĠKindle
Ġsorted
Ġstream
uebl
Ġtrenches
.,
Ġanesthesia
Ġhandc
saving
Ġseeking
some
enum
ĠIbid
Ġsomething
big
Ġreducing
antes
scenes
Larry
ĠSERVICES
Fab
shut
ĠSeah
intent
Fourth
Ġ{}
aded
ĠGarfield
Ġaforementioned
Ġmigrate
Ġrectangle
ãĤ·
Âł
Water
ĠMRI
Ġmedd
Ġexperiences
verting
Ġrefuse
Ġ363
ĠSlovenia
##
ĠVentures
Ġpump
Ġstaggered
iac
Pand
Ġmat
ĠBolivia
Ġpropaganda
Ġartifacts
Jews
Ġsurvived
Ġdeeper
].
ushi
ĠLoft
Ġhitch
Ġdormant
ĠVenus
itative
ĠFifa
Ġunintentional
Ġcartridge
Ġsrf
Ġnoticeable
Ġtorn
ĠForbes
Assistant
Ġatrocities
Ġapprentice
ERO
sharing
lie
ĠMajor
Ġrepatri
MAG
Ġbour
Ġfasc
Ġmaneu
orrect
ĠPenguins
ĠGovernment
hh
ĠBir
Ġexpenditures
Ġvia
iting
CHA
ĠArduino
Ġoptions
rah
ĠAN
Tam
ĠSum
ĠCroatia
Ġsupposed
atics
AR
ceans
Okay
Ġcruc
Ġcompletely
mut
ĠHorus
maxwell
ĠSurface
./
Cover
Ġtab
Ġsemester
Ġdear
Ġadjusts
ĠQur
ritten
ĠJosh
aceae
ĠCarly
Ġculture
ĠMig
Ġë
Ġbaptized
Ġcertificate
me
Ġbeaches
protected
Ġgripping
Ġlobb
nil
Ġamuse
Ġaware
Ġproc
ĠANC
atorial
Ġengineer
ĠShank
UA
Ġ1914
ĠFinally
Ġaligned
Ġtraders
Ġmemo
Ġfitted
arling
iani
us
ĠAerial
ĠAbe
ĠStudent
ĠHamburg
ĠTools
nu
Ġdiet
Peter
ĠCatalonia
vi
Ġpersever
ite
ĠServe
Tesla
Ġcompat
Ġbulbs
Ġstudied
operation
ITS
Since
Ġspecialty
Ġviruses
Ġstarted
Ġpartisans
ucket
Ġskiing
ĠMix
repair
ĠHeal
ĠBirch
Year
lect
Ġsliding
id
Ġalumni
ĠZin
Ġwelcome
Ġcoffin
Ġpervasive
ĠBoards
econom
ĠSUPER
Ġjaws
ĠBecame
ubuntu
ĠEMP
ĠDota
msg
Ġexplosions
=-
ĠChomsky
Gallery
Ġ};
December
yson
759
itect
console
queue
ĠPreferred
edu
Ġzeal
126
Sphere
ĠConquest
LinkedIn
aman
Ġpostpone
ĠHartford
ĠLena
Ġpredomin
×ŀ
Ġexotic
ĠDeals
ĠTransformers
1995
Um
Ġroutine
ĠCarlos
sim
Ġfle
ãĥ¼ãĥĨ
jas
ĠHayden
iage
ĠMad
Ġpresidency
urai
ieving
ãĥ¯
Fall
Ġlam
Ġadvanced
ategy
Ġequip
ĠMoves
ĠACA
Ġliteral
Ġacted
Ġremind
acts
sequ
Ġtransformations
prov
Ġbanners
ooting
Support
Ġtragically
Ġfried
iewicz
Ġacknowledges
hya
ĠYug
lems
Ġdoc
Ġlame
=]
GI
Ġbehaved
Ġturnover
ĠLack
Ġpuzzled
Ġreckoned
ERY
Ġ601
*
Kin
Ġpiston
ĠSel
Ġfounding
adic
lycer
Ġfraught
ĠSlug
ocker
Ġfunk
Ġinappropriate
ĠStun
Ġinvestigations
ĠKennedy
ĠXX
Ġsatisfy
Ġdeadlines
ĠGroups
Ġdeceptive
esp
ĠVed
Ġ).
yles
Ġapolog
Ġvaliant
ĠObesity
maid
Ġpackaged
ĠDept
uggle
Ġenchanted
ĠNeural
between
ĠDire
2010
ĠLoans
439
packed
Ġsoften
Ġdepths
Ġstack
Ġkilled
ĠRupert
imates
Ġplay
Ġscattering
check
21
standing
Ġsocket
Ġcompetitiveness
Ġiterator
Ġexplodes
Ġnoteworthy
Ġsweaty
ipop
512
ĠSandwich
Wave
equipped
Ġcontent
ĠMel
ĠBon
awar
X
Ġgraz
ĠHound
Ġtestim
ĠFormer
Ġincredible
ACT
Ġswapping
Ġ1896
å¼
Ġconnects
Ġ529
AFTA
ĠArthur
Ġmuseums
psych
oln
Ġsimulations
ĠChronicles
Ġpointers
Ġvents
ĠWP
ĠDifferences
Ġtestified
ĠScots
iken
Ġarranging
acter
ibraries
ĠUrban
zing
ĠWHITE
Ġamenities
83
Ġcongrat
YN
Ġbroader
otor
Ġexceeds
usters
Ġcrushing
Ġadvancement
Ġtug
ĠConstruct
Ġbiome
Ġpersu
aredevil
Ġqueen
black
ĠMadonna
Iraq
Ġavoid
ĠOften
ĠSemin
Ġinvestment
ĠHue
middle
*,
Ġtelecom
Ġmd
)
Ġdecor
Ġhashtag
Long
Ġcalf
Ġmurdering
âĸĢ
Ġbat
bon
ologue
441
Ġappropriated
ĠHomo
mar
Ġdynam
Ġfalls
CA
ĠDetails
kr
Ġing
expl
Ġgast
Ġdressing
ĠLEGO
vati
aeper
Ġteasp
Ġranch
**
minimum
bley
ĠVid
usted
Ġrosters
oved
Ġwine
Ġmin
author
htaking
Ġpupils
Ġsequels
Lin
ortmund
Ġdubious
avid
Ġpercent
Ġmunicipal
ĠHoliday
Ġassisting
ĠAlready
Ġpalace
Ġdecency
Ġdeficiency
ĠPartnership
Ġimproperly
Red
Ġnorthern
Ġsentimental
Ġtheatre
Ġdive
Ġwait
ĠVote
Ġentrances
ĠTermin
Ġparam
Ġlobbied
umping
ensual
ĠJersey
Ġmerciless
onent
Techn
killing
Ġmisuse
oro
Ġrusher
Ġtidal
Ġcircuitry
138
ĠTurning
ĠCliff
Ġdurability
Ġcity
men
ĠELE
Adding
Ġmurd
Act
Ġcitrus
425
Ġproud
Ġ406
ony
Ġrefund
ĠOccupations
ĠLamb
Ind
Ġdemanded
Ġcope
Use
Ġlock
ĠBAD
ĠCommander
Ġcornerstone
ĠPacks
ixture
Ġoutp
icism
Ġjars
Reuters
box
Ġay
Ġpra
Ġvows
Ġcoloring
Ġchic
910
Ġhegemony
Lat
Ġmos
Death
Ġbranching
ĠWATCHED
Ġopportunity
Ġsom
Å«
Ġyours
Ġcurious
Ġabruptly
ãĥŁ
/#
ĠExpo
Ġreplies
Ġpsychiatrists
oth
Ġcloses
ĠRou
Written
çīĪ
Ġyellow
olean
ĠNHL
wcsstore
Ġassistants
Ġdemonstrates
Pad
untary
ĠAv
Ġnarrowing
ĠSurve
Ġprovincial
{\
ĠRico
Ġoutfits
Rot
iasis
spell
ness
Ġconsulted
Ġgoose
Ġfeel
Ġgold
Ġobsessed
Ġwarmth
Ġdecreases
ĠGlory
cludes
Ġwhirlwind
Ġlif
Ġprincip
ĠElliott
rooms
Ġpreserved
ĠCannon
Ġlimestone
Ġtcp
éĹĺ
DeliveryDate
Ring
BuyableInstoreAndOnline
urity
bold
ĠBh
Ġstuffed
Ġoverflow
ming
nos
Ġdied
ĠModel
ushima
:
ĠHawaii
ĠGuerrero
avage
ĠBeef
plate
players
aed
ĠHumanity
CAR
28
å¿
Ġexplor
ĠOprah
Sun
ĠCarn
Ġfiasco
Ġslams
Black
Ġdehydration
ĠSIL
phrase
Ġlil
Ġparticle
Ġmillionaires
ĠCurious
Ġmelanch
isted
Ġansw
Ġfeast
ĠHe
Ġlover
otherapy
ĠBlazing
SL
pler
ĠGeorgetown
ĠSeat
ĠDodd
Ġsanitation
Ġoffice
Ġhedge
Ġnarr
Ġpledging
Ġgithub
Ġchanging
Ġsentiment
ordered
Ġenergy
Ġexceedingly
Ġsurve
THER
Ġalbeit
Ġshit
Ġrisky
Ġcoroner
status
Ġconcoct
....
ogun
Ġagendas
Ġepis
wik
Ġshale
ĠGH
rule
ĠINS
ĠEnchant
key
ĠMach
crafted
Ġstains
adena
nyder
Ġwidgets
ixel
Ġscored
Definition
Ġbasketball
Ġtitanium
Ġrefining
ĠLaws
ĠHebdo
Ġobject
ĠHorowitz
ĠFt
rike
ĠACTION
Unless
ĠHogan
ĠRoll
e
ĠBlackBerry
Ġlin
ĠKirst
ĠRoche
Ġperpetually
ĠConnecticut
ĠShinzo
Ġtransformative
Ġseeded
Ġsham
Ġinteroper
Ġknowledgeable
ĠYaz
ĠDelaware
ĠApart
Ġesp
Ġwww
Ġvind
Ġpatio
ĠNIH
Ġsubconscious
efined
ĠLis
FORMATION
ecd
append
ĠWill
BA
ĠInformation
Ġvacc
ĠNightmares
Ġnationalists
irements
Ġcontinued
Ġ<=
ă
Ġenforcement
ĠJaw
Hat
ĠSERV
Ġprogressed
Ġhatch
locks
aic
ĠKens
Ġdire
Ġutilization
stal
Ġtrailing
ESH
ogn
lections
burning
Ġcoer
Ġspreading
iability
ĠGallery
fund
],
ĠPlant
Ġsalesman
Ġfidelity
ĠPharaoh
stocks
ĠGerr
"?
Ġchess
Background
ĠBreat
ĠDinner
classic
Ġfilters
args
ãĤī
Ġagenda
doms
uesday
)=
Ġnegligent
Supporters
ĠCOUN
Ġoperative
atown
Ġvoltage
ĠScott
Ġcommittee
Ġodds
ĠKarn
ĠTerritory
Ġunwilling
ĠJR
Ġslamming
ĠDriver
Ġdexterity
ĠRomero
Ġfmt
Ġceasefire
ĠDirectorate
tain
Ġcarrot
Ġalter
Ġkit
Ġnumbers
Ġmet
lock
ĠLowell
MA
Ġstudying
beard
ĠUnix
ĠReserved
Ġendorsed
Und
ĠSilk
alse
ĠEquality
ĠRape
itto
Ġcelebrate
Ġhelped
Ġbrewing
Ġ-----
Ġgrate
ĠPur
Ġupstream
purpose
Mar
Ġleaks
ĠEM
umen
surprisingly
Ġdisappearance
ĠFemin
flush
alogy
ĠAMA
ĠRac
Ġtesters
osal
Ġmog
R
Ġnorthwest
Washington
015
Ġpsychedelic
Ġsaw
Ġfielding
Assembly
ĠAthletic
MHz
+)
ocol
ĠClaw
Ġcargo
orm
susp
Ġinsists
ishop
ting
Ġsep
Ġsurfing
Ġdevised
Ġtreacherous
Buyable
Ġ238
cha
Ġglow
ĠEach
oops
Ġbecause
Ġaromatic
ĠSharks
Ġpronoun
Ġworkplace
</
hari
ĠCitizenship
Ġ1957
Ġ."
ĠRos
Ġlad
send
ĠOrange
Ġcrates
Ġallowing
Ġchicken
ometown
Ġlawfully
Ġsmashed
ĠGul
Reddit
Ġpci
ĠHispan
ĠUpdates
Ġinstant
Ġammo
gor
ĠInstruction
Ġdetector
Ġwizard
ı
Ġarea
Ġprocurement
ĠSports
++)
Ġincons
Ġpocket
Ġmarriages
gr
Ġindicator
AW
Ġretreated
morning
ĠExcel
Ġdefine
Moon
ĠPlot
Ġthan
Ġcommunicate
Ġpouch
Ġcrypto
ĠNOTICE
ios
Ġinteresting
ĠVoy
elly
Ġelaborated
Ġ1100
Sold
Ġimplant
apesh
Ġè
TPPStreamerBot
Super
Ġtomatoes
absolutely
ĠToad
ĠEEG
Government
ĠAlbany
vv
Ġcomposed
Ġbabys
ail
ĠCamp
semble
È
Ġ106
ĠExaminer
oun
ĠMISS
Ġvillagers
Ġcotton
ĠImmortal
Address
inent
ĠBound
Ġexaminations
report
ĠCass
ĠDed
Ġhypocrisy
ĠPrev
Ġchemical
203
ilst
ĠTHESE
ĠYe
Ġproduction
blooded
ĠFood
aspberry
ĠGuests
appy
ĠISI
ĠFug
ACA
Ġvulgar
Ġhills
Ġoxide
Ġimpact
Ġbeads
itating
Ġexhaustion
Ġattainment
Ġruby
iuses
ĠDIRECT
ĠALWAYS
ĠVita
ĠBritain
dylib
Ġfancy
Ġbr
Ġsshd
ĠGame
Ġnum
Ġmartyr
Ġneatly
ãĢĮ
feld
ĠPodesta
Ġproject
Ġhaven
Like
Ġoperatives
ĠGamble
Ġcollective
ĠGrac
168
Think
heng
Ġrhyth
Ġglaring
Ġpref
ĠHindi
Ġparad
á¹
Character
Ġis
Ġpolluted
Ġwork
ected
ĠCompliance
ar
ĠEntered
Ġscreenplay
ibility
ourmet
ĠKiss
Ġrebounds
Ġrealizing
apeake
96
rote
ontent
Ġvolcan
ĠHuma
isec
Ġlecturer
ĠCycl
ĠWesley
ĠPassed
Ġmythical
Ġtrapping
Ġsteadfast
Ġlegislatures
ĠHome
Fly
Ġfract
ĠOrn
Ġtranssexual
line
Ġpopularity
Ġodd
Ġ1982
oen
Ġcontain
Ġlosers
ilies
ocr
Ġpsychic
Ġbeet
Ġ250
Ġrays
ĠLazarus
Ġseventeen
Ġ1909
ĠHK
ogene
ĠguiIcon
Ġgift
ild
ĠBer
Ġunexpected
aches
Ġsponsor
00
ĠLaurel
ĠDy
eeks
Ġmass
Human
ad
tha
Ġpreserving
ĠApache
ĠMalone
Ġuncomfortable
ĠTub
ĠToast
ĠPainting
Ġnineteen
ĠAero
ĠCertified
tight
Ġ;
ĠTart
Ġdisarm
marriage
************
Elf
eteria
Cra
properties
Hig
Ġcand
ĠUnderground
Adventure
å°
Ġrotting
Ġfootage
Engineers
Ġrepetitive
ĠLansing
ĠTABLE
chemist
ĠIndustrial
Ġargs
ĠGenius
ptroller
TED
ĠTip
ans
ĠAthen
ĠCompos
Ġoffices
Ġprogresses
Ġze
Ġblasting
æĸ
ĠVigil
Ġ1959
iana
Ġcavern
46
effic
Ġrange
Ġrebels
ĠPlug
Ġcelebrating
Ġstandings
Ġrehe
Ġstrict
Iowa
Ġfilmmakers
rav
Ġplausible
Ġdemoral
Ġalienation
ĠFeminist
ĠAin
Avoid
pton
ikers
Na
rar
ĠSaturn
326
Ġphysical
Ġextrap
inous
102
ĠPapua
ĠUnloaded
Ġthous
Ġrepresentations
ĠKut
ĠCDs
Ġsunk
oat
Ġlonger
enc
ĠSpace
Ġfirearm
Ġreiterated
Ġrecently
ethyl
Ġpirates
ĠEVER
ĠSwamp
771
ipment
Ġdozen
Ġnudity
Ġdiplomat
Process
ĠSummer
BILITIES
ĠSteve
ĠIncarnation
Ġproduce
880
Ġ1932
ĠPredator
ĠTowards
Ġanswer
Registered
Ġimprobable
ĠRob
Ġconsult
ivably
paces
Ġpresentation
ership
Ġcirculating
Ġaccident
ĠCharter
Ġfingerprint
utch
stad
ĠEvidence
Hamilton
Ġmobility
appropriately
ĠFre
ĠYah
Ġdocking
Ġscripted
Ġpropelled
Ġdrifted
Stack
ĠDuel
ĠProto
Ġdecline
ĠThey
Ġtempered
Ġscaling
LED
ĠTam
Ġmemorable
Ġseasons
Ġloaf
Ġmonastery
Ġlinkage
Ġreveal
Ġventure
ĠVince
ĠFrench
aba
Ġmajors
Ġeliminating
enses
ĠUV
Ġturtles
Ġrealism
ĠPhillip
Ġrenowned
omer
Fix
Bal
Ġglide
atibility
Ġbourgeoisie
ĠGeh
Ġforwards
css
offs
Ġ100
Ġcrisis
Ġgirl
ĠPeople
iser
ĠSaturdays
ilitation
ĠMatthews
ĠDonna
Bob
shirts
Ġmarketed
ĠFSA
ĠAfrica
Ġdj
ĠJinn
ĠREUTERS
Regular
ĠIndustry
Ġpecul
ern
ĠCavaliers
Ġsights
lehem
Ġforcibly
Ġcooker
Ġ840
Ġbankers
ĠPav
Ġvision
ĠPun
Ġpals
irth
ĠRelative
ĠHass
extra
Ġsocialism
ĠIsaac
legged
ĠMichelle
ĠBreakfast
name
ĠPeyton
ĠOsw
Ġbiting
usion
Ġscholarships
Ġpineapple
Ġmasters
Field
ĠMaster
Lot
Ġconformity
igate
roach
Ġgarrison
Ġect
Data
cipled
Ġveto
Ġgrizz
Ġinsidious
ĠAnaly
166
ĠWoo
Chem
Ġclean
Ñĥ
ritic
Snake
Ġstub
ĠKoreans
stack
icro
ĠSettings
ĠAut
ilian
Ġshadowy
Ġtweaks
ĠMarshall
ĠWho
ractive
Ġchecked
lers
Ġlabeled
Ġimprovised
ĠLinda
Ġselects
erial
Ġobtaining
Ġordering
ĠAbby
Ġestimate
ĠEarl
Ġunauthorized
Ġpaycheck
Ġdissip
ĠDonn
commun
ĠPennsylvania
Ġtrespass
Ġbarren
LER
Ġmummy
ĠWrestle
Ġoverd
Ġcalculus
Hack
Ġsmoothly
Ġ134
dullah
Ġgifted
Ġformidable
Ġaltern
ĠAA
ĠComing
ent
ĠDakota
Ġnut
ĠArcher
Ġconfidential
Ġnearing
ĠCutler
abuse
ĠNolan
Ġastronomical
ĠArt
ĠNature
Ġpostal
ĠOaks
349
oked
ĠBritt
ĠFear
ymm
Ġ224
next
51
Ġpurposely
Ġderby
ĠAutomatic
Spell
Ġwielded
Ġmurdered
ĠGDDR
Ġcollect
Ġneg
Reg
asive
bh
Ġcharacterized
omaly
ĠACS
iquid
Ġsomewhat
ĠMiddle
Ġfoam
Ġbreathe
Ġmoan
Ġtwist
Ġheadache
Ġcircumcised
oom
ĠBryant
Ġuncom
Ġparental
orpor
Ġunfounded
Ġlandmark
Ġtriumphant
Ġdepicted
Normal
Ġpersona
Ġdiscrimination
ĠTeen
ĠDriving
ĠEconomy
rentice
URRENT
Ġstaircase
Ġthicker
ĠCynthia
ĠSH
ĠFuture
Ġengulfed
chant
Ġtheories
hot
acco
imsy
izontal
20439
ĠTun
Em
eas
Fr
GEN
Ġgrant
Ġcherished
698
Ġoffence
Ġdeems
Ġadult
Ġhamm
ĠZika
ĠFires
Ġgrooming
Ġhomeowners
Ġcandidacy
Ġrevered
Ġcrisp
Vi
Ġurl
MI
Ġparamount
Ġyesterday
Ġuneven
Ġcapit
ols
ĠPikachu
ounced
Ġtakes
Ġplayful
Ġfrantically
erness
Ġskipping
DVD
ĠAnnotations
ANG
Ġconfirmed
ĠNike
amaz
ĠLunch
Saharan
Filter
ise
ĠGrad
space
ife
Ġrav
Ġrebellious
Ġshoppers
ĠOVER
Ġextremes
ĠBaton
Failure
ĠZimmer
ĠGow
Ġsensit
).
ĠAcross
quite
ĠEnglish
ĠMiz
ĠSuff
ifa
Ġcondemn
Ġportrays
Ġwidespread
Ġlousy
Ġdictate
Ġinjuring
ĠNumbers
Probably
ĠKend
Ġnerves
ĠServer
ĠBlumenthal
dragon
Ġabsorbed
blast
Ġenthusiast
raltar
union
Ġol
Ġ==
Ġschools
HF
Ġincorporation
ĠAUTH
Ġpaternity
Ġgrouping
+,
uint
Ġcabal
355
4
Ġunex
ĠBrunswick
Iran
heimer
Ġoutpatient
ĠMob
Ġspread
Ġselecting
Ġflooding
Ġprogressively
ĠCrus
hardt
Ġperilous
assment
706
Ġther
ĠWonderful
jury
ĠShip
Ġaccounting
uctions
Ġlipid
ĠVaugh
herical
Ġcog
Window
assi
ĠMPG
ĠL
Ġgiving
Ġgarlic
AMS
orable
atre
Ġmomentum
talk
Ġtechnology
ĠRe
ĠUPS
246
ĠAff
asi
arov
ĠNormally
ĠZap
iyah
Ġintellect
Ġentitled
reed
Ġpractitioner
Leary
ĠREM
Ġ273
cru
ĠTOD
ĠHispanic
species
ardon
Ġonward
Ġsock
Ġson
Ġcloak
Ġarithmetic
Ġmilliseconds
Ġsighed
Ġmagnitude
Ġreader
ĠDirectors
Ġelbow
Ġ1976
Ġrefuted
ĠReboot
ĠIllust
ĠVanessa
Hur
ãģı
ESE
land
Ġworthy
ĠFirstly
Joined
ieved
Ġvanity
Ġcommand
Ġunchecked
Ġtransmission
Ġdub
Ġblockchain
RAM
ĠScorp
always
Ġsucking
Ġtranslucent
Ġhaul
Ġframing
Ġrulers
opsy
ĠDF
application
ĠScare
Ġnotation
ĠOpenGL
ĠJudd
Ġventured
"],
gue
ĠWinn
bi
neys
ĠAlmighty
Ġpurposefully
Ġapology
"}
Ġburied
cht
Ġprominence
ages
Ġlogging
Ġagile
Ġboiled
Ġbarriers
Ġdiscipline
Ġconfigurations
Ġhollow
powder
Message
idi
ahah
Sp
ĠRFC
>.
Ġbodily
Ġvariant
ĠPlat
benef
Ġstocks
Ġimpl
ĠDidn
Ġrestrictive
Ġ1949
Ø§Ø
Ġpurported
Ġfacets
ãģ®æ
ĠSenator
Ġcollected
inem
ĠIST
ĠPresence
ĠARC
amboo
Ġdiabetes
ĠSecretary
Ġmobil
Ġadministr
pload
ĠMontreal
ĠOxford
ĠDelta
chal
ĠValve
Ġcolle
ots
Ġbrew
Ġachievement
Ġwind
aw
Ġexpand
ĠMos
ĠSharif
ĠSiri
rible
Ġlegalize
project
Justice
lip
ĠAE
545
ĠLINK
Ġflaming
nels
allic
Ġwhereabouts
Ġwellbeing
cult
Ġmeas
Ġbrowse
ĠFol
wine
rified
Ġseiz
Ġrejection
ane
ĠCatalan
arantine
Ġ91
ĠTem
David
sung
annel
ĠUK
ĠGuinness
Ġdisappearing
Ġhesitation
opp
ĠLevant
ĠLaksh
Ġchurch
Michelle
ĠID
ifier
104
Commercial
Ġpredicting
Ġslit
ĠSPECIAL
ĠAdapter
ĠPatri
inatory
Aaron
Ġmuff
Naz
igg
ĠRecall
arella
VK
ĠSaunders
ĠSinai
ĠDevon
ĠSep
flat
Gab
ashington
ĠStain
")
ĠWARNING
ARY
details
wei
Ġaccomplished
Ġsuppressed
Ġrabid
ĠAbandon
Ġrewriting
ĠGamer
full
cook
Ġlives
Ġbeans
ĠAssessment
Ġproductivity
YA
col
ingham
Ġallergic
Ġ1974
Ġpain
touch
Rocket
Ġlegs
Ġdisciplinary
Ġbarrage
Ġbrick
Ġmultiply
Ġtransgress
rontal
ĠAlbum
reys
ĠGMO
usa
Ġfostering
Ġgratification
Buffer
ĠHog
ĠRankings
emet
Ġleg
Ġdenim
Ġcelebrates
aston
ĠEn
ĠColony
ĠCas
coming
Ġcompletes
itchie
Intern
Ġpointed
ĠBinary
Ď
Ġdisob
Ġwaitress
ĠMurphy
Ġgamma
Ġcomedy
Ġfate
where
Ġharsh
ĠSpoon
ĠEmail
Ġaftermath
Ġunst
laughs
uctor
ĠNone
Ġvisits
ĠPB
Ġpric
Billy
Elsewhere
outing
Ġhospitals
WD
Ġslay
ographic
ĠGregory
Ġafternoon
Ġformations
(){
Ġcalculations
Ġbackyard
Ġattaching
Ġattorney
Ġbund
zon
butt
angu
Ġbedrock
Ġprice
ĠMaterials
Ġbaked
ĠGuys
Ġteased
Ġorganising
cand
ĠStead
ãĥĥ
ĠCoul
****************
August
Ġ{"
ori
Ġgratitude
Ġbump
ĠForrest
Ġunrealistic
Ġitch
Ġcoasts
Ġsubway
ĠBerm
Wo
raphics
Ġwhite
ĠÃł
Ġendorse
Ġsandbox
Ġsophomore
rd
Ġoverlooking
entric
Ġuninterrupted
ĠFeed
RANT
ĠAeg
Ġonwards
usage
eping
oji
dash
ĠWitnesses
ĠKaiser
ulia
Ġspice
Lair
Ġyell
Ġsprings
ĠVanilla
Ġsporadic
Ġdrum
ĠCassidy
fecture
urtle
ĠHeroic
ĠRegist
ĠHindus
Her
ĠPoss
inges
Ġscraps
Ġsoftware
ĠJong
perate
Ġdifferent
UV
osp
since
Ġgenetic
Ġdependent
Ġboxed
Ġaide
roman
Ġelements
Ġsnakes
Ġcaring
pb
Ġmodes
ĠDMCA
Ġprepared
ĠOnce
Ġshelf
ĠLaboratories
ĠZhang
ĠBring
OUN
anish
Ġgirlfriend
Ġretrospective
ĠTransition
thening
iddled
ĠFox
ĠECB
Ġabusive
ĠSoc
ĠCout
ĠMerrill
born
ĠFIGHT
Ġunfold
371
Ġprinciples
âĢĲ
ille
82
Ġrouting
enda
Ġbehavioural
é
");
ĠUnic
hemy
ĠFANTASY
ëĭ
Ġelev
una
Ġpassionately
Quest
ĠWade
mark
ĠShy
850
Ġflirt
Ġshader
ĠHW
erer
ĠEL
Ġspeculative
Williams
Ġvisit
inter
abyte
...)
fold
Repeat
Ġvib
Ġfaster
ĠGamergate
ĠMafia
Ġupset
Ġlaughed
Ġaerospace
ĠLawson
Ġscreen
Ġrunner
Äģ
Ġgay
ĠIRA
Ġconfidentiality
Ġpeel
orbit
ĠGOOD
Ġstarve
ĠÂ¯
Ġhost
Far
Ġbos
Ġclaim
isse
Ġstole
ĠWS
Ġmigr
Ġwonderful
ĠEfficiency
Ġpin
ĠVerb
urred
orthy
ĠChinatown
ittee
Ġmental
Ġlitigation
ĠWedding
senal
Ġright
ĠBlaster
pin
Ġmanipulate
Ġhold
ĠEarn
ĠPhotoshop
Ġunrelated
brow
utenberg
Ġconsumer
Ġmetro
Ġunusually
Ġrepublican
Ġscare
ĠRich
oug
ĠLEG
ĠSchr
Ġproductive
Ġdeposition
Ġamong
Ġbackstage
ĠAus
ocating
rait
remember
Ġvest
Ġrecount
throp
Ġlav
Draw
rypted
Ġtion
Ġfeasible
ĠOrth
special
Ġdense
Question
Builder
Ġrighteous
Ġomission
Ġcaching
Gray
Ġlip
ĠHighway
odan
ĠCurtis
Ġbanning
ĠRollins
Scotland
ĠExperts
ĠScore
aint
Ġwished
inal
Ġprayers
1800
Ġmagically
ished
Ġspaceship
Ġretaliate
Ġfantasies
checked
ĠSketch
Lua
cho
!!"
ĠZo
foundland
Ġexcellence
ĠWC
ĠRift
aughtered
ĠWizards
tree
ĠFlu
ĠMX
thia
ĠDumbledore
ĠOEM
ĠTokens
Ġpills
Ġdevice
Ġinitiative
Fre
ogeneous
ĠBit
Ultra
ĠWinner
Ġhistory
55
agg
uppet
ĠHarry
Ġquarry
Ġcompassionate
iber
Ġunmist
ĠBoehner
ĠMight
Ġsuppose
medical
FFER
ĠMartial
ĠTet
ĠAuthority
secondary
44
ĠEcuador
Ġlasting
Ġbaff
Ġtransmitting
ĠGames
cised
Ġevacuate
Ġpractical
ĠAbd
loo
Ġmer
ĠHou
ĠPerson
rss
Ġratified
Ġhither
ĠMang
ĠDro
ggie
Ġlittered
aling
ĠVon
Ġ128
Ranked
Ġmislead
Ġindicators
Ġpitchers
Ġmerchant
.''.
Ġjeans
Ġwaterfall
Features
################################
Ġthank
Check
istent
Ġmountain
Ġmatrix
Ġepidemic
fter
Ġcynical
bral
ĠSub
ĠMut
ĠLead
ĠLa
Ġever
ĠBradley
hua
Ġcompliment
Ġcontacting
ĠMIL
Ġsuppress
Ġjournal
Ġfacing
estic
oglu
Ġinsert
iflower
ĠEdge
Ġmods
Ġ",
ĠIntegrity
Ġimpeachment
onies
ĠBenson
Boot
Around
Ġan
ĠB
Ġriots
ĠAddress
WARNING
ĠTurkey
ebted
family
ĠJudah
ata
ĠRAW
ĠMods
ĠHussein
Es
jug
ĠSound
Ġmobile
hun
asketball
ĠUkraine
Ġunderscores
Ġalienated
ĠSpray
ĠLives
Ġspir
ĠPriority
ù
Ġniche
ĠMas
Ġstunts
ukes
Ġentertain
ĠNotably
ĠPunch
Sep
Ġmurky
Ġrefer
Ġminim
ĠSpartan
eria
Ġgrun
Ġimplements
Ġc
iencies
Ton
Ġinst
Ġfeeding
Ġrenting
Ġblinked
Ġplanted
Ġstrikes
Ġactually
ĠMur
Ġnasty
Ġorth
ĠNumerous
ppel
ĠLinear
ĠOlson
angling
Ġaverage
Ġunp
Ġmilitias
Ġpreventive
ĠFlam
âĸ
Ġpanc
ogan
uity
ĠIdentity
off
umps
fix
Ġsloppy
ãĥ£
Channel
Ġincendiary
Ġcontagious
Ġpartnerships
ĠExxon
ĠBlind
Quantity
usable
ĠFemale
ĠAlpha
Ġdismal
Ġter
written
Ġmell
ĠkWh
ĠGutierrez
ĠTuls
ĠNight
132
////////
ĠWhilst
Ġhip
Ġsave
ĠHav
Ġflexibility
DR
UMP
Ġcurry
Ġbasil
arlane
Ġfer
Ġtracker
Ġimpaired
ĠBrooke
Damn
Ġlitter
assin
Ġsource
ĠTrevor
Ġguardian
anical
Ġscratches
CC
ĠArri
ĠWrap
eden
aire
Ġcrumble
Ġ136
soon
Ġrequires
ĠSpending
busters
fork
Ġmetaph
Ġregistration
lists
ĠLanguages
Ġopacity
ĠIndividual
Ġfueling
Ĩ
ĠeBook
Applications
1007
Ġplayer
Matrix
Ġadolescent
Device
Ġxp
Ġ"%
ĠIndians
rain
ĠFounder
pause
brand
550
Ġcirculate
Ġ655
Ġstrife
Ġpaw
ulu
Ġforeskin
Officials
alm
ĠToyota
Ġsensory
Th
ĠLicense
ĠWould
izoph
ĠSle
research
Ġcoupons
Ġterror
Ġeffectively
Ġinnate
ĠAudrey
Ġeval
Ġsender
ĠJord
OUR
reetings
ãģĤ
ĠAlone
ĠRobb
ô
Ġkeyboard
ĠINCLUD
Ġ%%
ĠSyria
Ġneuroscience
Ġsubstances
Ġ("
RA
ĠEnforcement
ĠCount
utsche
iza
ĠSevent
hips
ĠBern
ĠIndigenous
nia
rice
nai
;;;;;;;;;;;;
pair
ĠSiege
Ġfelt
ĠBrun
ĠMagnus
Ġrecommends
ĠEagle
ĠLebanese
ĠForest
ĠEnergy
ĠGilbert
vey
regate
Ġspaced
ĠBroadway
ĠStud
ĠResources
Ġmins
Ġadminister
Ġcongressman
aser
ĠSpain
Ġwarn
Ġfootwear
ĠInstruments
ĠIgn
ĠDracula
Ġbapt
ĠCOMPLE
Ġprobing
ĠINC
288
Settings
ĠLessons
livious
ĠOF
Ġquaint
ieves
ĠLong
ĠByrd
Ġchased
Ġuntil
ĠLower
Ġneighbours
OLOG
Ġlease
ĠQB
rones
ĠJian
Ġmeetings
military
ĠAuthentication
ducers
Ġlogos
Ġcf
Ġworm
ĠSmall
ove
Ġconform
Ġhandwritten
Ġpress
ugal
cop
may
Ġremembered
ĠDirector
otypes
Ġaging
Ġgrease
Ġnew
iosyncr
Jimmy
Ġputting
Ġshowcases
ĠSamsung
Ġpermissible
797
Ġoperators
Ġtaco
unct
ĠSHA
Ġcou
ĠRussian
opped
ippers
ĠAmong
Ġamassed
ĠExternal
ĠReconstruction
Jere
Ġdowntime
Ġpermission
ĠShawn
ĠOlive
tis
ĠAdamant
Ġhumans
ĠTat
ĠPublic
Ġmarrow
ĠJudy
conference
Ġkidney
Ġmonop
ĠVenezuela
ILY
ĠHamp
ĠGuards
Ġal
ĠMult
hovah
©
ourge
Ġpristine
reads
Ġpurch
Ġammon
dale
Ġ(.
romy
Ġinefficient
Ġeffects
Ġastronaut
dropping
alcohol
Ġheel
æĺ¯
ĠIndones
Ġpublications
ĠESP
Ġsurfaced
ĠFlav
Fortunately
Ġunions
ĠMalta
Ġtamp
Ale
ĠKou
åħī
ĠColumbus
ĠHuffPost
ĠInnocent
Ġstill
Ġshocked
ĠJr
Ġtended
Ġdeviation
elt
osition
335
Ġfar
Ġdeclined
Ġuniquely
Ġhomosexuality
ĠSearch
Ġunhealthy
disabled
Ġkillers
Ġsnapshot
Ġappro
Ġsynerg
vid
ĠBayer
Ġeconomy
Ġguards
contin
Ġimp
Ġhires
seys
Ġreinforce
Ġher
uffle
ĠLynd
Ġgram
ĠShine
kish
?'
Ġperiod
ĠValue
Ġremed
ĠXin
Ġcriminally
!!!!
Ġarchae
Ġperished
Ġhates
ften
span
ĠADC
task
aders
anguages
Ġduo
csv
äºĶ
ĠAaron
Ġreadings
Ġconcealed
ĠMIA
IDES
ĠFore
ĠGareth
ĠSwing
Ġpursuit
CH
Ġcolours
ĠMaharashtra
ĠDrink
Ġspecially
Ġdemonstrations
Ġpropose
Ġretake
syn
Optional
Ġemergencies
Appearance
Ġbelief
ĠReports
Ġdesperation
Ġbounty
Ġrecall
ĠRecent
Ġcondol
riend
Ġmt
Ġtex
Ġcontrad
Ġfrustrating
Ġcoincidence
Ġreviewing
ĠPak
Ġtreasures
ĠMonsanto
320
Ġstricter
Ġcoupon
ĠDing
Ġiv
anoia
Ġcomplicit
Ġleading
ĠQR
ioned
ĠLeader
ĠSEO
ĠGoose
ĠOfficials
Ġchuckle
ĠHorizon
itory
iPhone
ãĤ¢ãĥ«
irect
ĠLeica
ĠTess
EM
Community
ederal
Ġtrumpet
liner
Ġrebuke
ivid
Ġarrival
alf
ovic
ĠTVs
essment
ĠSetFontSize
tones
Blood
Ġincomplete
Ġmethods
Ġphotons
Ġexecute
ĠJesuit
ĠGuest
Ġcrimes
Ġsunscreen
Bit
ston
Copyright
Ġellipt
ĠEnjoy
Wolf
Mag
Ġsmelled
ĠPROV
Ġle
Ġcla
Ġcomplied
Ġlear
ĠGhostbusters
ĠZero
Ġhearts
Ġirresponsible
CM
Ġtrek
Ġcapitals
Ġworks
vet
Ġcultivating
Ġ698
laughter
uably
atel
Ġget
07
ĠFather
Ġgearing
Ġjuicy
ĠSequence
Gs
ĠLeafs
Ġbursts
ogical
702
ĠClassification
plain
usher
userc
arch
arden
Ġslower
Ġsimilarity
Ġaptly
ĠMoff
Ġcontemporaries
Return
aned
Ġpromoter
Ġfuck
ĠPsych
ioxide
ĠGor
philis
Ġç¥ŀ
avored
Ġindirectly
Ġsag
Ġreversing
rill
Ġsilk
environment
han
ĠNGOs
formed
inators
strong
ĠEasy
rama
Ġendeavour
Ġsolidarity
Ġorchestrated
ivation
Ġtubing
ĠPOP
ĠThrone
Ġundergrad
Ġsentences
Ġemphasized
zn
Ġhe
Photo
Ġmater
Ġ1903
Ġwould
Ġprom
ĠDNA
tz
ĠTriangle
athom
laun
Ġfavorably
ript
ĠFreak
Ġcp
inventory
METHOD
anski
Ġemer
erver
Ġdischarged
Aff
Col
Ġcrim
iency
rington
itous
*:
Ġnond
tur
Yep
ĠIncluding
Ġsouven
Ġtweaked
Ġarmour
ĠPublished
ĠXia
isition
ĠDaylight
jud
Ġreplay
Ġwedd
entanyl
Ġsovereignty
attering
ĠMold
ĠSp
Ġmainly
FP
ĠSheet
Ġclinicians
jection
ĠSelf
but
Ġnegotiation
ĠRutgers
ĠDubai
endra
Ġuniforms
ĠCohn
Ġmanagerial
ĠSTEM
770
sports
Pod
Ġundet
Ñģ
ĠHuckabee
Ġsignifies
116
Ġprecursor
record
ĠIcelandic
Ġwoes
ĠPersonality
ĠAnxiety
Unknown
Ġinfectious
Ġpreval
Obs
zynski
ĠTitus
ĠUtah
ĠLodge
atz
ĠReduction
||||
Ġseparating
Ġsav
Shipping
Ġjihadists
olescent
mist
Ġ68
ĠBloomberg
Ġaccepting
ĠProgress
Ġstimulus
Ġbolted
SO
Ġdisappoint
Ġhearings
Ġbasin
ĠXL
ĠNations
atha
ĠArms
ext
Ġauthorize
Ġprescribing
028
ĠOverse
Ġstockpile
ĠHaitian
Ġscarce
zh
And
Ġmetaphor
389
Ġallerg
Ġnec
Earth
1982
ĠSenegal
outhern
hoff
Factory
innamon
Ġmotivating
ĠHes
Ġdepict
UNE
Ġtaps
ĠVance
Ġexpedition
Ġfewer
Miami
ĠSue
Ġpreliminary
ĠVox
Ġclerics
ĠSmile
Ġdemands
Ġfocusing
bourne
Ġclears
onew
CI
ORD
088
ottage
ĠLucia
famous
ĠMargaret
ĠR
ourke
540
Ġain
ĠLIC
OFF
ĠNXT
Ġrented
Ġextracts
until
452
ĠâĢ¦"
ZA
ĠRecon
context
Ġvintage
icles
ĠImaging
Ġconfinement
Ġbipolar
Ġbrim
Ġadministrations
Ġdisgu
Ġtar
oice
Ġrecovery
Ġclosures
ĠChin
ĠGREEN
Ġmeg
jew
Ġintrusive
ĠPoc
ð
Ġsustainable
rings
ĠNah
ĠCapacity
Ġarrang
Ġrepublic
Ġworkouts
ÃĤ
aut
ĠLiterature
________
Grant
Inc
Ġdefining
ple
ĠCald
ĠGhosts
ESSION
ouls
Ġharbour
ĠConfig
Display
ossibility
Ġportrayal
ĠRevival
ĠBetty
Mary
Ġpets
Civil
ĠArabs
Ġdun
ĠHRC
AIDS
usercontent
Java
Ġregenerate
ĠQuestion
must
ĠTucson
Ġsubmarine
ĠGarland
Ġmim
ĠPetro
ĠHolland
Ġstandby
Ġhailed
Ġ:-)
jong
ĠTaken
Ġkb
aux
Ġcrave
Ġeuth
Ġdont
Ġhomicide
Ġ384
ĠRog
Grid
Ġprecision
Ġdusk
Ġimpuls
o
ĠDurham
Ġpropri
ĠBurgess
ĠRetro
Ġeyed
Ġpi
ojure
Ġparticulars
ailability
Ġerect
ĠAlpine
Ġinnov
wed
Ġkinetic
commercial
ĠAtt
Ħ
Ġinstitute
69
Ġroute
Ġwhit
ĠAcademic
Ġhole
ĠMG
ĠPanda
Martin
ĠJewel
ĠBucc
ĠAlice
Ġdeport
UTF
Ø§
Ġunbelievable
ERN
ĠRedmond
Ġgenocide
ĠTsarnaev
VER
Ġchronic
Ġkidnapping
ĠOro
ĠGood
well
Del
Ġpresidents
never
Ġsuppression
Ġsubcommittee
Ġspecialized
ĠRIGHT
Ġresurrected
Ġcommunal
Cart
ĠGott
hw
ĠSubtle
ĠPyrrha
Ġfilm
Ġarmed
Ġconsecutive
Ġindust
Ġstyl
Ġmeticulously
mentation
Ġdisappro
Ġassass
Ġ333
Ġbasis
Ġmushrooms
Ġdelusion
ĠAt
ĠArabian
z
ĠDebbie
Ġmem
200000
Ġassociates
July
ĠSmoke
scription
ĠAriel
Ġwholesale
505
alloween
ulnerability
ually
ĠNepal
anners
necessary
Ġpicking
packages
Ġ1998
ĠDaniels
Ġmarkedly
Ġdistance
ĠStarts
Ġenjoy
ĠRum
Ġaff
ĠHedge
Ġstre
';
Ġmagnificent
ĠPound
Ġinadequ
eddy
Ġcolumns
Ġincompetent
Ġfalling
ffer
Ġrefrigerator
ĠCorrespond
ĠDino
Ġtooltip
ĠJourney
number
Ġpercentages
Monster
iologist
STAT
aci
morph
ĠVietnamese
iane
ĠEnable
ĠCaps
ĠRegina
Ġflat
ĠCowboy
ahoo
Ġcabinets
Ġstolen
Ġmounted
Ġremember
Ġlob
ĠIre
Ġguaranteed
utils
ierre
Ġ5
ĠDresden
aved
ĠPass
Ġresc
Ġstopp
OUS
Ġincarnation
Ġintangible
Advanced
Ġlex
ihilation
Ġ:=
377
198
Ġmixture
outed
coll
Context
ails
climate
Ġleng
dk
Ġsubs
Solar
Ġembark
Ġconsensual
Ġsc
Ġproducing
area
though
part
Ġluxury
Ġpoly
Ġthrottle
ĠGarden
Ġcalib
ĠUA
Quant
ĠIm
Ġrig
Ġblack
Ġneighbourhood
ĠAns
Ġplight
ĠContract
Ġasleep
ivan
osc
anche
ĠSecondary
ĠMatrix
ezvous
ĠInf
Ġfascist
hart
Ġfused
ĠONLY
Ġgasped
Dec
Ġemph
Ġcompromising
ĠSold
Ġparody
663
Ġawait
Ġconnectors
Table
Ident
Ġbuf
Marc
ĠBarrel
Ġillumination
INS
Ġanybody
Ġcheap
Ġpink
Ġpartnership
ĠJane
Ġprepaid
Ġhealer
Ġcrossed
Ġfearless
Ġautop
Ġexpressive
Ġsleeping
ormonal
Ġsalty
ĠBLACK
Ġassailants
apps
ĠCantor
tom
idae
ĠVendor
ĠBeautiful
ĠWHEN
Ġbashing
ĠRunes
Ġnursing
Ġadvancing
acks
ĠInit
stars
Ġ110
Ġsweats
iens
Ġgist
Ġmanages
Ġsuspicious
Ġparalle
ĠTalking
Ġnp
Ġcomprises
Ġslick
ĠBrune
sem
ĠSuns
ĠAMC
Hyp
Ġcompel
CT
Ġsour
unit
Ġflips
should
ĠPolic
Ġbelts
PokÃ©mon
currency
rolley
Ġtackling
ĠCalgary
Ġopposition
Ġworker
llers
Ġwax
Ġunus
Children
Ġpriority
ĠNeg
Ġpeaked
Ġgangs
Ġproposing
ĠManufact
ĠInvestigators
ĠBod
Ġtokens
Ġwarns
ĠNebraska
broken
ĠMou
aniel
raph
Ok
umerous
tal
Ġgentleman
Ġburgl
Ġgrandmother
Ġbulky
dp
Legendary
ĠNob
xes
Ġinspections
Ġmeats
Ġdemanding
Ġtabloid
vious
Hart
lines
Ġspawning
Ġinternationally
ĠCoyotes
Ġstandardized
undred
Ġfertil
Except
atar
Right
30
ĠIndex
idence
ĠBrees
ĠNieto
Ġnoises
ĠEighth
ĠRAM
Ġbundles
arcity
Ġ?)
ĠGlow
ĠUCLA
Ġanimations
Ġsilicon
ĠPST
bage
Ġslipping
ms
Ġprovocative
ĠCharm
\/
Greg
ĠIssue
ĠKeys
Currently
Ġsupervised
bul
y
ĠSocial
ĠAbility
Ġforth
Ġmigrated
kiss
Ġhang
ĠDA
Ġscree
Ġlabou
Ġimperialism
Ġbackend
ĠJill
Sund
ITNESS
inse
Ġenvironmental
Ġrecite
TAG
20
Ġattacking
ĠMobile
HTML
SCP
ebin
Ġebook
Ob
radical
Ġdistinguishing
ĠSpells
105
Ġdistracted
Ġ346
æķ
ĠMechan
ĠQuestions
172
Ġtrophy
Indust
patch
adder
Trivia
Mich
Ġtakeover
Ġfleeing
reement
Ġ):
ĠImm
Ġfounded
Ġprofession
Ġraining
ĠStandard
ĠOscar
cash
sol
Ġprincipally
Cle
Ġ1870
Ġfend
Ġapplicants
Ġestrogen
Ġcriterion
ĠSalon
ĠâĪĴ
approved
Description
Ġdiscussing
Ġtimetable
Ġphenomen
ell
would
Ġmenstru
Ġresponsiveness
functional
Ġpilgrimage
awatts
gae
Ġmetal
ĠPitt
ointed
Ġdivides
ĠCultural
605
Ġauthoritarian
Ġbus
ĠBeans
Huh
Ġinfographic
Ġcorrosion
Ġprotecting
Ġinteractions
Ġnegotiate
appro
ĠLouise
Help
Ġemerge
ĠDoc
Ġconnected
ĠAfghanistan
ask
ĠCris
ĠEurope
anya
ĠRoot
facebook
Ġlabel
ĠThurs
Ġdeflect
onse
ollar
666
agnetic
icons
ĠAppears
ļéĨĴ
rieve
Ġspouse
ĠBasic
Ġie
Regarding
Ġ1440
ĠSmith
ĠLogan
itcher
Ġplanting
Ġà¨
ĠDoug
ĠMarie
Ġrelational
Ġpopping
Ġtune
Ġparenting
oyle
Ġcapitalism
uv
Ġalgorith
V
Ġdirectly
Ġspeaker
Ġembro
ĠTobias
Ġnations
Ġaquarium
ĠYears
mercial
ĠAll
Ġcostume
eless
Ġcracking
Ġactivation
Ġzombie
Ġancestry
sid
ĠConsumer
ĠAfter
Ġbrass
Mut
Ġengineering
Ġvolunteered
Ġcurves
Ġrecovers
Ġcompetence
ĠSchiff
Ġ[(
Ġattacked
ĠClimate
Ġ303
Ġprehistoric
ĠTurks
ĠMeter
Ġ780
Ġmarch
frac
Format
ĠJudge
ĠCommunists
Ġinterference
ĠLowe
ĠChallenger
Meet
ĠDiff
???
udd
DF
Ġje
Ġshutdown
Ġstartups
Ġservicing
irt
Ġembod
isan
ĠBard
Ġtraitor
Ġgenerally
ĠPitch
chrome
ongo
Ġsir
iffs
Ġoutwe
T
Ġphysicists
Ġhumanoid
ĠACE
Ġ409
ĠSenior
ongevity
Ġcustomized
Ġbur
ĠLIMITED
Ġ[
Ġenters
Ġsurvive
ĠWelcome
Ġplays
Ġexplain
Ġtrucks
Ġrespective
arant
pired
ilde
sg
ĠDiary
Ġknee
Ġpro
ĠLah
ulating
Some
ĠValent
Ġdissemin
Ġresidues
bin
-)
ĠSign
Ġ317
Ġroofs
unknown
Minimum
Ġren
ft
Ġknife
ĠShinra
Ġfreshly
Ġslumped
Ġrailways
ĠBelg
Ġbrief
ĠFare
ĭ
ĠMulti
imilar
Ġ395
Ġempir
ĠDebug
Ġstabilized
century
Ġlimitations
asis
Ġinterval
Ġleased
ĠRut
val
ĠFame
Ġshake
77
Ġpublication
ĠSil
Ġstrengthened
Ġangels
yon
Ġconverge
Ġdogs
ĠHo
getic
Ġartificially
ĠSubcommittee
specific
Ġfrequencies
Ġageing
ĠWar
Ġcategor
ĠDish
Ġspeaks
ĠGabe
ĸļå£«
cess
asses
Ġdemocracies
Ġfeet
ĠEVENT
Lee
ĠSciences
Ġbitterness
Ġwarheads
Ġath
ĠBureau
ivalent
ĠReform
ĠRays
Ġcompressor
ĠSt
Ġexpulsion
dead
ĠMerkel
Ġqualifies
ĠGHz
ibrarian
ĠðŁĻĤ
ĠFrozen
Five
notation
ĠBarb
ĠCyprus
ĠWhitman
ĠHell
TA
chance
breakers
Weight
Ġbarb
Ġ*
ĠManila
ĠBowling
Ġspotted
Ġsystematic
Ġmonumental
Ġhierarchy
Ġshortest
Ġtherapists
values
Enhanced
ĠPolar
Ġthrowing
Ġaggressively
Ġcompact
70
Ġdivisive
Ġoutrageous
Ġraided
Ġholy
VM
ensen
Ġresponsible
ĠSage
Ġadversaries
ĠGrab
ulse
Ġeliminates
chain
ĠCOMM
chini
Ġmanned
Ġrepl
Ġelbows
Ġarrows
alone
ĠUkrainian
chenko
vette
ĠLegisl
#
Ġslang
Ġbegs
Ġnewspapers
Ġbehaviours
abetic
Ġtextual
éĥ
genre
Ġdestruction
ĠPic
Ġdust
ĠJust
Ġflame
Ġrenew
Ġsuprem
Ġcauses
ĠColeman
Ġcook
Ġraised
Guy
ĠIslanders
pod
Todd
oses
Ġreported
ĠPig
ĠAllow
ENTS
pend
Ġchall
------
ĠDev
Ġrevolving
AppData
ĠRank
Ġ368
Ġ2016
ĠFlint
Ġreasons
Ġunpopular
ĠUnified
Ġemphas
ĠMM
cream
dependent
ĠSty
ĠOri
ĠH
Zero
mr
Ġdollars
Ġmanaged
Ġadvisory
Ġban
Ġphysicians
Ġ117
Ġlyrics
Ġsubtle
osed
Ġdivide
ĠPf
Ġseed
Ġnan
SEC
uits
Ġmorals
Private
598
----
Ġwor
Ġenhancement
ĠSIG
amide
ĠBALL
Ġconstructor
Ġ318
Module
284
Ġclo
isation
birds
ionics
Ġstraightforward
Ġfollower
Ġæ
ĠTA
Ġtightly
ĠBarbara
ĠSuite
Yet
ĠSpan
esters
Ġbiography
embedreportprint
Ġ96
Andrew
ĠCommit
aturday
Ġparliament
any
ĠRepresentatives
ĠDealer
Ġdenomin
Ġphp
Ġ///
Length
Ġwaterways
utter
INK
Ġdeliver
autical
Ġwar
usr
threat
Ġvomiting
eared
ĠOpportun
Ġproviding
ICAL
ĠVIEW
ĠMiddles
chairs
plug
import
ulence
Ġscrambled
Ġrename
Ġultr
ĠBIG
ĠGlock
CON
Ġexhausted
Ġfrantic
Ġadmiration
kids
Ġstereotype
Director
ĠAj
×Ķ
/
aspx
Ġexperimentation
ĠEleven
ĠLic
ĠText
Ġtelescopes
ĠRide
Ġfinancial
Ġprotection
Ġ180
Ġfishermen
ĠEmirates
Ġwake
Ġelectricity
iff
Ġlined
Main
åİ
Ġsaying
Hard
Ġscientists
GN
ĠKen
Ġcrowded
Ġsimplify
oland
Ġledge
Ġcoff
ĠLive
Ġplastic
ĠColors
ĠMystic
1
Ġexpose
Ġeerie
ĠVolunte
ĠLouisiana
ĠEye
Ġtd
ĠGithub
å§«
Ġfour
ĠHardware
Ġfading
Ġsucceeds
ĠPlanetary
Ġ``(
Ġunrestricted
ĠClouds
boat
ĠCreative
Stream
astical
ĠRevision
Ġstationed
Ġscratching
ĠTrump
Ġinterpreting
ĠNursing
Ġpresum
irted
ĠPROGRAM
category
Ġtenant
Ġnas
ĠJason
mma
Ġmarkings
Investigators
Ġtransports
ĠGrizzlies
Ġundecided
Ġracks
ĠAssoci
Ġopinions
lymp
Ġdies
Ġvisibly
Ġinfluential
ymes
Ġproperties
ĠAccess
rying
Ġdedicate
640
emo
description
ĠJugg
Timeout
cheon
ĠLange
Ġexpressly
ĠSk
Ġwhichever
Ġresponding
Ġpip
ĠCounty
ĠPrim
Ġsomewhere
Ġarrangement
concept
ĠMaryland
ĠEuph
forcer
Hour
Krist
Ġcris
Ġ560
Ġperenn
Ġbarric
43
Ġfil
ĠImran
Ġchick
ĠGel
Ġboil
Ġinvis
Ġcleared
Ġreflects
ĠFifth
ĠInk
Ġbullpen
rel
ĠComfort
sey
Among
aration
Ġ504
Ġ448
6666
Ġwebsites
ĠEnterprise
Ġsupplement
ĠTopics
WAR
Ġopenness
ĠMississippi
UCK
fs
ĠAmes
Ġappropri
Ġ---------
ĠLDS
Ġrecommended
Ġfairy
ĠDominion
ĠDeg
Ġrespected
idges
ĠKits
ĠDRAGON
ĠRen
Ġreleg
ĠInterstellar
ography
storm
growth
ĠLeave
ĠBG
Ġfinished
ĠSwansea
Ġfund
ĠFallon
Calif
ĠFIA
Ġrake
ĠSect
Ġlawy
ĠCater
Ġwe
olas
ĠLegacy
ĠSims
ĠEDIT
Burn
ĠIsland
ret
ations
ĠOT
Images
ĠNotice
ulz
bear
wered
Ġdiplomats
TT
ĠPaso
roots
reason
ĠRadius
Ġfee
%"
fram
Ġstring
Ġgum
ifting
serv
Aside
çķ
Ġdependence
ĠIngram
Ġcup
hare
ĠMuller
Ġentertained
andal
esthes
ãģ®ç
Ġcockpit
Ter
This
Ġmedications
ĠNurse
ĠSlightly
arge
ĠPai
ctuary
benefit
ĠSources
Ġantitrust
Ġtherefore
CE
Ġpolar
enty
inar
Ġturb
Ġgetting
Ġapprovals
Ġselective
Ġpraise
Ġproper
ĠConcert
Ġmural
Ġblunt
Ġconst
Ġtoes
Ġimpartial
526
Ġsingular
Ġtrem
ixie
ĠBoone
Ġ470
ĠWonderland
Ġmotorcycles
Ġplanetary
point
ynski
!?
ì
ĠSop
astered
xml
Ġreconstruct
ĠSafe
ĠSpaceX
ĠArg
Ġmarsh
Ġtreaties
Ġhiking
Ġcitizen
ĠRepresent
ĠPanic
ĠPERSON
Ġcipher
ÏĢ
ub
Ġpossessions
Ġtherapies
Ġunstable
usions
ãĥĹ
ĠBeam
Ġ._
ĠRex
Ġpertaining
Ġprocessor
Ġpackaging
ICH
Ġmodern
Luck
Ġrespectively
END
Ġ00
omnia
Ġsitcom
hillary
216
ĠNIC
ĠCapt
Ġplague
Ġfru
Ġ212
Summer
Ġmix
Ġrefres
Ġgoes
ĠKron
vers
ĠCompensation
ĠRebecca
jam
Ġformatting
ĠMissions
Ġpriorities
Ġbuffs
ĠViolent
èĢħ
sec
Ġupheaval
Ġpermitted
Ġ1945
Example
isi
port
Ġindexes
ĠRow
pic
ĠWalters
Canadian
Snow
Ġperfected
ĠSuperintendent
Ġconversion
Ġlaughs
Ġintensely
ĠFlavoring
oot
Ġclinics
opez
ĠBerks
Lind
ĠConsole
Ġthinkers
buster
ĠMonday
Ġ=
Ġanalogous
Ġslash
Ġslip
Ġspecified
Ġheavily
Ġvariance
inas
ĠXan
Ġrelig
ĠRampage
Ġcourts
Ġattentive
ulner
Ġancient
ĠLur
alty
ĠFathers
Ġ1860
Ġnegatively
ĠNorman
Ġlikelihood
Introduction
183
cue
olina
blogspot
ĠAssy
Ġemerges
amic
ĠLiz
ernels
Ġfracturing
Ġsheet
ĠMining
385
ĠBuckley
ĠHandbook
181
OM
porary
ĠPayton
Ġtimeframe
ĠGlobe
Ġdeliveries
Ġah
anan
bly
ĠChun
ĠWarfare
ĠGems
Ġteaching
We
Ġimportance
ĠObviously
ĠCONTROL
135
ĠWhereas
Left
Ġopio
Ġdetract
enfranch
%),
DT
ĠCarolina
esc
issued
DK
Ġblaming
Ġhorizont
Ġindiscrim
ĠKee
Ġbutt
Ġembassies
Ġtrans
ĠPeng
ĠZelda
Ġcaricature
lethal
Ġtighter
Top
ĠSOME
thens
USD
oco
Engine
ĠFeatured
gans
Ġbrood
nect
ĠYad
ĠPrix
Ġstreets
alpha
ĠFou
Ġscandals
Ġsupervisors
ĠGD
ĠShanahan
Ġdevoted
ĠAman
telling
Twe
ritch
¶ħ
age
ĠBoise
ĠJacob
ĠAlison
pled
sov
Ġlooking
Ġtone
ĠAsians
Ġsarcastic
ĠTransform
isha
Ġclothed
andom
ĠBlizz
Ġamd
ified
ĠSTAND
ĠVirgin
Ġul
ĠMechanics
arist
Ġcanv
strike
ĠSkyrim
Ġprovider
Ġtyres
Ġexplorer
Ġcorrid
Ġremarked
Ġstealing
guards
Ġwidening
ĠAmit
ĠAustral
ĠJeremy
hin
FREE
Ġwhoever
pard
ules
Ġarrangements
achi
ĠMon
Ġ270
ammed
ĠClark
Ġperennial
Ġperjury
angan
ĠConcent
[...]
