[PAD]
[UNK]
[CLS]
[SEP]
[MASK]
##o
##t
##h
##r
##p
##i
##c
##a
##l
##I
##D
##s
##e
##n
##C
##B
##y
##g
##N
##T
##1
##f
##2
##6
##5
##m
##v
##u
##j
##0
##8
##4
##9
##b
##w
##d
##k
##P
##H
##R
##E
##S
##x
##V
##K
##7
##A
##3
##M
##U
##O
##L
##X
##z
##F
##G
##q
##Y
##Z
##W
##Q
##J
##ti
##en
##on
##er
##in
##es
##ed
##al
##at
##or
##an
##ro
##ati
##as
##ic
##it
##ar
##is
##ent
##el
##re
##om
##ec
##ation
##ing
##os
##ul
##ac
##ol
##ith
##ve
##et
##us
##tion
##le
##ly
##ur
##id
##um
##ut
##ot
##ated
##ase
##ig
##op
##em
##oc
##uc
##il
##ter
##ess
##ri
##od
##ment
##rom
##tic
##un
##if
##ab
##ts
##ell
##th
##tin
##ow
##ere
##ib
##anc
##ents
##am
##ion
##og
##di
##enc
##ran
##ph
##st
##ress
##ate
##ir
##ity
##NA
pati
##ff
##ant
##ap
##te
##ver
##ag
##ical
##vel
##nd
##ine
##ad
patients
##ay
##ain
##pl
##im
##ep
##tive
##yp
##rans
##hy
##press
##ous
##iz
##qu
##ia
##ations
##tor
##ast
gene
dise
##ud
##ign
##ence
##igh
##ific
##oci
##enti
##atment
##por
##tein
##ancer
##se
##ved
disease
##tiv
##ect
##ome
associ
##atin
inh
##ting
##ular
##tr
##ath
##ch
##pro
##ndrom
##ys
##yl
##fer
##ug
##osis
inhib
##unc
##ost
syndrom
##ich
##cri
##ary
##vi
##oth
##ers
##ogen
##pression
##oma
##port
##est
##aus
##orm
##ari
syndrome
##erap
##unction
##ong
##ure
##ally
##ox
regul
##ind
##inical
##ative
effec
##plic
##ore
##olog
##ies
##one
##erm
inhibit
##and
##ese
##ive
##ased
##uman
##ear
##end
##ist
##ym
##up
##oun
cardi
caus
##ism
##velop
##af
resul
##RNA
##ator
##ide
genes
transcri
##all
##ates
##ord
##ose
##ption
##umab
##arg
##rial
##rol
signific
##ip
therap
##ating
dif
##ub
##cl
##ized
##ON
##ases
##ue
##ens
##iti
##uced
##val
tum
##ser
##acter
inhibitor
##ype
##ium
##able
##ici
##ucle
##eri
##oid
##udy
##ole
mutations
##ther
##gen
##age
sug
differ
sugg
##ros
##osph
##ance
##esis
incl
##ob
##ke
##str
##ang
##oph
includ
tumor
##ra
##ound
##ently
##ugh
##entif
mul
##fter
##urr
##omal
anal
##we
##hyl
##ely
disord
##ech
##ven
##inding
##own
transcription
##so
identif
##atic
##ene
##iss
##ility
##tions
##amm
##ial
##ied
##eptor
neu
##ark
prog
suc
##ween
receptor
##ential
##idence
##emia
##udi
##00
##asm
##ted
invol
miR
##atory
dur
##ple
##ons
##ute
##ric
##ace
##ond
##ill
therapy
studi
increased
##ree
nucle
##served
cardiac
##ective
##way
##ition
##br
phosph
##onstr
##ach
##rug
##ile
##RC
compar
targ
##vere
##aracter
##oll
##itive
##ions
##ight
##ysis
##ail
demonstr
##ency
pathway
infl
##pt
##mon
##ass
##cess
##pos
##anism
##omes
##ments
##trac
##arc
mutation
##ulation
##form
##oding
survi
##athy
##amin
##ection
##ron
##ual
##vely
##endent
genetic
##bo
##ocy
survival
##usc
##ION
##CL
##ort
##iqu
studies
##rec
##emic
caused
neuro
##rim
##ish
##mun
significantly
##US
##ological
##av
##osomal
disorder
##our
##tern
##bin
##ures
##cin
##emb
comple
##rad
##tid
indic
##erg
##och
proteins
##agn
##eu
##ected
##duc
##ogenesis
##ood
##ew
##dition
##ylation
##RNAs
tiss
##alc
##ild
reduc
##ormal
##per
##eral
placebo
##ER
##roph
##omas
##tis
mech
promot
##ible
##out
kinase
hear
##der
##iv
defici
##TP
##act
##ever
##ard
##ry
##osome
##ization
##air
##roid
##acy
##itin
syst
##CLUS
##CLUSION
##etic
signal
CONCLUSION
##til
##ock
outc
##jor
##ann
##omy
fir
##uk
##ants
##thm
##plication
##min
novel
mechanism
##sp
gli
trials
##rough
compared
foll
##omic
##otic
##rel
##GF
##eration
##pha
##adi
##SC
##onal
##uld
##tine
potential
##asc
##arly
##last
##ne
##he
polym
##onse
##ety
##ane
##eth
##tim
##ody
##wth
genome
##oin
##opathy
##pressed
##ung
##ough
##umb
##rib
##ogn
interac
##ak
##ily
##sy
immun
cyt
vit
##olec
##opl
induc
##esting
##ren
##ains
##ability
##ten
##hes
##ins
##ects
##rop
##ack
##opt
##RCA
##ET
##alu
##ok
##over
##eat
##ology
##erase
##lyc
regions
dys
##vid
##AC
##ered
##ited
##hythm
##of
##atal
##annel
efficacy
##tig
##bed
##uct
sequenc
characterized
##inal
carcin
##itis
molec
##asis
##tical
mice
##ution
##entr
##etal
##urrent
##erative
intr
##enef
chang
combin
##ogenic
inhibitors
predic
##are
##ational
##veal
acute
calc
##led
prol
breast
##ascular
##otherap
##ov
factors
deficiency
##ital
##omen
##usion
##ise
conc
##estig
apopt
antib
##ek
##ful
musc
produc
##vious
numb
##orph
##ult
##tide
signaling
##yn
investig
##ery
##andom
##ophag
##ptom
methylation
peri
##dro
CONCLUSIONS
##res
##minis
##ardi
##reg
##ues
##ouse
addition
##owever
##view
showed
tissue
melan
##otherapy
##AD
##oblast
splic
##ax
decre
evalu
enhancer
##rin
##CT
frequ
##ce
##tively
##entric
demonstrated
##verse
previous
elements
##ural
##though
enzym
fib
symptom
##AR
##oss
##phal
arrhythm
##tes
##ste
##oz
##sor
##ex
reveal
thyroid
replication
##ving
##hys
memb
##11
invas
partic
reduced
##eutic
##K2
##ulin
##ities
##alm
sens
##SD
##ingle
##vers
several
##ether
##ophagy
##zumab
muscle
##eng
##cler
outcome
##ronic
radi
##AT
##anti
##ired
differenti
##iquitin
calcium
##IP
##vari
##xim
poss
histone
increase
##varian
##set
##ale
##und
expressed
recently
##izumab
association
tumors
phenot
##erated
##urther
##ypes
##ian
##arm
##aining
contrib
sarc
rece
rele
chromosome
observed
##ancy
##ification
therapeutic
##ellular
##tal
##anced
gluc
phosphor
failure
preg
##ymph
##ite
chromatin
##lish
##its
##abol
disorders
autosomal
correl
descri
ovarian
##II
##ND
chronic
direc
regulatory
findings
##ern
diseases
inhibition
appear
lymph
##ening
prost
##ement
##irc
transl
##ross
##ves
##ectively
tol
##oles
##idase
##ness
##eter
##app
##tory
##tration
meth
##ochond
congen
##oblastoma
##MT
suppress
bacter
plasm
BRCA
cere
##omp
cohes
##odies
selective
synth
progression
##oplasm
rare
scler
##tain
##erc
metabol
splicing
##imer
##aneous
prostate
wor
##AF
apoptosis
##inant
##plet
mitochond
anemia
##ither
##ically
implic
##ize
##edi
previously
##AP
adminis
determ
malign
##ull
##ema
inj
perform
further
##IS
##erate
##tivity
##vention
##enetic
influ
pregn
cogn
##22
genomic
congenital
##rh
##onic
##imal
assess
degrad
##gr
##eli
##essive
##ovascular
##M2
##ising
##etes
##ainst
leuk
enzyme
##RO
neur
indep
##erat
##ests
##astic
##rem
##ulated
hep
ventric
##CF
##opro
##oxic
vitamin
##armac
##RP
prote
dele
consid
mig
transcriptional
##az
##rophy
symptoms
##function
cellular
demonstrate
occurr
glyc
##Es
##ults
conserved
diab
cardiomy
encod
particular
##etine
##ES
##osomes
##mental
cardiovascular
##tu
##cle
##mal
indi
initi
##ication
##ocl
compon
carcinoma
antibody
##trans
##hib
##roke
inher
metast
surg
experi
simil
##bral
Fanc
##line
##IM
##normal
##ule
##ias
recessive
polymerase
revealed
##sch
##imumab
diagnos
##red
##53
##ablish
##rane
##ause
##uble
meas
hypert
sclerosis
##east
##tib
##ality
##ans
##ice
##ethyl
expos
mechanisms
following
ventricular
horm
pep
##vis
##ores
##echn
improved
overall
##ryth
##GFR
##AM
##OR
##ogene
##ophil
##tracellular
##sych
ischemic
degradation
##ele
##ie
##fore
##olution
##opy
##ritis
onset
pharmac
drugs
combination
cri
coding
identify
cognitive
provide
BAC
eryth
##hol
##ick
##igenetic
##encing
abnormal
indicate
promoter
individ
viv
##les
##yc
##asing
##ilast
##thritis
variants
approach
##spr
##ake
##NT
##ages
RNAs
##verex
diagnosis
invasive
lung
##enib
##reat
##ologic
melanoma
randomized
##ould
##oni
inte
##istic
##osp
nonc
implicated
vivo
Hir
##otide
##H2
##AL
##orrh
##arb
##istent
occur
secre
dysfunction
sequences
prolif
phosphorylation
ubiquitin
##oplasmic
fetal
##ct
##1B
##vir
##OD
##ised
##ocardi
##ences
infection
pathways
serum
polymorph
H3
mamm
yeast
##ined
##afenib
various
##tility
Fanconi
Hirsch
mRNA
recurrent
functions
glioblastoma
interaction
possible
##ix
##KG
##MO
##UND
genomes
respectively
suggests
myel
##uscep
##sori
phenotype
##sprung
Hirschsprung
oste
##row
##sequ
cancers
presence
##ilep
##entral
differentiation
advanced
##ROUND
BACKG
##usceptib
BACKGROUND
susceptib
##ram
##inc
##atid
##agen
##hydro
##plications
repres
encoding
##DH
##gi
##UL
##onist
##onserved
tissues
molecular
avail
alternative
##tag
##CN
##NP
##dd
arthritis
autophagy
sequencing
injur
##avi
##zhe
##inil
##alian
##eletal
##afinil
variant
epigenetic
Alzhe
dominant
mitochondrial
##oclonal
Alzheimer
##rup
##AS
##ules
concl
domains
arrhythmias
##ephal
##13
##ocytes
concentr
cardiomyopathy
rati
##gue
##omerase
provid
##operative
##ified
##rosis
overex
##itivity
##CH
##alth
##ife
##rand
incidence
##ength
##oprotein
noncoding
fati
##IV
exhib
causes
progn
silencing
tolerated
susceptibility
##king
antag
##tinib
##amine
##irm
##aps
onc
##oint
enhancers
CTCF
pregnancy
##remilast
exposure
fatigue
##ty
##IF
##yg
##uzumab
##de
##xin
proper
distin
developmental
monoclonal
leukemia
BRAF
Pati
##vant
##ontin
##serv
##ission
biom
liver
outcomes
improvement
##orrhage
cran
##li
##TS
##old
##ade
##ands
confirm
considered
deri
##atively
##itor
##itary
##porter
##oxetine
promising
epilep
famil
deletion
proliferation
##rac
##12
##atric
##lem
suggesting
smok
hormone
Cp
##ines
##opath
##mentation
##ateg
recom
subj
vitro
##overy
##ximab
hydro
plasma
surgery
injury
p53
psori
##ties
prec
##ogenetic
transcribed
pathogenesis
##traconserved
impair
decreased
diabetes
delayed
mortality
##son
##NF
##SA
angi
##ably
##aging
miRNAs
##urrently
neurop
recei
amino
##ner
##PA
##rob
##ept
biomark
##DA
##ge
##15
##Rs
##ately
##opo
strand
##seud
resulting
##bry
##ergic
reduction
inflammation
weeks
virus
behavi
ratio
Patients
##eg
##xic
##arr
##otoxic
##tinal
##stand
regulator
##rolog
##ochem
##ozyg
suppressor
crani
foc
##cal
##N22
##fi
prob
##tered
##pheral
##aper
##eps
adverse
controls
CpG
##iven
##yz
##VA
##LD
##omide
##olip
##adder
pren
##oung
##icial
##angi
myocardi
useful
##ique
hemorrhage
contribute
resistance
PTP
##enia
##osyn
##utaneous
##amic
complet
##ples
##entially
emerg
induction
investigated
cohesin
integr
pseud
##enz
##elial
toxic
depression
##imin
##ports
adults
modification
tumour
manag
suggested
embry
##heum
peripheral
whereas
refrac
malignant
prenatal
PTPN22
EZ
##17
##tile
##anib
##atis
##reatment
##vement
ultraconserved
skeletal
administration
inherited
EZH2
T3
lack
##eting
##NK
##T1
##RF
anomal
##ory
##orti
##ico
##ust
##ostosis
##rophic
##itinib
refractory
ATP
##NC
##itation
##ental
##apar
inhibited
bladder
scre
trig
membrane
individuals
FGFR
FDA
##A1
##leep
modul
##icient
accum
ulc
describ
chemotherapy
SERCA
##tase
##kt
##ense
##lei
reac
##ensive
neurolog
deli
studied
distinct
##ortioxetine
##esp
throm
disrup
regulates
##ukary
colitis
triad
Akt
##IC
##ones
sudd
##spec
mammalian
SUMO
verte
sudden
##ral
##iting
##noid
##atus
##omet
examin
mutant
evolution
clinically
glob
##achnoid
reduce
interactions
structure
##tained
diagnosed
roles
##fac
##LA
##tit
##ists
condi
molecule
glucose
conditions
however
intracellular
##ecting
##ances
##amide
exerc
infec
##ension
##raph
characteristic
processes
peptide
##heumat
eukary
##eur
##rox
##ets
##phen
##genic
multic
strateg
targets
targeted
combined
evaluated
oxidase
##ediatric
##ially
##ling
##DL
##ream
##ured
##ensity
analyz
biological
detected
##inson
determine
performed
##ULTS
HRC
##rich
##utis
##RB
##ature
##arachnoid
##ulum
retic
transporter
##ylase
##rosophil
##raine
targeting
CaM
affect
glioma
understand
intra
##appa
rapid
tyros
gast
##ture
##cent
##2A
contr
assay
enrich
##atinib
nucleosome
manif
##ocyte
channels
migraine
components
hematopo
MoRF
##heumatoid
reticulum
##rosophila
Drosophila
fem
##ois
##rum
##rine
##cy
##sing
##ually
##eling
##amb
preval
##afil
leads
##SCs
marker
topois
epilepsy
##ozygous
Treatment
dil
germ
##ior
##OS
##urk
##therm
##ained
##pressive
seem
##ylated
regulating
subarachnoid
##oidosis
chromosomal
analys
remod
progressive
cerebral
metabolism
Mutations
trigg
achie
cis
kappa
rheumatoid
##pts
##ycl
##PE
##37
aneur
##idate
##ilit
seg
##ERT
followed
oxid
appears
PLN
subjects
##aparib
exercise
topoisomerase
aneurys
NSD
SDH
loci
##18
##wing
##ECT
##olar
##ogenous
infarc
receptors
elev
frequently
hepat
polymorphism
schiz
Parkinson
##tf
##ire
##lu
##enal
##erin
statis
incontin
##prot
##ipp
defects
amyl
##ophren
potent
##position
encephal
##till
##112
insulin
patterns
influence
strongly
H4
Mow
TNF
espec
##10
##ATP
##OX
##onin
##ermal
##erious
sarcoma
bacterium
cohesion
spectrum
##ochemical
prevent
##ophrenia
Mowat
nico
##DNA
##PH
##EN
##7112
##erous
##ork
across
##rant
##ude
subun
neuronal
myocardial
ulcerative
##utism
RG7112
CMT
##yst
##50
##vous
##zema
##ester
##read
##izes
##ifications
regulate
inhibits
antid
hypoth
endoth
underg
decrease
samples
translational
HER2
##ospasm
eczema
describe
neurological
tyrosine
Sever
##oing
##hip
##CA
##duced
##KII
##JECT
##omatic
##uster
distal
##tinoin
##irub
prevention
modifications
increases
parti
##ophosph
selen
##SCR
beneficial
additional
alterations
metabolic
responses
heterogene
abnormalities
nervous
antagonist
schizophrenia
Gfi
OATP
coun
##orafenib
##ac1
##rix
cluster
##fers
observ
##ocyt
longer
terminal
deficient
correlated
lymphoma
neuropathy
##phenyl
OBJECT
##irubin
NAD
##iod
##iological
##aut
##gro
##art
##tex
facilit
developing
abund
neuroprot
promotes
systemic
apoptotic
##regulation
homolog
occurred
encodes
##viron
##opathic
##osynostosis
STAT3
CaMKII
relationship
Burk
Ctf
palm
##oac
##44
##SK
##eness
##alysis
##olate
##stream
treat
transcript
##genase
difference
##omallei
identification
Alu
##posed
genetically
median
predis
promoters
##deria
gliomas
TRIM
synthesis
##holderia
overexpression
pseudomallei
thromb
manifest
OBJECTIV
Burkholderia
HSCR
Mul
##IN
##ef
##20
##ination
##ince
##asia
##icin
##omer
##olic
##usions
##uture
exon
treating
subsequ
approval
##iving
severity
fibrob
##antile
profil
doses
Clinical
anomalies
analyses
kappaB
versus
muc
somatic
##ta
##hood
##ru
##lin
##99
##WS
##eline
##ulations
dehydro
resid
##ferase
modafinil
##ubiquitin
potentially
involvement
specificity
consistent
detection
markers
antibodies
glucos
retro
fract
administered
directly
animals
PUVA
accumulation
edema
OATP1B
TRIM37
LDL
##gl
##xy
##VT
##anser
##anafil
##achy
##urtherm
revers
##otor
##epress
##iae
transm
##cha
##iciency
differences
newly
matrix
metastatic
macro
occurs
psoriasis
ATPase
FGFR3
remodeling
aneurysmal
incontinence
amyloid
dehydrogenase
##anserin
##urthermore
##aff
##arox
##gether
##by
##R1
##FR
##itu
##urn
##ucaparib
##play
transpos
##ators
##ensitivity
##avor
indicated
prolong
osteop
vasospasm
bodies
pul
##ytic
##P1
##R2
##rotic
##enter
##ulf
##actin
##othy
##abil
##ograph
resear
##ploid
recovery
##astatin
adhes
##tiveness
apremilast
##clinical
nucleotide
##euploid
##omics
##regulated
invasion
absence
craniosynostosis
embryonic
baseline
understanding
contrast
dilated
CY
autism
dox
mening
pig
##pus
##nown
##known
##EB
##enesis
##onium
aneuploid
##ision
##ulating
##uria
##utes
##ria
##ifically
complications
##immun
whole
##astuzumab
syndromes
activities
intercal
therapies
involving
##rectile
Adminis
UCEs
CNS
encoded
quanti
vertebr
CPVT
NADPH
FIS
pediatric
tRNA
##ient
##ee
##14
##PC
##OL
##ors
##arn
##olamb
##idne
statin
actin
regard
facial
##formation
TRE
##anezumab
##okine
frequent
structural
radiation
receiving
##apping
##tuximab
cleav
propose
##atidyl
provides
Notch
candidate
heterogeneous
Administration
FISH
##olamban
tachy
##ration
##cRNAs
##lor
##HOD
##ering
##ared
##ister
##ostic
##dip
##ypical
regen
least
##ostatin
infantile
transcripts
coh
epid
knock
microRNA
##tenance
##ereditary
##ernal
traum
##arbox
angiogenesis
greater
triadin
prevalence
autoimmun
erectile
magn
##cardi
##ycin
##ft
##alimumab
##activ
##eta
##etase
depressive
recru
##izing
environ
adap
atrophy
effectiveness
manner
myopathy
##monary
neurode
Ca2
##nexin
prognosis
oxidative
kidne
nanism
##tle
##lastic
##nt
##vo
##PI
##xi
##3K
##ette
##uss
##ify
##encephal
carri
##ended
interval
resulted
miRNA
coron
phosphat
phosphate
indicating
complexes
induces
predictor
bacterial
##ompe
synthetase
distrib
##olipin
examined
enriched
encephalopathy
idiopathic
mild
vac
##ious
##aemia
##asts
##eld
##olimumab
##idine
##opic
##tically
##ancies
##enced
##stanti
##iratory
##ectal
relatively
subset
##ipot
novo
endomet
remission
postoperative
maintenance
altered
cerevis
metastasis
toxicity
marrow
glucosidase
cleavage
METHODS
autoimmune
coronary
cerevisiae
Pompe
Wnt
dual
mT
vascular
##oy
##ll
##not
##CC
##medi
##PR
##GA
##aline
##ored
##ison
##leuk
##ides
##otes
##ople
##terol
contrac
extrac
seiz
prac
##iesis
specifically
##erior
chromatid
##brid
methyltrans
reducing
ChIP
cytos
ischemia
fibrosis
sarcoplasmic
discuss
toler
##olesterol
MDM2
neurons
independ
concentrations
binds
homeost
OBJECTIVE
CYLD
##eeism
TREM2
colorectal
Nod
NOD
##ietic
##cence
##au
##aur
##65
##PD
##OT
##ont
##rey
##inger
##ursor
##umin
##otrophic
##rium
##ower
##ibrey
diphenyl
contain
substr
chromosomes
##venous
biop
scores
trastuzumab
##avir
##tides
##aken
cytoplasmic
investigate
hepatic
methods
conclude
prognostic
collagen
precursor
iodonium
EDN
selenium
EIF
hereditary
vortioxetine
##ively
##ward
##dele
##P2
##EC
##isting
##tional
##otre
##ilumab
##ibility
##enchy
##aden
##adic
##imav
compound
##oxif
##upilumab
##ubicin
hypers
included
commonly
##resp
estim
##erature
##ethylation
acetyl
familial
biomarker
widely
analyzed
seems
pulmonary
##imavanserin
JNK
basis
sister
##ield
##me
##esium
##orubicin
##rocy
##idomide
##odafinil
disability
deplet
##phosph
##plant
transport
mutated
substanti
##alling
1015
enhanced
reduces
##adian
located
##lycer
##ofol
hybrid
circadian
MDD
stimulation
MTH
recombin
screening
disruption
SUMOylation
lesions
adhesion
kidney
##xiety
homeostasis
diphenylene
rickets
depleted
Meli
##iotic
##ebr
##nin
##yotrophic
##enet
##onucle
infer
##rogen
##arch
##urafenib
##otos
##emurafenib
##thalm
##phthalm
apocy
prefer
infusion
diet
##ipine
ampl
##aminergic
therefore
##ardation
##relin
arrest
maternal
retardation
hypertrophy
approaches
lysosomal
exhibit
literature
infections
elevated
regeneration
##cardia
MTHFR
Melioidosis
apocynin
TAL
adip
mach
renal
##oice
##hrelin
##men
##upl
##A2
##atosis
##itr
##iter
##itable
##use
##ustine
##urc
##uripot
progen
proposed
##otype
##ocal
extracellular
imaging
pluripot
preven
activating
respiratory
variety
##echol
mono
endogenous
colon
carcinogenesis
mainly
radiotherapy
transloc
populations
heterozygous
occurrence
secreted
polymorphic
concentration
lateral
families
lipid
cruc
germline
SAH
osteopor
MLP
benign
TSC
sus
##iology
##uff
##FS
##eding
##als
##ash
##osin
replic
##uted
treatments
##aries
##arily
relaps
subs
artic
pathological
inhibitory
epith
##ptogenetic
importance
remains
##thma
CD5
##ropathy
evaluation
mitochondria
determined
migration
stimul
myeloid
oncogene
crosslin
biomarkers
Apremilast
bilirubin
gastro
prior
attenu
##esterone
undergoing
##autophagy
tachycardia
sedation
instability
##oxifen
DNMT
progenitor
crucial
MWS
Sotos
dyn
fusion
favor
spor
##ced
##16
##mit
##EG
##inity
##ativ
##itance
##osum
##accha
##lex
##lying
##idin
##ops
asthma
##terior
##romyc
deubiquitin
##amoxifen
##ectomy
plag
##rosp
medull
improves
overl
presented
##ofl
benefits
viral
NS5
##rown
subsequent
meningi
##arboxylase
endometri
##leukin
##aurin
##accharomyc
##accharomyces
3D
G6
Mari
Pend
arom
dyst
golimumab
ghrelin
##oh
##kin
##ectin
tofac
##emat
recurr
transgenic
atax
##cription
highl
interfer
##ount
##amma
progesterone
##plementation
consti
decarboxylase
##formations
microdele
promote
locus
molecules
predicted
##eker
refl
inheritance
ubiquitination
Dieker
hydroxy
##enza
deliver
intravenous
hematopoietic
neuroprotective
aberrant
magnesium
##enchymal
##echolaminergic
G6PD
Pendred
tofacitinib
ASD
Eff
Saccharomyces
Wern
coc
zinc
##co
##laf
##fusion
##27
##600
##Vs
##35
##inted
##esth
anxiety
##oring
##rog
##emory
conver
excess
##astaurin
##tra
compos
signalling
##other
inform
potass
involves
affecting
affinity
predict
##axine
##rinary
BRCA1
SLN
focal
strategy
nicotine
summ
isolated
Fisher
bowel
##lafaxine
potassium
2D
QT
TAD
fatal
motor
##eti
##19
##ED
##arran
##acill
##odium
##amet
cholesterol
##ird
adalimumab
##ongation
interleukin
subt
##ordin
##generation
medic
corpus
##arcot
##ocytic
Charcot
situ
##ofac
produce
organism
CTF
Tooth
##ARS
sensitivity
organization
ubiqu
physiological
assessment
deletions
glycyl
diabetic
propofol
represents
MMP
characteristics
granules
achieved
distribution
osteoporosis
ataxia
Barr
Calm
DU
HLA
Rac1
sep
valu
##ho
##psych
##aine
##DM
##N1
##vastatin
##beta
##work
##orn
##itan
##isod
##elin
##eck
##ithm
##uring
##ote
##otrop
##odulin
deaf
##apine
##imod
##udd
##ights
inhibiting
spinal
infants
intervention
correc
##ergy
TRH
avanafil
##ximately
correlation
childhood
malignancies
assessed
initiation
experiments
callosum
##leman
##angiogenic
generally
psychosis
subunit
CMT2
Ctf4
##SK9
cohort
##ativa
Muen
##acillus
HGF
KCN
L1
calm
harb
mRNAs
rucaparib
seps
sorafenib
tamoxifen
##ae
##ECH
##XY
##inally
inactiv
##orb
##olomide
##urse
##urane
##iditan
retin
##romatosis
conduc
##aban
##phyl
suic
albin
##allel
superior
variation
promo
##asmiditan
##illain
episod
nucleus
nucleosomes
##ache
##arcin
malformations
elongation
investigation
##ozolomide
randomised
##K20
##ompan
##azop
downstream
measured
pharmacological
erythroid
capac
conclusion
NEECH
##iminary
TBR1
Guillain
infarction
H4K20
facilitate
Mulibrey
GBM
aneuploidy
dynamic
deubiquitinating
aromatic
Castleman
##psychotic
deafness
Muenke
cigar
sepsis
NEECHAM
B1
GARS
TGF
optogenetic
##oag
##aw
##lasts
##100
##most
##vac
##uvant
##orithm
##icro
##osing
##olumab
##olytic
proced
##ume
##ope
stabil
##antar
neon
diverse
antipsychotic
causing
defic
consum
obtained
decline
predom
indicates
##ivolumab
##oints
##oplantar
induce
contributes
influenza
diagnostic
17p
PCSK9
MTI
recognized
impaired
impairment
DCM
piRNA
palmoplantar
quantit
copper
NOD1
EDNRB
HuR
sporadic
medulloblastoma
##oflurane
##intedanib
algorithm
##azopanib
##vacizumab
1B
Ewing
H1
HIV
SNP
panc
pap
##pal
##aqu
##gia
##PS
##esity
##alin
##icke
##uls
toward
##acute
##otox
##openia
##terase
stability
conj
##ibr
exons
regim
antigen
##afish
coupl
##uclein
defect
amyotrophic
##rosc
corresp
complement
improvements
largely
systematic
melanomas
##rinting
phenotypes
##lished
bacteria
PI3K
fatty
delirium
##titution
islands
wafers
retrotrans
##aroxetine
##ituitary
##ebrafish
recurrence
Wernicke
Calmette
calmodulin
athl
unclear
correspond
pituitary
##oform
##pite
##point
##CD
##1b
##voflurane
##RS
##eric
##alt
##alpha
##orf
##omb
##osity
##urg
##ophys
##elling
bevacizumab
chaper
##verg
neph
neural
clos
##try
##tric
signs
##ndrome
##estat
##ucleotide
differential
##oblastic
polyn
analog
delet
phospholamban
hemangi
acids
serot
cytotoxic
CD99
##overed
enzymes
##ext
structures
discovery
PLB
PLK2
become
measles
myeloma
acetylation
exhibited
antagon
psoriatic
Guerin
eukaryotic
eukaryotes
fluores
##ocytosis
expressing
seizures
##ontaneous
MAPK
##otretinoin
Syndrome
albinism
promoting
athletes
polyneu
CRP
EGFR
ZF
budd
eRNAs
vemurafenib
##IR
##TR
##23
##uous
##47
##bi
##itous
##opaus
##emaline
##erebral
##encies
spontaneous
##ording
coordin
##struc
cortical
phosphatidyl
ocul
desmin
##iques
##aves
enhanc
synuclein
signals
underlying
prolactin
splice
correlates
Phosph
techniques
necrosis
recognition
temozolomide
rapidly
##2AK2
mTOR
EIF2AK2
crosslinking
ubiquitous
KCNQ
MIC2
budding
##opausal
FUS
LSD
Vortioxetine
catal
sulf
urinary
##ld
##sm
##1p
##face
##enin
##acement
##urb
##ocutaneous
##ilizumab
convention
##thenia
transient
clon
activator
showing
##alleng
cyst
demonstrates
intro
allele
microRNAs
appar
##cephal
siltuximab
##ATION
pregnant
CNVs
surgical
experimental
emerging
multicenter
behavioral
endothelial
fracture
macroautophagy
Gluc
mesenchymal
doxorubicin
carriers
methyltransferase
independently
hypersensitivity
pluripotent
pancre
polyneuropathy
CAD
NXY
uveal
zebrafish
##eed
##T3
##21
##X4
##ened
##inated
##estis
intrac
##asthenia
##itect
##acet
##olol
##oline
repro
refer
##ocys
##ogl
##ploy
##eptin
diverg
polyp
##illary
obesity
##embrane
males
##alcanezumab
termed
##derly
##oplastic
prediction
##testinal
membran
differentiated
BRCA2
UCRs
CNEs
hypertension
PCR
NS3
lysine
nerve
catenin
diffic
strategies
artery
statistically
hypothesis
predisposition
vertebrate
superf
preventing
summar
neonatal
COL1
conventional
Cancer
CRC
Dise
Desp
MV
Pimavanserin
TERT
VPA
lum
typical
##rg
##ramm
##glycer
##HD
##EL
##32
##tif
##entin
##esia
##ateral
##atitis
##osa
##ula
##ettes
##uscl
isoform
##ocellular
stor
##iffer
deple
##tinuria
##ranolol
sevoflurane
comput
cardiotoxic
significance
pathogenic
hyperm
##oids
defin
paramet
##obacter
bias
programm
comparison
##ource
presenteeism
reductase
accel
throughout
elderly
proton
lymphoblastic
cereb
homocys
technique
localized
adjuvant
oncogenic
SLC
##ega
tumours
ligand
diffuse
creatin
profiles
recruit
phosphatase
Nod1
epithelial
DUX4
##orbid
predominant
quantitative
uptake
homocystinuria
Myc
V600
bir
gamma
nivolumab
ophthalm
paroxetine
##tam
##put
##IT
##CM
##bur
##alact
##icon
##ises
##entan
##ector
##action
##etra
##lybur
##idor
##otrans
##ocarcin
stages
deacet
excl
resection
restric
areas
##poral
##endym
interact
pathology
##generative
ependym
consist
multiform
##ochrom
serve
affects
efficac
interacting
carcinomas
enzastaurin
##axis
##versely
classification
##odiesterase
olig
proteas
headache
modulate
TBI
hematopoiesis
persistent
antidepress
abundant
abundance
fibroblast
##plantation
meningiomas
constitu
cocaine
architect
gravis
serotonin
Glucose
##oglob
Disease
creatinine
##lyburide
multiforme
Pf
tend
##pose
##ier
##lation
##ea
##BC
##mustine
##ux
##40
##EP
##75
##38
##tious
##enitis
##intestinal
thi
##alog
##orpor
##elet
##urativa
##idrad
retinal
##odermal
##tice
diss
exam
challeng
##tez
##astat
carmustine
##ched
##ologies
##itide
suppression
stridor
constit
twice
##CLC
remain
##tilis
CD44
##ultaneous
##oblastomas
##ARD
polyaden
extrem
topical
hypertrophic
##opyr
origins
evolutionary
island
##ophosphat
anticoag
homologous
OATP1B1
OATP1B3
CGI
HDAC
##mediate
tolerability
bioprinting
IBD
TALEN
##itrull
replacement
acquired
favorable
17p13
##otoxin
omega
Afric
NOTCH
rarely
depletion
efficacious
##idradenitis
HIP
IH
SERT
Tub
derm
hipp
##C1
##folate
##24
##58
##VD
##M3
##ales
##ortic
##anz
##itone
##aria
##els
##oman
##omere
isotretinoin
##ococ
##ocam
##abine
degeneration
##ogether
##plasia
##ypic
enab
##protein
modulation
agenesis
antiangiogenic
pathophys
tumorig
##raz
##radi
endostatin
characterised
intell
thereby
##tidine
##odyn
elimin
##ledge
simvastatin
##exin
proto
##versity
differentially
phosphorylated
experience
HERG
attem
absent
duplications
loops
hepatocellular
statistical
antidote
##ography
##ifying
carbox
substantial
##enetetra
machin
##menopausal
gastrointestinal
##imodipine
CMT2D
chaperone
deleterious
ACTA1
difficult
##tilisin
anticoagul
HIPEC
hippocam
5q
Herc
Neu
Turc
kexin
lasmiditan
vul
##oylation
##h1
##pass
##ioc
##sel
##gin
##grin
##6A
##52
##vic
##vatinib
##kerat
##GD
##onad
anterior
##oratory
##antinib
##ustr
##lyl
rearran
##ument
##ocol
##ileng
##odine
##tics
consequ
##unn
##owledge
##apse
enti
prel
##ylind
plants
##aryn
##oxid
agitation
subtilisin
hypophosphat
##valent
##icitinib
risks
##illin
phosphodiesterase
myasthenia
intes
linker
accur
primarily
TRP
##nea
concern
simultaneous
requir
arrhythmogenic
plasmeps
##RPOS
occurring
peptides
explain
H3K
##ephaly
PURPOS
NEB
emerged
infectious
polymorphisms
observation
residues
transmembrane
prolonged
regarding
recombination
plagioc
dystrophy
##ohist
##esthesia
convertase
##apineuzumab
consumption
SNPs
LSD1
pancreatic
membranes
##glycerol
recruitment
predominantly
putative
Tuberous
##itoneal
Turcot
odds
rearrang
##ilengitide
PURPOSE
plagiocephaly
Hipp
M3
Oc
ZEB
cutaneous
eti
leth
libr
nintedanib
urine
##hors
##ii
##ave
##lo
##lic
##lim
##si
##samm
##ev
##no
##ging
##2a
##ded
##RI
##K1
##MA
##enting
##envatinib
##esized
##alastat
annexin
##oric
##anine
##itol
##ret
##ositol
##olizumab
repress
repression
##umor
##aboz
##ella
##tinamide
##ibly
##amous
##amycin
bypass
##ectual
haem
princ
Inhib
subc
paralog
variations
##hylogenetic
biochemical
##ronectin
##ocyste
##ished
hearts
##neum
interacts
##okines
predictive
insuff
glycogen
##ospital
NSCLC
##hydrofolate
adjunc
##lier
generalized
increasingly
motility
irradi
subunits
helic
##group
fibroblasts
aggreg
statins
##encephalitis
substrate
translocation
DNMT3
endometriosis
missense
corresponding
DOPA
MVII
##ocarcinoma
intellectual
##odynamic
##enetetrahydrofolate
##ylindromatosis
Hippel
Lindau
##abozantinib
Lys
Nox
NIP
bacillus
morbid
nod
pum
terat
##iant
##cine
##aver
##ID
##250
##62
##ued
##bulin
##onide
##esper
##itus
##arone
##omat
##utri
##otal
contex
##abalin
##agl
##imus
spati
preclinical
infected
functionally
##rolled
suppressed
promise
monotherapy
detect
tract
##duction
hearing
##omyosin
inducible
flav
fibr
arrhythmia
negatively
retrosp
ADP
frag
optic
##elioma
##azol
##AMP
minor
secretion
adjus
attrib
overexpressed
##servation
##12orf
gastric
endothelin
thrombosis
fractures
axonal
tropomyosin
transposase
feas
neurodegenerative
compounds
estimated
Plasm
relapsed
inactivation
H1N1
avoided
prolactinoma
FoxO
##ococc
machinery
preliminary
ZEB2
##sammoma
pump
##esperidin
embedded
##12orf65
Copyr
C12orf65
Fb
HIF
Kline
Oste
dupilumab
gab
muscl
nemaline
nimodipine
pneum
##pected
##aemic
##IG
##sc
##B1
##ygen
##ges
##f1
##fel
##flex
##mol
##42
##bumin
##XR
##zole
##QT
##anodine
##ites
##itant
##elium
##reh
##osine
proxim
##umerous
##uction
##mented
##ifl
exer
##ression
##ressive
##ape
##apentin
nebulin
assign
adoles
plat
plaqu
##urea
noted
##rolizumab
##gene
parallel
amoxic
multiv
intake
perox
##pert
##umbra
Annexin
protective
receive
sclerosing
wors
MDS
extent
extensive
downregulated
##holic
spectrom
PTEN
ligase
MoRFs
segmental
##lux
armodafinil
observations
panencephalitis
manifestations
##othyron
knockout
environmental
cytosk
lncRNAs
Associ
earlier
##ofacial
conducted
##phylaxis
suppurativa
nasal
parameters
squamous
ependymomas
architecture
objective
tocilizumab
Herceptin
hypophosphatemic
Fabry
penumbra
Klinefel
gabapentin
muscles
Klinefelter
Genetic
Ig
OI
Uc
bapineuzumab
cff
dop
fron
mell
pazopanib
sodium
utility
##eh
##Cs
##Nase
##met
##w7
##dom
##OA
##inent
##estr
##omitant
##oses
##ulatory
##acestat
propor
prosp
reas
##ements
##ilot
##thy
##thers
##amily
orally
##agacestat
complication
##ada
##plied
areflex
neut
##entia
compreh
##proic
activates
evid
##oxia
contains
##upus
humanized
##ipar
hypothy
##itiz
biologic
cortex
methylenetetrahydrofolate
malaria
kinases
upregulated
severely
introns
muscular
systems
symptomatic
##ozin
pregabalin
blocker
integrin
##agenesis
anomaly
reaction
##espread
electro
##oacid
guid
TIEG
recommend
recommended
SSPE
interferon
delivery
episodes
GFP
weakness
towards
coupled
##cephaly
accelerated
##alactos
proteasome
antidepressant
polyadenylation
tumorigenesis
5q35
##oxidant
princip
alleles
morbidity
ryanodine
##aglifl
amoxicillin
##othyronine
mellitus
areflexia
hypothyroid
##agliflozin
Cardi
CVD
Dupilumab
FXR
Taken
cilengitide
cabozantinib
dere
hidradenitis
junction
lenvatinib
mim
##to
##tri
##tub
##rb
##ament
##Bs
##vation
inser
##alk
##ana
##rot
##ics
##itamin
##aring
##ulate
##etoacid
##uration
##idem
##idops
##emagacestat
##uch
##ucel
staining
##aged
restor
##eption
##epine
##ypically
recycl
##hyd
incorpor
##porting
aptam
subgroup
functioning
hypoxia
##angl
##raw
medication
prominent
transcriptionally
improving
trend
##ERPR
mechan
##akary
immunotherapy
##ETATION
concomitant
oxygen
reveals
discovered
injection
Addition
valve
##ycycl
macroph
disturb
Acute
histidine
lipoprotein
neuropath
regulators
##olipid
lacking
SERCA2a
widespread
irr
##iodarone
##oactive
depends
reversible
vertebrates
cultured
vaccine
extract
amplification
fertility
substitution
pairs
excessive
megakary
mixed
occupancy
problems
regimen
vesic
vaginal
Pfh1
thiamine
bleeding
##unnel
Arabidops
checkpoint
##ococcus
cffDNA
##etoacidosis
##ERPRETATION
##ycycline
Arabidopsis
BNP
Gli
Hod
HCN
Jap
Kanz
NPC
OCT
Rd
RCT
cad
citrull
cylindromatosis
dimer
giant
lupus
mapping
numerous
others
tunnel
vary
##oic
##iary
##sense
##BS
##yxin
##gkin
##for
##fect
##mark
##urop
##ks
##HL
##Arg
##34
##MG
##zard
##GE
##inus
##iness
##esoid
##rose
##ashes
##itabine
##elvic
##oster
##osumab
##osensitivity
##ulizumab
##ithium
##id2
generate
##ift
##amp
chol
##verage
alread
alco
tretinoin
imper
regorafenib
apnea
mutants
compr
##ather
Intr
##crib
##cribed
##ariate
##upt
coop
defective
##ageal
supports
supplementation
##ophageal
##venlafaxine
nuclease
intact
enhance
synostosis
upstream
##relizumab
##ascent
postmenopausal
##aki
cytoplasm
cytokine
eluc
dysp
histones
intrins
flashes
antibiotic
protocol
possess
estrogen
##ethylated
localization
deriv
adenocarcinoma
criter
##arrhythm
basal
multicentric
fluid
assays
NSD1
purified
clusters
##iodothyronine
##ground
aimed
##arnesoid
predictors
substrates
TFII
INTERPRETATION
microdeletion
composition
medications
thalidomide
nephrotic
gestational
hypermethylation
deacetylase
belong
constitute
TRPM2
irradiation
NIPT
spectromet
Catecholaminergic
recycling
Hodgkin
Jarid2
Kanzaki
##urope
already
BOR
Dc
Depress
E3
Mac1
Oral
PFS
ROS
Sj
SCF
cAMP
fas
galcanezumab
lamin
ncRNAs
psammoma
pilot
yield
##rn
##pri
##irec
##cents
##cRNA
##fly
##ble
##Ps
##HX
##E1
##LS
##inations
inverse
##itch
##isomy
##reated
tooth
##olved
##urs
reupt
##ucinations
##ters
##romycin
conotoxin
##abase
##apl
##ypt
##ectodermal
atypical
moderat
diversity
metall
##plicated
antit
intermediate
cardiolipin
Weaver
glut
cann
presenting
reper
characterization
characterize
selectively
linking
remained
TRAF
Chl
immunop
coli
##estingly
mitral
expans
ultr
decreases
maintain
##clerosis
phenotypic
discontin
organophosph
Asf1
malignancy
cognition
proteomic
proteomics
##tuzumab
triiodothyronine
PDE
pharmacologic
##opathies
prevents
##osynth
reactions
vertebral
triggered
lesion
telomerase
partially
repeats
##affin
intercalators
epidermal
markedly
##oplegia
AKT1
adipose
sustained
hallucinations
urge
##etitive
TPM3
suicid
carrying
conjug
RyR2
innate
clonidine
intracerebral
V600E
ophthalmoplegia
##iconotide
pathophysiology
helicase
Siltuximab
fibrill
##QTL
criteria
BORIS
robust
##HX1B
moderately
Cd
DPI
GSK
LIM
Lsm
Methyl
NOX
SIR
Trial
dab
fever
nascent
pelvic
rash
sof
##ooth
##trocy
##hom
##rc
##cosity
##Da
##eated
##CR
##66
##vance
##bil
##ENT
##SO
##xt
##q11
##erb
##org
##isons
##umumab
astrocy
##ocrine
##odops
##aptic
##imot
##eping
##chlor
signature
##unctin
modifying
##oxy
effectively
antioxidant
##valumab
nonin
paras
##entification
RNAP
delusions
repeated
##recip
neuroectodermal
mediates
presentation
remo
##related
immunohist
expand
larger
phenomen
maint
randomly
confusion
advances
possibility
contribu
FAK
phosphoryl
RANK
suppressing
synthetic
fraction
lineages
##gram
metastases
measure
exposed
erythrocy
minimal
secretase
capable
SLE
periodic
smokers
adenomas
Concl
Confusion
##ometry
catecholaminergic
achieve
Novel
Immun
suffering
piRNAs
anticancer
viability
residue
##ituximab
##ographic
doxycycline
epidural
AKT
##phosphatidyl
##onuclease
infertility
CD55
microdeletions
TADs
CTF4
venous
procedure
deficit
papillary
fluorescent
ZFHX1B
##structive
apparent
summarizes
siRNA
namely
retrospective
Rett
plaque
bidirec
##fecta
imperfecta
spectrometry
reuptake
expansion
cessation
1b
Cycl
Gram
Nan
OSA
Prol
Rucaparib
Sout
Xrn
cDNA
cotrans
eQTL
phylogenetic
rhythm
trim
##otides
##pted
##citabine
##IH
##IL
##going
##uish
##wide
##kes
##72
##Ab
##UC
##X3
##F4
##onical
thalian
##ora
##orin
##rous
##rozole
##omated
##eted
##etus
##used
rein
##igen
##ilin
disting
acup
exome
implementation
##quate
carpal
applied
mutagenesis
##chang
##uncture
modif
modest
effector
reli
##ologous
interven
##ymalt
hypom
epit
demonstrating
brux
microcephaly
microtub
enhances
hypervis
glioblastomas
upregulation
##time
##optotic
##lycemic
flan
maturation
CTLA
fibronectin
##116
sensory
correlate
appearance
##MT1
suppresses
homozygous
lineage
circular
##IST
influences
blockers
protease
peptid
explore
pharmacokine
stimulated
identifying
erythromycin
dosing
##CNU
excit
Expression
myocardium
integrity
reactive
tubulin
transporters
photosensitivity
attention
nicotinamide
sumoylation
Gfi1b
manifestation
profiling
transposon
discussed
hybridization
illness
JAK2
aspects
hallmark
subtype
##umetinib
antagonists
MAOA
PARP
constitutive
Simil
##razine
carboxymalt
Avanafil
Identification
libraries
NAGA
assigned
TIEG1
murine
antitumor
immunoprecip
##odopsin
bidirectional
gemcitabine
acupuncture
bruxism
hyperviscosity
carboxymaltose
Brug
BCNU
Calc
MUL
T4
gut
glyburide
hE
kDa
piv
p100
testis
##herin
##come
##DU
##nase
##norm
##vuls
##went
##down
##F1
##inositol
therm
##ater
##atran
##orts
##anth
##aster
##ita
##arf
##artic
##istry
##reen
##osus
##acerb
##oled
##olind
##etr
##urally
##tinucle
exacerb
##velumab
reser
##epith
imatinib
neigh
neoplastic
transition
##udilast
regression
adren
associations
apos
##uglycemic
syndromic
dihydro
relax
relie
agangl
subacute
##rolimus
pathogen
paraffin
##keeping
strain
durvalumab
##RC1
compare
repetitive
myogenesis
##uscular
##rect
neuroepith
##embrolizumab
microgl
indication
smooth
##ivarox
primitive
ChR2
underwent
cytokines
##olecular
##oplasia
dysregulation
timing
melanocytosis
ischaemic
decreasing
##CTION
arrhythmic
classical
organs
implications
circulating
physici
##RODU
glycoprotein
Pro250
hormones
##icking
mammals
epigenetically
distinc
##iveness
##roxine
HCC
HCV
generating
prevalent
arteritis
telomere
AML
prevented
hypothesized
##ING
Subacute
handling
boundaries
Metnase
preferentially
replicate
continued
overlap
NS5B
INTRODU
##otropic
barri
dynamics
optogenetics
##roscopic
retrotransposition
enhancement
Phospholamban
sulfate
superficial
isoforms
##ifferenti
consistently
CD44v
normally
entire
plasmepsins
rearrangements
Propranolol
dinucleotide
spatial
Fbw7
adolescents
denosumab
proportion
comprehensive
dereg
vesicles
HCNEs
housekeeping
##priate
metalloprotein
reperfusion
phenomenon
Brugada
editing
pivotal
##olindone
aganglion
##ivaroxaban
Pro250Arg
INTRODUCTION
1q
CX
Cuc
DRB
Hho
IDH
Mig
OCA
Psori
Sry
Syst
fission
fetus
goss
plei
pembrolizumab
rituximab
taken
##oaging
##treated
##hby
##raf
##p1
##c1
##la
##In
##INT
##BP1
##gib
##fication
##uation
##uana
##juana
##01
##80
##ware
##PP
##S1
##VI
##70
##XBP1
##GG
##enes
##enosis
##edipine
##alemic
##asp
##icular
##entre
##omn
##omab
##acin
##oler
reporter
##igatran
asym
##ocortic
stenosis
confer
##ifedipine
exists
##ogram
##stem
##plastic
##ypii
neither
transformation
##atinum
clin
atrial
applications
##ferases
platinum
spastic
##arial
##erapy
relapse
##velopmental
##itively
specim
gland
cannot
##opharyn
unus
unex
neurom
controlling
##udies
autophag
comparable
decade
##arcoma
##aminidase
desvenlafaxine
trunc
##ologically
##eticholic
Chin
Chrom
##hea
underl
postn
##uctural
mature
sensor
##version
glucocortic
organell
appeared
Ashby
##imeric
circRNAs
##gramm
proteome
Prog
Proprotein
##ophilia
hematologic
STXBP1
PCa
##virus
##ixaban
epileptic
laboratory
STAT4
modulates
modulating
thrombo
movement
multicentre
photoaging
hepatocytes
undergo
ribosomal
##INE
fewer
troponin
aneuploidies
knockdown
neurodevelopmental
contraction
clearance
monoamine
Bruc
##ematosus
##criptional
Genome
CTF18
baricitinib
suicide
Disord
procedures
deficits
hemangioma
##avesical
KCNQ2
MicroRNA
catalytic
cystatin
reproduc
responded
COL1A1
cardiotoxicity
##obacterium
considerable
##oglobin
dermatitis
##ginine
##limomab
##ocystein
adjunct
teratogenic
##utrition
multivariate
hypothyroidism
intrinsic
TFIIS
Chl1
fibrillation
##homocystein
RANKL
##phosphatidylglycerol
Xrn1
thaliana
epitope
Calcium
DRB1
Migalastat
gossypii
rupture
Ashbya
Austr
CK
D4
Dic
Dys
Fib
MNase
Rho
Targ
beli
benz
dend
dimin
junctin
lithium
pimavanserin
zyxin
##rat
##rical
##rations
##pers
##itions
##lec
##nutrition
##BA
##galactos
##Ns
##mel
##volution
##96A
##HR
##RNP
##EX
##MAR
##Z4
##tifi
##onia
##inary
##estive
##estern
inade
##aling
anast
anaemia
##itentan
##isagen
##entor
##omod
##osal
##ulosis
##acts
##leucel
prophylaxis
##otyp
##igible
##emif
##ocolate
##term
genotype
##unia
dex
Thal
##pher
##iral
##antad
##adel
rectifi
##izations
effici
atopic
##ostat
##ogenomics
antisense
causative
arginine
hypn
##ensitive
paralysis
canonical
unrelated
identifies
bio
positively
##onsill
manage
compart
endemic
myocytes
intoler
depolar
maxim
disordered
malnutrition
microb
indications
longev
means
hyperhomocystein
##spemif
##aking
immunomod
dysh
intron
##areunia
##rinted
maintained
sensitiz
insight
##undred
sarco
##erculosis
polyc
glycos
encode
downregulation
valproic
initially
Protein
experienced
hematoma
1858
dosage
excision
exhibits
vasogenic
behaviour
craniofacial
toxicities
neurologic
duplication
biliary
tuberculosis
females
segments
SDHA
##artoma
thrombocyt
wafer
aberrations
CGRP
adaptive
contractile
methyltransferases
DMD
Preclinical
participants
acetylgalactos
recombinant
lncRNA
relapsing
progenitors
TOP2
venlafaxine
oculocutaneous
enhancing
graf
hamartoma
programmed
exclus
##tezolizumab
advantage
Africans
Neuro
##keratosis
programs
Growth
IPF
etiology
##sirolimus
routine
neuropathic
RCTs
citrullinated
dyspareunia
lagging
FOXO
dabigatran
##imotuzumab
trimester
##orinostat
distinguish
interventions
immunoprecipitation
Enhancer
FFPE
##lecleucel
##isagenlecleucel
##antadine
rectifier
##onsillectomy
longevity
##spemifene
acetylgalactosaminidase
2a
C5
C9
D1
DMT1
Hep
Molecular
Overex
PY
Prad
PAD
PGD
RPE
R47
SCN
Src
Titin
Vitamin
cord
fung
farnesoid
gonad
hundred
ketoacidosis
mari
mAb
p52
rivaroxaban
soci
semagacestat
senes
tetr
##ove
##ton
##par
##pidem
##iatric
##lip
##I3K
##BP
##NI3K
##mC
##mission
##vin
##vascular
##uit
##uary
##back
##wise
##drug
##7C
##ORC1
##inion
thym
##atives
##itonin
##isome
##isions
##revir
##omib
##ections
##osarcoma
##active
##idrotic
isoch
##ots
##emporal
##terfly
##ritinib
##odal
##romosomes
acne
chimeric
##apoptotic
##ades
ongoing
##eptide
neoplasm
##iaz
##astolic
transplantation
##uded
##ignant
apixaban
##prol
##ichromosomes
infant
died
diphosphatidylglycerol
diastolic
##oxide
arise
coil
##arge
##ubility
surve
ameli
supple
butterfly
multinucle
##issencephal
biogenesis
biosynth
posterior
##ondro
consisting
endonuclease
##ightly
encour
neurob
##cination
##acycl
hyperbil
CD4
CDP
##ropo
##okalemic
imprinted
protects
sensing
relevance
FANC
lymphocytes
plasmic
homology
blockade
##elihood
extend
cardiomyocytes
##ethylase
erythematosus
erythropo
minichromosomes
macular
##sequestr
##133
overexpress
Diab
PTSD
PTX3
rapamycin
eculizumab
integral
temporal
cycling
intraoperative
enrichment
infarct
prions
Ser96A
ribose
uncom
##omeric
Transcription
CSF
cultures
displayed
mTORC1
rs75
##mediately
acetylch
PKA
substantially
attenuated
forks
plague
corrected
harboring
retinoic
H4K20me
MELD
HFNC
phosphatidylinositol
KCNQ3
ACPA
divergent
polyposis
COL1A2
luminal
Consistent
NOTCH1
absenteeism
anticoagulant
hippocampus
commerc
Inhibition
insufficiency
MVIIC
##onidegib
feasible
TNNI3K
sweep
proximal
platelet
CopyrightIn
BDV
##tries
cadherin
derivative
##organ
phosphorylates
Conclusions
flanking
neuroepithelioma
Exploding
barrier
Hho1p
unusual
D4Z4
VEGF
Willi
belie
##ratentor
anastrozole
dyshidrotic
polycomb
R47H
marijuana
amelior
##issencephaly
encouraging
hyperbilirubin
##sequestrin
Ser96Ala
CopyrightInformation
##ratentorial
Bcl
Conserved
Dl
Gly
IGF
JT
MRP
Modafinil
Sarc
TCA
Tofac
XR
cuc
casc
cedi
categ
casp
dic
dich
hesperidin
hapl
lissencephaly
mapp
molindone
nifedipine
pand
pestis
xen
ziconotide
##oad
##ovi
##tage
##tochemical
##hn
##her
##pr
##pati
##cious
##a2
##amental
##sessive
##eff
##ebi
##gar
##gun
##mt
##mic
##menti
##utive
##den
##dle
##HO
##Rp
##EM
##Ss
##30
##M1
##tiple
##enol
##enamide
##onyl
##onomic
##ertain
inversely
##alia
##orylation
##asone
##icle
##icacy
##isation
##enty
##oming
##ecutive
##osc
##ulates
##ulocutaneous
##acl
##acent
##actic
proved
repressive
##umm
##otemporal
conservation
Th17
##ameth
##ranib
##phrine
##fficking
##antly
whom
immediately
##ighting
leak
##yld
Intra
diarr
##oxavir
##ounts
hypokalemic
amantadine
##obiotic
##angitis
##raxin
unf
unres
automated
nucleases
phospholipid
ocrelizumab
repolar
decision
##posing
detecting
datas
mediating
##ternal
microphthalm
hemoglobin
##ditional
heav
serine
##umber
vital
##ofib
meli
calcitonin
numbers
##regn
materi
##axel
arrhythmogenesis
##sorption
sarcolipin
releasing
reflux
congenita
Stroke
worse
##AF2
pooled
extended
damaged
##functional
clearly
##ORD
trafficking
excitation
poorer
poorly
absol
Expert
latter
##like
histor
##lemtuzumab
Moebi
solubility
##ochemistry
##ozygosity
##aperitoneal
ulcers
describes
ligands
bilateral
iodine
motif
Abl
analyze
triggers
oxidation
elevation
electroph
electrical
ribosome
Ctf18
palmit
manifested
subsequently
##glob
transmit
recruited
ATF4
seizure
TAL1
norepine
##urcumin
lipids
suspected
replicating
attenuates
highlight
highlights
##rogate
composed
subtypes
voltage
##orna
CBT
##ulsive
coordinates
introduced
superfamily
computational
Mycobacterium
milest
CGIs
enables
percentage
accuracy
Oculocutaneous
Janus
##omato
attributed
cytoskeletal
dopamine
prospective
recommendations
SNORD
dimerization
ibudilast
cooper
possesses
Depression
XLH
fundamental
##ursive
maintaining
erythrocytes
CTLA4
adrenergic
relaxation
distinctive
postnatal
organelles
Brucella
efficiently
TOP2B
ITIH
Overexpression
PADI
biosynthesis
hyperbilirubinemia
JTV
Tofacitinib
cediranib
pandemic
Moebius
Aft
BCL
Borna
EGF
ESC
Fas
Gast
GDM
Hox
K20
Marf
PSA
Pazopanib
SMO
TIM
Yers
avelumab
atezolizumab
dental
falc
fash
kary
mosa
noc
nimotuzumab
pf
penet
p38
tomato
vess
##pox
##points
##cr
##side
##Cap
##fl
##fib
##25
##2S1
##54
##57
##man
##utical
##932
##draw
##HC
##HE
##L1
##inia
##estic
##esides
##esophageal
##ats
anap
##asive
##elson
##revers
##omol
##ulator
##activity
withdraw
##urora
repressed
##umis
isomer
##utely
##igor
##opod
##odeg
##romised
constr
conformation
##owing
##amil
##ograf
##ranial
suitable
##tegr
##ousands
##tored
transf
transferase
compulsive
##chron
##ichia
preterm
modes
##andem
antimal
archa
abdom
noise
speck
##uclear
nonsy
amiodarone
supratentorial
preser
presents
prescribed
##angli
strains
bioin
succin
deline
delta
##aceutical
obstructive
obsessive
##ailed
scaff
trisomy
neurot
##rimary
##rade
terminus
promoted
##anned
follicular
##heast
polymer
CD133
locally
##ACT
predicting
calculated
produces
##rint
frequencies
##soral
structurally
##K27
contribution
##plete
determin
assessing
Pharmac
##oprot
propranolol
explored
##ophilins
hematological
PDP
##viral
capture
##agenic
##ASP
providing
likelihood
impairs
soluble
##array
##olipoprotein
completed
integrins
temsirolimus
younger
reactiv
globular
22q11
Abelson
Onc
irrevers
Notably
##enalidomide
SAINT
##105
countries
##growth
transcriptome
pigmentation
goiter
Notch1
superoxide
Severe
vaccination
morphology
extracts
practical
EIF2S1
estimate
Combin
TFRs
dietary
IBS
stimulates
JAK
ASDs
Efficacy
Epigenetic
correction
networks
Disrup
retrotranspos
closely
validated
Autophagy
calsequestrin
reprogramm
divergence
rodents
SETMAR
monitoring
advantages
anticoagulants
concerning
subcutaneous
optimal
##628
##scill
worldwide
engineered
Signific
aptamer
irritable
Gliadel
OCT3
RdRp
varying
suicidal
MethylCap
SIRT1
##CR4
microtubule
peptidyl
Histone
Rad9
neighb
Crohn
Cucumis
annotations
##omnia
specimens
thromboemb
inadequate
syncope
immunomodulatory
thrombocytopenia
exclusively
Prader
phytochemical
senescence
neuroblast
cucumber
caspase
xenograf
##amethasone
diarrhea
microphthalmia
melioidosis
norepinephrine
PADI4
K201
Marfan
Yersinia
avium
##932628
anaplastic
scaffold
5h
AAD
Cri
E2
Esch
ESCs
FGF
FCM
GTP
Glyburide
LQ
MFS
Prel
Ras
Saf
SCD
Sclerosis
T2
alemtuzumab
dram
hind
hER
iP
joint
lact
mood
mmol
pyl
p50
tisagenlecleucel
tandem
vorinostat
warran
##treatment
##turn
##ror
##ril
##pation
##iximab
##na
##ylyl
##5A
##modal
##vasive
##benz
##k2
##H5
##xate
##AIP
##36
##enuous
##eratin
##erichia
##ini
thousands
##eded
ineff
antiv
##orh
##orter
##orge
##round
offers
##asian
##iction
##icated
##itud
##itting
##isk
##elf
##retion
##ingful
##olysis
##olpidem
##ota
##otomy
##ocur
##ilaz
##esseng
confers
disch
depressed
Thr
##ame
exchang
##ogren
##oglyc
##stood
albumin
nearly
assum
enlimomab
##ectable
shorter
clar
##ylate
##crimin
diving
divalent
interp
hypo
##rosome
supporting
canagliflozin
##angu
RNAi
strati
bile
potenti
mononucle
cortic
epigen
comparing
comparisons
endocrine
multimodal
infliximab
formula
sca
encoun
neurotrans
##rimocl
methylated
microbi
##erging
##alcit
lowered
emph
##head
##timately
understood
posttrans
cytogenetic
colonic
mitogen
mitophagy
intraperitoneal
##ovir
thyrot
thyroxine
##fulness
productivity
smallpox
##entricular
##ART
##steine
invasiveness
insights
##armaceutical
glucur
alteration
methotre
chemotherap
suppressive
Adalimumab
opinion
indirect
similarly
NF2
hypertensive
exploding
##hold
traits
similarity
adjacent
ratios
necrosome
Mutation
##robacter
solanezumab
emergence
DCI
sleepiness
##factor
tuberous
HCl
HCM
Polyc
triggering
segreg
SDHAF2
##ipping
TNFAIP
blinded
meaningful
CREB
neuroprotection
##avorable
pigment
pigmenti
cohorts
vacu
##notobiotic
ChIPnorm
tolerance
DMARD
hybrids
inferior
preventive
epithelium
ARG
continuous
meningioma
Median
paired
Assess
OPAL
harbor
episodic
coupling
##roscopy
TSH
SMN
innov
GAA
referred
##oglobulin
IHC
attempts
specialized
perme
repressor
Nox5
UVB
utilized
flavination
FoxOs
HIF1
Osteogenesis
peroxis
##iparum
##hydr
macrophages
elucid
antibiotics
##arrhythmic
Sjogren
glutam
discontinuation
organophosphate
astrocyt
##chloride
contributing
eQTLs
##ifferentiated
metalloproteinases
CXCR4
neuromuscular
underlie
reproductive
dexamethasone
hypnotic
intolerance
hyperhomocysteinemia
PYY
##lipid
##prolactin
##ondroplasia
rs75932628
acetylcholine
TOP2A
UGT1
##globin
SNORD116
BCL11
falciparum
abdominal
##soralen
irreversible
neuroblastoma
5hmC
Escherichia
Preliminary
dramatic
hERG
##turnal
antiviral
##essenger
##rimoclomol
methotrexate
TNFAIP3
2A
2q
5p
Aurora
Bax
BBS
Foll
Goma
Glyc
Galcanezumab
GIST
HG
Hesperidin
K27
Loss
Ovarian
PAS
Pediatric
PWS
Pregn
Rese
Risk
Surg
TK
TUC
Vemurafenib
aortic
kern
keratin
lom
lob
messenger
ospemifene
oscill
rif
sib
sph
satis
tonsillectomy
venti
##rig
##pan
##iologic
##lated
##less
##lorph
##Bi
##gf
##fu
##fen
##67
##morph
##vice
##uits
##born
##wi
##PL
##PAP
##x1
##3A
##Ms
##F72
##enn
##ention
##onym
##ert
##int
##inavir
##atac
##atell
##oradi
##oronal
##roc
##icoronal
##is1
##isition
##elines
##retin
##rept
##omm
##ecestat
##acol
##olin
##levi
##uric
proprotein
##otypes
##otgun
##ucasian
##ritic
stret
##abis
discrimin
##thelial
Thy
exact
##ogaster
##teen
##ineural
allevi
neoplasia
transduction
##ighted
cartil
shap
shotgun
associates
inhal
##athec
Initi
sparing
modality
contro
antiarrhythmic
interc
intergenic
subclinical
abort
abrog
##ubecestat
##ensively
surrogate
##genesis
inclusion
##strual
strenuous
cytored
##acea
##illance
obser
comparative
endpoints
myc
myocyte
selumetinib
mutational
deterior
##aminase
destr
mediator
Caucasian
newborn
microarray
indicator
##anning
##omycin
CDK
colocal
##ropin
brainstem
intragenic
intrathec
concurrent
melanogaster
spliced
evaluating
##stead
silenced
radioactive
normalization
##III
polyubiquitin
circRNA
circulation
##ISPR
UCR
physiology
##rhodopsin
leukaemia
poison
neuron
initiated
ALDH
##ORT
##ORF72
abnormality
quies
macitentan
##H2A
##orrhag
secretory
ubiquitinated
myelofib
limb
limiting
Acid
periods
collected
adenylyl
embryo
Conversely
cyclic
modulator
granule
##thermic
aneurysm
##luores
candid
suffered
CRISPR
##iodine
facilitates
viable
OBJECTIVES
##omeres
mucosal
LDLR
##glut
reversed
Enz
regarded
DSB
DSBs
contractility
themsel
biopsy
##me3
ERK
adipocytes
pluripotency
equi
ferric
acquisition
stimulate
DNMT1
interference
constipation
BMS
Meis1
##allelic
BCG
GFI
regimens
677C
introduc
apparently
Obeticholic
turnover
rodent
connective
separate
##eleton
##tezomib
HDAC6
dermat
filament
elimination
##keratotic
consequences
insufficient
MVIIA
##odynamics
##azolam
Activating
##gestion
adaptation
Association
questions
wakefulness
anaesthesia
Cardiac
insertion
megakaryocytic
Delta27
Emerging
Mac1p
TMZ
TRAF1
cotranscriptional
teleost
deregulated
sensorineural
glucocorticoid
Collectively
atheros
microbial
1858T
AMPK
C9ORF72
FPGA
Outcome
tetracycl
urothelial
surveillance
overexpressing
believed
PrEP
Sarcolipin
cascade
dichlorph
fitness
repolarization
milestones
Aft1
FSHD
MYC
mosaic
transfection
antimalarial
speckles
succinate
radioiodine
retrotransposons
reprogramming
Cas9
pyloric
scaven
Polycomb
UGT1A1
BCL11B
Gomafu
lomustine
rabb
vehicle
##atacept
abortus
myelofibrosis
themselves
dichlorphenamide
6q
Aven
Bacillus
Cyld
DUS
ECM
HT1
INP
Ki
Kv
Kore
Lasmiditan
Lenn
MIM
MSCs
Np
Nintedanib
Pb
PRC
Rac
Scrib
TAM
VHL
cys
cros
cef
erad
euglycemic
gir
gnotobiotic
pancy
sap
sick
tric
tau
##tt
##topenia
##pred
##ients
##ces
##cutaneous
##cape
##ler
##lational
##Is
##sti
##equ
##ying
##ger
##gow
##2B
##29
##ject
##90
##bal
##dinal
##V6
##AE
##39
##MS
##OC
##G2
##G5
##tial
##ona
##erating
##inacea
##albumin
anesth
##ask
##asion
##asatinib
##asgow
##itour
##rees
##omotor
##ecovi
##ings
##osts
##idone
##idaz
prolyl
isopro
##utable
##opa
##emann
##ilateral
##terenol
genitour
construc
convuls
##abin
devi
##ibanserin
examine
exogenous
##ogonad
##phan
##phet
chocolate
##aprevir
##verted
complicated
resc
##plate
recess
imple
implantation
##quently
efflux
cardinal
computed
phases
##ches
plac
plastic
Indi
sperm
premen
##othelioma
##portun
evolved
##oxorubicin
antiep
antiapoptotic
##ympan
causal
notably
genesis
arising
ablation
absorption
abatacept
##ubation
hypogonad
##thern
deform
untreated
mulibrey
##weight
prompted
positions
coronal
nuclei
manip
##bright
endocytosis
multidrug
multifunctional
intense
decades
##forms
##formin
desire
encomp
neurofib
##rimat
methylator
peritoneal
##avour
##ework
##ildren
reductions
##rophil
serous
remark
remov
##TPA
hyperkeratotic
complexity
primrose
importantly
CD40
elic
dysmorph
intram
predicts
##ynaptic
investigational
##reshold
smaller
CTR2
enzymatic
silico
##ATA
deaths
lymphoid
synthase
implicating
injections
circum
pregnancies
UCSs
genomics
opportun
leukocyte
hepatitis
ventricle
##oprote
proteases
ageing
cardiomyocyte
Prote
hormonal
critically
trait
H3K27
excretion
PI3
##oproteins
subjective
hydroly
PTC
##geal
NEMO
integration
integrated
MoRFpred
psychiatric
analysed
persist
Gfi1
observational
Smad
predisposing
dependence
originally
kappaB2
guan
osteopenia
Glasgow
soil
##PCs
allowing
trauma
phosphatases
boundary
DMRs
Nod2
##ontrolled
hypersensitive
participate
##lycerides
illustr
replisome
CD56
gastroesophageal
overlapping
TCS
dystroph
hydroxybenz
delivered
##co1
TPM2
##DMARD
megacol
mixture
complementary
systematically
siRNAs
##329
computation
definitive
SDs
restriction
challenge
TALENs
hippocampal
vulv
vulgar
simultaneously
##load
Inhibitor
aggregation
heritable
attributable
feasibility
Plasmodium
pneumonic
striking
exerts
worsening
cytoskeleton
##thyretin
evidenced
principle
Survi
junctional
mimetic
subgroups
mechanical
macrophage
disturbances
Macro
cholangitis
fasting
lamina
PDE5
Edn
GSK3
NOX5
Randomized
noninvasive
parasite
removal
immunohistochemical
expanded
naive
modifier
reliable
hypomethylation
pharmacokinetics
exacerbations
dihydroxy
microglia
aganglionic
##ograms
CKD
NLM
##otyping
Baricitinib
neoplasms
multinucleated
erythropoiesis
##patient
unfavorable
consciousness
datasets
historical
transmitted
Gastaut
withdrawal
##igorous
##oprotective
AADC
ineffective
discharge
abolished
corticoster
encountered
##onymous
##atellite
ALDHbright
candidates
Enzastaurin
Avena
Lennox
PRC2
mtDNA
pancytopenia
##ecovirimat
isoproterenol
genitourinary
plasticity
premenstrual
hypogonadism
encompass
neurofibromatosis
hydroxybenzyl
megacolon
vulgaris
3beta
CSC
Conse
Differ
Fork
MCA
MHC
Nemaline
Pc
PAL
RLS
SASP
UVA
XI
cir
cust
dasatinib
folate
fT3
fused
iM
iPS
lamb
nause
nmol
p105
sativa
sonidegib
sternal
tympan
vand
zolpidem
##oa
##oor
##ipro
##c3
##DD
##sA
##sies
##suff
##B2
##yond
##gal
##T2
##TF
##fied
##fold
##28
##ber
##bre
##ds
##PT
##P8
##RA
##EF
##xonic
##AIR
##zen
##Gs
##titu
##entical
##enafil
##onc
##estion
threshold
insp
##alamic
anesthesia
anhydr
##orl
##oration
##anol
##itre
androgen
##arine
##entation
##ing1B
##osed
##osup
##oside
##ulant
##ulism
##acarb
##olab
##etanib
##idium
##opsy
##oconstr
##ode
genital
##ellar
##ellosis
##thral
deposition
Therapy
acroc
extr
exonic
##phase
chor
chord
##NAcal
orphan
##vels
whorl
recalcit
implant
incid
##porin
enacarb
##omegal
associate
haemat
apolipoprotein
phag
##athrin
##ylic
##ostatic
spind
preoperative
pretreatment
##arities
evol
evening
##ologists
intersti
##uba
surround
suggestive
##ophen
unicoronal
cysteine
biallelic
sucrose
dementia
blot
##plex
autonomic
autopsy
##acetic
##illed
nucleolar
Alpers
endpoint
octa
decisions
##posite
scales
trich
perin
peric
##ember
microg
microM
complementation
acidic
modeling
deficiencies
mei
##pha1
TRbeta
Chronic
Chk2
##ascul
##neur
##oinsuff
postp
immuno
immunoglobulin
cytochrom
CD8
dysph
##ACE
intravesical
combining
ultimately
investigations
##ptomatic
monthly
fibers
thyroiditis
insulator
insomnia
silicon
lymphocytic
Statin
chemokine
##APK2
influx
influenced
##eliac
became
migalastat
initiating
##oclasts
lowering
##vised
##AM1
explo
##eletion
pharmacology
stimulating
minim
mineral
Amyotrophic
Amiodarone
##ocardial
mammary
osteoc
osteoclasts
##ileptic
Exon
PINT
##125
hydrocephal
precise
vasoconstr
strands
viruses
Canagliflozin
greatly
embryos
##heumatic
cyclin
Arthritis
##NCE
##aparesis
screened
achondroplasia
duplic
disrupt
##specific
looping
catabol
iodide
tubocur
granul
generates
segment
amyloidosis
Severity
relationships
uncertain
uncontrolled
predispose
thrombophilia
exonucle
mucosa
axitinib
reversal
transmission
amyloidoses
mesylate
intercalation
quantification
goitre
neurodegeneration
phosphaturic
TIAM1
morphological
carbonic
cytosolic
EDN3
participates
focusing
amplified
labeled
TSC2
CHD
##mitted
##rospinal
overload
positioning
codon
medicine
valuable
##otropy
ICAM
stabilization
stabilizes
analogs
hemangiomas
fluorescence
MAPKAPK2
calst
catalyz
sulfonyl
DITPA
midazolam
Selen
hams
hypermethylated
cerebrospinal
linearity
baloxavir
centrom
tendon
dissip
examples
IHPS
RIP1
RIP3
requiring
plasmepsin
haemorrhage
##ocysteine
adjunctive
##omatous
adjusting
Plasmeps
PPTP
proximity
exert
transferred
reached
##thyroid
evident
pentraxin
hairy
elucidate
yielded
NRAS
RNAPII
immunohistochemistry
DDX
Pacritinib
Southeast
augmentation
Malignant
TAZ
hESC
##articles
reserved
physicians
publicly
Deficiency
GalNAcal
Psoriasis
Systemic
pleiotropic
unexpl
autophagic
Chromatin
Disorder
dendritic
diminished
Thalidomide
depolarizations
sensitize
Formula
TDP
harmful
hundreds
mAbs
uncommon
GlyRS
haploinsuff
mapped
##prising
##microscopic
##ummell
spreading
ITIH3
LINC
karyotype
archaea
nonsyn
Disruption
frontotemporal
xenografts
OMIM
Potential
##itudinal
stromal
clarify
glucuronide
Assessment
peroxisomal
Bayes
K27M
paediatric
ventilation
Thyroid
destruction
##luorescence
GFI1B
mosaicism
6q24
DUSP8
Fifty
Korean
XPF
destabil
recessively
Ednrb
dihydroxyphenyl
AZD
ERCC1
MARs
Vsr
narrow
nausea
vandetanib
anhydrase
acrocentric
recalcitrant
enacarbil
spindle
octave
cytochrome
hydrocephalus
tubocurarine
sulfonylurea
GalNAcalpha1
haploinsufficiency
AED
BID
BART
Coc
Cerebral
Erb
Eco1
Glu
Golimumab
Hb
HDL
HSCs
JN
KL
Kummell
Mes
NCT
NHL
Peri
QOL
Radi
RING
Sno
YAP
Zinc
aplastic
bip
coch
domes
foss
favour
gated
gfi
laryn
lenalidomide
nutri
pestic
sizes
suture
sno
##tent
##haps
##rus
##pir
##iBi
##lox
##lamp
##D2
##sen
##sia
##eech
##nis
##ning
##ners
##navir
##BV
##yle
##go
##Ts
##1C
##fort
##620
##6A2
##519
##vical
##vlim
##85
##9C
##9me
##HS
##SH
##SE
##SS
##SIS
##xed
##3a
##31
##300
##MP
##MM
##LED
##G1
##WI
##ono
##onidine
##inergic
thick
##educt
##edolizumab
inositol
##alanine
##atase
##atures
##atumumab
anion
##oride
##ican
##itumumab
##arp
##rete
##eclamp
##ositive
##actions
##olus
##olism
##etaxel
##usive
##lym
##urable
##idation
##umulating
##utor
##igm
##ocor
##ilimumab
##odend
##mentary
##ellent
##tinely
beyond
##stances
##irst
##irilaz
##adow
##adnavir
resemb
##pling
##eptions
recursive
##astr
transgenesis
transthyretin
regurg
enrolled
##sevi
adher
##ectant
associating
clathrin
attrac
##trypt
compelling
compromised
wean
##athion
signatures
Integr
preeclamp
infil
metformin
##indler
agre
##oreg
##ending
##istance
develops
coinc
pathologies
hypot
##ensus
nonsel
paraparesis
studying
presynaptic
chromom
unable
unequ
unilateral
idea
identical
polar
##ammatory
biodeg
demethylase
consists
consensus
phosphoprotein
bruc
decapping
formalin
overt
detri
survivin
##amines
undifferentiated
undulant
prednis
##radable
##outh
accoun
synerg
synaps
synaptic
systolic
hyperprolactin
##phae
Chang
undert
throughput
inducers
processed
##ACs
failing
combinations
Anemia
esophageal
skipping
oxal
##ulinum
contributor
sarcomere
discrete
refrig
correlations
##NDING
hyphae
RASA
Stress
plasmin
synthesized
metabolites
determinant
##ISA
##22A
heterochrom
becoming
Pharmaceutical
hepadnavir
##RP3
migr
glycine
##EST
##tually
experiment
measuring
##tibular
establishes
pharmacogenomics
quar
localize
dosed
IL6
##ULSIS
distress
exception
##CHiBi
partners
Clonidine
hydrochloride
##opoiesis
crest
##otoxicity
##standing
pseudo
tempor
lengths
##espan
evolutionarily
diffus
##lings
MoRFCHiBi
SDHD
SDHC
SDHB
incontinentia
encephalomy
00001
hypothes
heterogeneity
ribos
GBS
macroH2A
mesothelioma
intercalator
tachyarrhythm
epidem
##activation
carried
copies
morphogenesis
plantar
focuses
JNK1
PKC
Complex
arrested
ERK1
SSRI
substitu
CD59
stimuli
34a
cervical
##mittent
highlighting
hydroxytrypt
aberrantly
BMI
visc
OPG
ICU
validation
oculo
ubiquitously
DIND
GAGA
vestibular
summarize
cerebro
SLC6A2
SLC22A
Consid
separated
Cells
dissoci
challenging
