ĠRez
Jews
Meet
creen
ĠBoulevard
Ġcop
uilt
ĉ
ĠOxford
ECA
ĠWere
Ġtexted
Ġdunk
Ġstag
Ġimaginary
ĠCT
ĠGu
Ġamaz
ĠAccounts
Ġburned
ĠMuseum
Ġclimates
spread
Ġmemorial
Ġadvertisement
ĠLilly
uto
ĠKens
Ġclips
ĠAnders
Ġanalysts
Ġsurvive
Ġprop
Ġnon
Ġmere
455
und
Ġproverbial
ĠSalman
ĠJacobs
Ent
Ġinherit
ĠLoll
Ġ351
ĠSov
Ġfmt
ĠVladimir
angelo
ometric
Ġapplauded
Ġhobbies
sel
ĠFL
atonin
ĠMacBook
Ġearthqu
def
gements
Fourth
Ġ427
ĠSir
Ġissued
Ġreg
Ġhomegrown
riction
ĠMech
ĠKathleen
Ġtransferring
Ġpoorer
ambers
term
ĠAlright
ĠIzan
orously
ifully
Ġproducer
Ġarcane
Ġbell
Ġorganizing
Ġvest
Ġempowered
Ġbroom
device
ortium
ĠAdventure
Ġmourning
ĠTechnologies
Ġdaring
ĠMark
ĠTotal
acia
feeding
Ġdebacle
ĠTitanium
Ġroundup
ā
Os
ĠChrom
Ġdesigners
Ġprin
21
tek
police
ĠWra
Ġthrill
Session
Ġpic
Static
ibilities
Ġpotion
ĠSeg
rift
Ġtemperatures
ĠStick
Ġlizard
Ġsc
oyal
Ġannoun
ina
x
otiation
which
AK
ĠOPEC
ĠPhillies
ĠBok
circ
ĠRap
Ġgly
ĠGuess
Ġspont
Database
Ġattends
Ġglances
{{
madeupword0001
ĠCauses
Ġprivilege
Ġdebts
Ġinterpret
Ġrepercussions
ixed
cause
ĠRomance
seconds
Origin
Ġoptional
Ġcorrect
Ġafter
Ġpulmonary
Ġhumiliating
eele
Ġfolk
ĠDJ
ĠHussein
Ġoccas
oooooooooooooooo
Ġperiodic
ĠHits
ancing
editor
Ġmaterial
Ġneedy
Ġspat
ĠGul
Ġmatchups
Ġdehydration
measures
podcast
Ġvagina
ĠGMOs
CW
ĠSyn
Ġhurdle
enh
Ġfals
OM
Ġcomedian
ĠAX
ĠGiov
natal
Artist
Gil
British
Ġresists
]=
Ġpac
Ġcap
Ġgrun
Ġunpredictable
Rogue
Ġbrig
hd
Ġsemblance
Ġdisclaimer
Ġswept
Ġplaceholder
Ġlenses
Ġobjection
ĠDefensive
Ġcreditors
ĠHuff
Ġindiscrim
.''.
Ġrand
Ġdisciplinary
pherd
control
BOX
Ġsights
NOTE
Ġattached
Ġsouls
ĠSubtle
integ
Ġprofessionally
icial
Ġexponential
Ġadventurer
ĠAwakens
ĠBU
ĠInteractive
ĠSear
ĠMouse
ĠRegional
Ġapologized
ĠISO
ĠFukushima
Ġcleans
seless
ĠHulk
Ġpoppy
ĠTape
ĠSample
Ġcollapsed
incible
Ġfert
ãĥķãĤ¡
ĠGeral
carb
ĠMagical
Ġelector
Ġcreep
ompl
punk
Ġspoiled
Ġbald
Another
ples
Image
ĠFraser
Ġcottage
ĠMt
ĠTourism
Ġproductive
ĠDonna
Ġgrill
ĠAPI
Ġshutdown
Ġprecautions
Ġgut
anic
ĠCapital
oths
Ġge
acement
Ġparting
Ġplunged
Ġacquaintance
ĠAlv
Ġspr
ĠJonah
184
Ġcommunities
ĠResponsibility
urized
Ġblink
Ġ###
Ġ[
armac
Ġcall
Ġacclaim
disc
Ġpassers
ĠUnemployment
ean
ĠMOD
Ġantit
Ġtrousers
ĠFang
leaning
emort
ĠFoley
Ġunderwear
Ġapplaud
izzy
ĠAPR
Ġtaco
Ġrabid
letes
Ġgelatin
media
313
172
elligence
efficients
Ġdimensional
Brother
Ġsexes
2012
Ġadvise
Ġwitnessing
Ġham
Ġdating
Ġcelebrating
nect
Ġbasal
ĠTemplar
Don
Ġcondemn
vict
Ġelegance
Ġexecute
Ġmust
Ġunder
Ġquarterly
flat
Ġbox
Heavy
ĠVICE
ĠExperience
issy
Officials
ĠOccupations
ĠGleaming
CL
ibu
Always
ĠBapt
inner
OULD
ĠBuckley
Ġelf
ĠPipeline
ĠStreets
edin
ĠGibraltar
Ġcompressed
reg
Ġpromoting
").
Ġalloy
Ġminimize
ree
ritz
ĠSEO
Ġestimation
ĠWasserman
btn
ĠStars
Ġblind
Ġmotives
Ġskating
ĠTreat
Ġubiqu
Ġ247
XM
Ġmorp
uild
Both
accompan
Ġawoke
ĠVice
Ġsneak
ĠDillon
ĠSubaru
ĠDeadpool
Ġasserted
selves
ĠAdvis
ĠRibbon
Ġsnaps
).
Quant
Ġhardly
Anthony
Ġconfession
ĠHolder
ilded
Ġalign
âĢĶâĢĶ
osure
406
ĠVelocity
xxxx
--------------
ĠWeed
42
edd
*/(
é¾
ĠMK
Ġgum
ĠCorm
ĠActual
Ġdisple
Ġintolerable
Ġss
328
uminium
Ġallowance
Ġgrilled
Ġpunishing
Ġvehicle
Ġexqu
Sexual
Ġtrips
Damage
Ġreverence
Ġstudent
ĠSeeking
Ġabsurd
Ġliqu
restricted
ĠForsaken
îĢ
Ġintentional
ĠReds
ãģ§
Friend
ĠSocialism
í
ä¹
ified
ĠLit
Ġstability
Ġsquash
Joy
ĠNun
drm
ĠPirate
Ġfloral
ĠClaus
ĠBought
Ġshifted
Ġlaundry
Ġsimulate
!".
ĠFreem
Ġjustifies
ĠConflict
Ġtang
Bright
paces
ormonal
Ġstand
ĠRaven
Ġcreations
Ġaging
ĠCFR
athy
ĠZika
Ġrighteous
Ġdispatch
Ġenvelop
Ġassertions
ĠTyler
ĠWebsite
Ġsnack
seys
Ġtaxing
227
Ġmatte
Ġtechno
fx
Input
rian
GoldMagikarp
Ġrole
BuyableInstoreAndOnline
Ġ1947
Ġcancellation
Ġthanked
ĠNo
Should
Ġreuse
egu
Aust
avery
Ġincidence
Redditor
éģ
ĠWichita
Gray
Ġmouse
ĠNept
Ġlitigation
Ġthugs
adiq
Ġdebut
ĠSven
Ġoutage
Ġboys
Ġfreezer
ĠCato
wig
Ġalliances
Ġvoted
Penn
obar
Hol
ĠTours
metics
ĠUnless
Ġstretched
ĠLeah
Off
Ġprag
Ġ2013
Ġkosher
740
Esc
ophys
TE
AMS
ĠHof
Ġmiraculous
export
ĠLansing
TED
Ġgmaxwell
Ġheaviest
Ġdebates
Ġimmensely
Ġforeign
format
uploads
Ġabras
Ġcompelling
Ġintakes
ĠCharity
ĠDeploy
contin
Ġswast
Ġnatural
ĠMesa
mods
Ġtask
Ġpercent
Georgia
Ġexperience
Ġchassis
clusions
Ġpatiently
arag
Ġexalted
Taking
Ġassign
Ġ($
Ġmolecules
ĠStud
Ġonward
576
INST
Ball
ĠSac
Ġcommanders
Ġbothering
ĠAnt
Need
nants
ĠBret
Ġkindred
asonable
ĠAvenue
ĠSimulator
Ġtame
ĠCalls
pter
Ġwatches
ĠLarry
Ġgast
li
ĠParticularly
jury
azeera
tnc
ĠHarvest
Ġtowards
Ġdriven
ĠWright
ĠDeal
ĠStephens
Ġintersection
???
ĠKelley
Ġplagiar
Ġll
ĠKnown
fac
Ġrebell
Numbers
tom
ĠReduce
Ġcustody
BR
disabled
Ġlooms
Brandon
ada
DOS
Stra
Ġminorities
Ġsweet
Ġprobability
am
ĠGuerrero
states
art
artment
Ġtesting
Ġinterior
ĠBeach
Ġer
Ġ510
ĠJustice
Ġevaluations
avy
ĠPROV
470
Ġcalmed
launch
STAT
optional
Ġcryptographic
FIG
itual
reddits
Unt
Ġmodest
ision
ĠOath
Ġreb
awk
Utah
console
ĠEarthqu
umbnails
Ġlocalized
beck
ultz
Ġpaternal
ĠPast
Ġneutral
Ġpurity
notice
Ġtremend
eez
nesia
Ġmedian
Ġchased
acket
ates
Ġgrit
Ġsanction
Ġinnovate
Ġstd
ĠBoko
Ġvisa
ĠMo
ĠPradesh
ĠPROT
Ġwast
Frame
Ġexit
Ġbeyond
Ġprevent
Ġobligations
Ġpredominantly
Ġreports
Ġpolicing
Ġgre
Ġnutrients
onal
255
Ġsquads
Ġacron
ĠDevices
ĠBeckham
ĠManip
ĠMayweather
eteria
Ġreforming
ĠReading
aders
Ġdefines
Ġbudget
Ġlith
ĠKak
Ġbog
ĠMexico
Ġincorporated
Ġknocking
sites
ĠDIY
Ġforfe
Ġorganised
Ġports
Ġfiltered
ran
Ġalone
Ġcoercion
Mich
Ġkay
string
utsch
atel
ĠNaj
Ġ198
ĠEucl
ni
iors
Eye
gate
self
produ
ĠSlov
enary
thia
Exper
ĠBuckingham
Ġmental
ĠHancock
Ġpreceded
Ġrationale
iHUD
Ġleftist
iton
Ġradiant
ĠLGBTQ
Ġreleases
version
Ġcasting
Ġgranted
king
jer
ĠSha
Ġexpert
Ġproud
Ġcalculated
Ġtorso
Spe
ĠDortmund
ĠSam
Ġfluffy
ĠNewsweek
Price
illard
Ġshrinking
Ġenraged
Paul
ĠEnding
Ġblues
Ġselects
Ġassigning
ĠBanana
ategor
OUT
esthes
Ġserpent
ĠIngredients
Ġsurvivor
submit
ĠGo
bre
Header
çİĭ
Ġrightful
ĠFell
Plan
Ġunanswered
ĠNav
Ġdiced
olved
080
ĠMushroom
Ġshaping
Ġnecklace
Muslims
Ġreset
Ġgrips
ĠVance
Ġappease
Ġevery
ĠFre
Ġsocialist
ĠPayments
resource
Poly
ingen
ĠPower
Ġcrashes
Ġaccuse
serv
Ġinquire
ĠSnape
Ġestablishments
itta
Ġdolphins
"""
Ġapost
Earth
187
ĠSherman
Ġinvitations
ĠTillerson
aff
ĠHenderson
ĠDup
downs
Ġmoon
coe
ĠShow
Da
Ġnormal
Ġlocked
Ġvacation
Hero
Ġsubstrate
Ġ2010
ĠStatus
encrypted
Ġcapabilities
ĠGPL
Ġsue
andowski
Ġreviewing
ĠErdogan
Ġangel
far
Ġheating
Ġclub
dn
Ġfaculty
Bl
Our
Ġsimilarly
ĠAbby
oft
Ġvenues
Ġpoles
Ġinstruction
Ġsummons
Ġlateral
Ġrestrooms
Ġwielding
ĠTraff
Ġrisks
ĠZimmer
ĠAlready
Ġplunge
Ġsituation
ĠPeaks
ĠWise
kj
Ġglimps
ĠEnhanced
Ġfitt
doi
Ġcorrupted
Ġrelax
uka
Ĺ
ĠCaliforn
ĠColomb
Ġnominate
Ġreper
idia
ĠCancer
Ġguards
sonian
film
Ġswallowing
ĠCult
ĠShooting
ĠQuentin
Ġbehaved
Ġanticipating
ĠLike
i
same
UGE
Multi
Ġindexes
system
Ġwelding
Ġdrummer
literally
ĠSocket
Ġissuance
ĠAchievements
escription
aded
alo
Ġundertake
ĠForward
enstein
oval
Ġreacts
Ġcharacteristic
off
Ġevacuation
ĠDemocrat
Ġfost
Ġcoordination
ĠValentine
Ġcele
ysis
Ġleasing
agher
Ġhysteria
Ġshocking
Ġmeticulous
Ġtroubled
ĠMent
stat
ĠUs
Ø±
ĠGap
Ġhalfway
ĠRd
psych
ĠDestination
Ġconnectors
ĠDictionary
ĠMetal
ĠCurve
Ä±
ĠMonteneg
Minecraft
ĠUriel
Ġforesee
ãĤ´ãĥ³
ventory
51
Ġalpha
ļé
height
udding
ĠValencia
Growing
Ġ379
ĠLets
ĠLOOK
Ġimpetus
ĠRyzen
embedreportprint
asha
ĠMorse
Ġhooked
ilo
Ġbreast
gotten
Đ
ĠSchedule
Ġbullet
ĠRuntime
iper
ĠSoccer
Created
Ġmastery
Ġexposing
ĠBrady
Ġfulfil
Ġinformants
ĠBolshe
Ġguess
needed
uve
Ġturret
Ġonions
okers
ĠMellon
Mod
ĠAudit
Å
Ġbreathtaking
ĠAutom
abella
WN
ĠPatreon
Ġsee
ĠShroud
Ġwarrant
ĠHull
oun
ĠHast
ĠMelee
ĠGriffin
Hall
Ġh
Gate
oro
determination
ĠSapp
Ġidentifying
ĠRaise
Educ
acha
ĠBranch
ĠSears
Ġknock
oping
ĠRank
chenko
Ġstandby
ashion
Ġ///
Ġtomorrow
Hard
Rush
ĠJerome
ĠCrom
Across
leness
ĠPref
Ġpointing
ĠBans
Ġbloated
Ġantim
Primary
Ġappeared
ĠGandhi
}
ĠSHALL
CR
ĠAbsolute
ĠDoctrine
Yes
ĠGeorge
Ġinvestor
Ġordinances
Ġconcoct
Ġimperative
Own
ĠSoph
ĠEating
Ġexploding
ilian
Ġfurthermore
Ġvessel
Sn
{
ĠGast
Ġwallet
goers
ĠFAT
ĠTopic
ĠRamadan
267
outheastern
ulsion
eight
venue
Ġfielded
argon
Ġalleges
Ġward
Ġgaps
Ġ285
Ġvelvet
Ġbystanders
ĠInclude
Ġinvestigation
ĠBomb
Ġfascists
Ġhorde
Ġdegree
asp
ĠGovernors
\":
iting
ĠMath
"),
ĠWolfe
ĠAwards
Ġstrings
Ġretreated
Ġevapor
Ġmailbox
Ġconsole
Ġ182
Ġlinked
N
hot
Ġkeys
Ġturkey
Ġconf
ouse
rench
Ġannounce
Ġtrademarks
ĠState
FE
just
parency
day
ĠDouble
ĠSerious
ahead
rero
ĠHussain
ĠHT
83
Ġvideos
Ġpiles
ĠEminem
ĠTrap
ĠWeapon
olini
Ġusefulness
Ġ{:
adow
weather
ribut
ĠIz
ĠLand
Ġretirees
Ġshe
Additionally
ĠContin
Ġprosecuting
Ġvulnerabilities
Mind
Ġrequisite
Ġpretext
ĠFinland
ĠWit
ĠSECTION
ĠElemental
ĠCorker
hetic
Monday
Ġcontrasts
Ġ133
Ġensures
ĠDud
Ġfilmmakers
ĠRobo
iots
Mark
Ġdecimal
ad
Ġmystic
ravel
rehend
ntax
)</
Ġmotive
anced
Pref
ĠBarnes
Ġaroused
ĠAssuming
Ġscreenings
Ġairplanes
Ġannounces
Ġequal
Ġinterpretation
599
Ġblister
MN
Ġè
ĠRobertson
eda
Ġplayback
ORTS
Update
Ġfanc
Ġboth
ĠLect
Ġpeaked
Ġstraps
Ġtrees
Officers
Ġoffender
reth
Ġmassac
ont
åĩ
Ġstore
Ġrumours
special
ĠChevron
ĠRecent
ĠRud
hing
Ġeruption
encing
Ġdangerously
Ġaway
ĠLow
ĠÃ©
Ġnotch
Ġcommun
Ġmajestic
Ġmiracles
Ġaromatic
Ġcorrelate
ĠTube
VA
ĠGou
Ġvents
ĠLord
Ġthemes
Ġgy
ĠFram
ĠRevolutionary
vel
ĠLena
ĠSER
position
she
âĤ¬
Ġzoom
Ġoverflowing
Ġattent
Ġvaguely
ĠBowser
oph
ĠLumin
opausal
Production
Ġretake
Sad
ĠHels
wav
Ġconj
PASS
Ġoverwrite
ĠHawth
Clean
Ġappell
psc
Profile
hovah
Ġgluten
ĠKnow
Ġdiffere
Ġwish
Ġutility
acas
ĠSuzanne
ĠCellular
Code
Ġrace
Ġ1927
ĠNashville
ajo
Ġdays
ĠNova
ĠAdvertising
Ġcigarette
ĠChes
Ġaccounted
itus
azines
ĠConquest
ĠGand
umbn
ĠSlide
ĠRiding
Ġdepths
Ġintends
Ġrash
Ġtrucks
===
Ġ216
ĠRomanian
Ġ259
Ġhugged
GE
Ġwithdrawn
Ġfraught
ĠRegulation
Ġcontemplating
Ġ>>
Ġsnag
Ġgenerators
Ġtalks
Ultimately
issued
Ã¶r
Dallas
ĠOrwell
ĠCouch
Ġmechan
Princ
cko
Pic
ĠUNIVERS
atic
current
Ġannounced
ĠBeir
ĠHer
Apparently
Egypt
imil
Ġsuicide
Ġspecify
haus
ĠWinged
ĠLuck
Ġengineered
Ġfeel
ĠSard
Ġdistance
Look
ĠLady
DEM
rentices
ĠHats
Ġtest
izens
joining
alam
isive
Ġoutpatient
Ġenthusiastic
ISS
Ġevent
Ġvehemently
Ġswear
spl
bands
ĠAcademic
ĠNora
ĠTravis
auld
drawn
Sun
las
ansky
ĠHealing
698
808
ĠPublishers
494
Insp
ĠJamal
Ġinformation
Ġportray
Ġrounding
Ġrelativity
Ġwhistlebl
Ġmortal
potion
Ġbrake
Ġrobot
Ġoccupation
ulk
boarding
oded
Ġcommon
Ġrib
Ġsimplest
Ġoutset
ĠStraw
ĠLine
Ġaud
occup
oda
flu
Ġ426
Education
Ġseen
weights
ĠDerek
Ġpatri
"},"
Ġpaddle
Ġlymph
ĠAR
Ġestimating
omical
Ġvulgar
Ġquery
early
Ġcurtains
Ġ296
Ġbuyers
ĠRiverside
ĠVehicle
ĠObserver
ĠOpportun
ĠVerizon
Ġgam
uki
Ġassurance
Ġ64
ultimate
cuts
xious
ashtra
ateful
arenthood
rawler
history
ĠRapt
Ġsimulation
Ġchirop
ĠLiang
Ġtele
ĠJiu
ĠARTICLE
Weapon
Ð¾Ð
Ġau
Vo
Aud
orse
Ġrehearsal
iddler
ĠBorders
ĠSimpson
Angel
ĠDatabase
Ġbandits
ĠSetTextColor
ĠAnton
Ġexodus
estival
Ġapprehend
Ġwatchdog
sets
Ġmind
ĠMTA
Ġconfess
Ġtyped
ĠDaw
635
cific
ĠUnknown
Ġtotality
ĠAG
ĠMercenary
Ġintroduced
ĠPainting
ãĥĥãĥĪ
%%%%
mining
Ġblinded
sterdam
Ġsensibilities
Ġdecree
Ġmend
Ġunlocking
ĠSharks
Ġdeclass
rop
Many
Ġbuyer
ĠSpeaking
ĠâĢĭ
Ġripped
ĠFM
ĠNay
Ġsubcontract
Ġoverpower
Ġroommate
Ġaccidentally
Ġsprings
Store
Ġharms
360
ĠTOUR
-.
Ġrampage
ĠIbn
ĠYPG
ĠBeng
Ġdiscussing
Ġcarc
jp
Ġimproper
Ã©r
ĠSeas
ĠTruly
ĠFleming
Ġtaxi
ĠCorridor
Ġsubpoen
Ġlettuce
respected
LL
Ġprocession
Pool
ĠMalik
Ġshred
ĠDave
591
Ġinitial
ĠSale
ĠConcept
Luck
confirmed
ĠMajority
Scene
Ġunivers
finder
Ġinterviewed
Ġali
Ġstops
Ġcutter
ĠImag
Disney
Ġmush
chest
.>>
bery
Ġgenders
ĠXII
ĠNine
Ġbas
Hopefully
Ġallegation
ĠRadiant
Ġradius
proclaimed
)+
ĠDoug
ander
221
Ġkeywords
ĠKo
ĠJos
Ġservers
Ġattachment
Ġacted
Ġtheoret
Ġswipe
Ġpace
abb
Ġ1943
èª
Ġsupers
Ġdisappointing
asy
Ġwarrants
ĠTag
67
Ġfoothold
ĠTrou
Ġdimin
Ġoften
Ġinjure
Ġost
Ġmotivating
Ġpel
ĠDiana
ĠMerchants
Ġinnumerable
udder
ĠDoors
@#
risis
ĠPRODUCT
@
Ġcouldn
reet
Ġpuzzling
ĠExperimental
ĠInvestor
tions
ĠHuman
Ġquieter
Ġcolleg
Ġarchitect
ĠGawker
Ġpo
Ġden
ĠJosÃ©
Ġwholes
Adjust
Ġell
ĠLearn
ĠABC
ĠGang
Ġpolyg
Ġattempted
Alien
ĠPai
ĠFactory
ijah
.'"
Ġsubjective
Ġolder
Every
ĠNext
ĠYoga
ĠScarlet
Meg
ĠCatalan
Ġinstruct
Later
Ġwhereby
Ġ32
OA
ĠTunisia
Ġ242
ĠCheong
ĠVentures
Ġpreserving
Ġscripts
ESA
Ġbanner
rahim
IDA
ĠRoku
aviour
Ġheals
Ãį
token
Ġunleashed
ĠHornets
Ġcurated
Ġorganize
hp
FER
ĠAtt
ĠMol
Ġcops
aught
ĠDOJ
Ġcountless
ĠCourts
fecture
huge
ordon
ĠProof
ĠCountdown
Ġsubtitle
ĠTail
Ġoverride
ĠRoose
/**
ĠWind
Ġpointer
cients
Ġcontr
Ġnovelty
Ġfollower
ial
ĠGov
idered
ĠMonkey
easy
ulas
Ġ630
ĠGalile
ĠVolkswagen
Aim
Ġbreath
ĠPac
ĠTH
ived
Ġ81
Ġworsening
mat
Ġdid
alt
Ġinternationally
ĠIsaac
ĠEden
adv
said
ĠVoter
Ġentrepreneurial
Ġpopulous
202
Film
Ġskeletal
ruits
Dex
Ġ[*
Ġdictator
sov
ĠDepartment
Ġmiddle
Ġmedically
Ġseiz
ĠButcher
maker
rail
Ġoffensive
ĠRent
Ġadministrative
ĠTide
Ġcombining
ĠSurrey
Ġconsiderations
Ġutmost
Ġresurgence
ĠVes
Sales
Ġunderrated
Ġantiv
Adding
Ġbattle
Ġwatering
lication
ĠFenrir
Ġle
Ġrequesting
ĠTimber
release
Ġstruck
ĠBound
790
Ġtuber
Ġstreaks
six
ĠPayPal
Ġpatience
Ġbelieve
aska
Ġlose
Ġdepicting
fo
Ġdr
Ġessay
Ġconstruction
ĠPub
Ġamusement
idity
Ġencourage
Ġrequested
ĠCI
Ġ1700
Steel
adena
apper
Fighting
Ġaccusation
1969
Ġneglig
Ġattachments
ĠMistress
Ġlandfall
Ray
Ġdamning
igning
Ġ601
Ws
olated
celona
Ġcomponent
Ġwasting
Ġequ
Ġ9000
Ġdiversity
ĠDub
=
Ġvarious
Ġviewpoints
ĠDrinking
oise
-"
data
ĠCarm
ĠSPECIAL
ĠGifts
ĠLouisiana
Ġglove
htm
Ġstandings
Ġorganized
ĠHam
Ġprobabilities
Ġ______
Ġcultivate
ĠEPA
ĠGardens
LEY
OPE
SF
ĠFold
istor
Ġstimulating
Ġhabitable
ĠLy
Ġfounder
Supplement
Ġ1920
Ġalleged
Ġmetric
Ġdesert
Ġemails
no
als
ĠBryan
ĠSara
improve
inspired
Ġvape
NP
uming
ĠEmblem
Ġgarden
Ġstate
Ġdeck
ĠMous
ĠFinished
Ġnewer
Ġ=>
Ġsow
1800
Ġintraven
é£
Ġthriving
ĠRugby
ĠGum
Ġobservers
Ġproclaim
Ġgoal
gypt
Ġelig
ĠSeal
Ġfloat
left
ĠDiet
POR
ĠUnfortunately
ĠHoo
grow
Ġpumping
ractical
iliate
Ġdecomp
ĠBro
Ġdumped
Deep
ĠLight
Ġstayed
Ġwindow
FILE
ĠDeveloper
legates
Ġdisappears
ĠRhythm
olesc
ophy
ĠBi
Ê
Fan
ussie
Ġpartitions
Ġstagnation
ĠNos
travel
Ġprescription
ĠTHREE
ĠUniform
ĠIV
ĠMetatron
ĠStrait
ĠPerspect
RW
Germany
whe
Rate
Ġfinance
Ġcelebrated
highly
âĺħâĺħ
?????-?????-
ĠKem
ĠJr
Ġconcealed
ĠK
ĠMcD
Ġcho
ĠEgg
aum
Ġreplies
Ġfuzzy
Ġmagnificent
Ġsegregation
113
ĠDES
Ġbrick
Ġtactical
Ġple
.#
geon
ĠHost
Ġvinyl
number
CRE
clude
ĠTomato
lu
Ġbins
Ġtoo
Raw
ĠLebanon
*.
ub
Ġregards
Ġenjoyment
Ġhorse
('
Ġ18
Ġkn
Ġaccompanying
è£ħ
of
Ġwealthier
ĠUNHCR
ĠCinderella
argo
Ġhunted
kaya
Ġexceptions
New
ĠDF
ĠFlyers
Ġchili
Ġtemple
ĠBacon
ĠOmaha
ort
glass
Ġapologizing
Ġcomplicity
Ġtether
Berry
treatment
Ġmarqu
Ġmaths
Ġtem
ĠOber
ĠFlo
Ġsomeone
Ġorganizational
ĠMiller
unin
Ġlineup
Ġmove
abi
ĠCream
ĠBir
ouncing
ĠXP
Ġexotic
masters
Ġrefuted
ardon
Ġfield
Ġfailing
ĠMW
ĠMulcair
Ġambitious
ĠCrafting
''''
score
Ġadequately
Ġrend
Ġlogger
Ġauditor
levision
Ġfoes
ĠOkay
Laun
Rev
ĠHolding
ĠNost
aha
Ġpitfalls
ĠEditors
ĠElder
Ġascended
Ġord
792
olly
ĠNorthwest
Ġministers
ĠField
ĠChange
Ġ/>
geries
Oregon
imir
ĠAzerbai
ĠGavin
ĠDistribution
Mas
ĠSquare
Done
Ġgrocery
Ġtexting
quila
Ġgraduate
ĠZac
Ġcountries
ĠCOUNTY
iege
Ġcolleague
perse
Ġindul
treated
Ġcalled
ATHER
ĠZack
Ġqualify
near
ĠCyrus
Ġ39
BS
ĠKurds
Ken
Ġfray
iating
Lead
ronics
spir
recent
Ġadvertis
ĠSiberian
Tar
ĠMorrison
Ġnevertheless
Ġacts
iant
Ġangles
Ġcomparable
ĠStatements
isd
Ġfunky
Ġeasily
ĠTickets
Men
Application
ĠLilith
Writer
Ġgoodies
initialized
cÃ©
Ġpairing
ĠInstit
Ġflurry
ahs
ĠIre
Ġphotoc
cerning
protein
å£
Ġslice
ĠMelody
ĠAirways
Ġvery
Ġ2024
_-_
ippers
ĠKinnikuman
ø
umer
ĠLowry
ĠUSD
Ġemployees
ĠCollins
Ġreasons
Ġ210
Ġbitters
IR
ĠPeninsula
itone
gt
ĠFoss
favorite
Ġtaxation
Ġlargely
Ġcafes
atical
onnaissance
ĠColony
Ġdefe
866
Ġdownloading
estation
ĠSHARES
Ġeconom
ĠAvatar
Ġegreg
Ġfamously
ĠTicket
Ġslender
Ap
Ġbogus
igen
Ġeyewitness
Asked
achine
Arsenal
uttering
ossier
upid
ĠAuburn
unal
Blocks
Ġcurrent
ĠEggs
Ġblu
Ġdetach
sofar
ĠTrooper
ĠDamage
Timeout
ĠCaps
Ġfly
Ġfirmly
ĠRhod
Ġobviously
Ġpuls
ĠKimmel
Ġrelocate
Ġincentives
etime
Ġlashed
ĠTrump
kinson
Ġ].
space
ĠFY
Ġbrute
Cart
ĠCastro
°
Ġdinner
yson
Ġpartic
Ġinsurgency
Ġparticipating
ĠEM
Bar
ibly
Ġalways
ĠJohn
ĠCare
onga
char
edition
Ġrevolutions
Ġbelieves
Saturday
Ġanything
ĠPodcast
Ġchin
nos
Judge
Ġnipple
Ġsettles
ĠMaduro
Ġfearsome
helps
Ġclust
ĠLegends
Ġomn
Ġmoderately
ĠRaiders
Ġlashes
Ġrecommended
Overall
Ġstew
AD
idental
ĠWagner
Ġimpover
aves
Ġconversion
cod
Lua
letico
Ġsympathetic
Ġprojecting
assy
ĠLaksh
ĠKaren
Ġforwarding
Boo
ĠArsenal
Gaza
ians
Ġnice
ĠRegulations
Ġsteadfast
ĠSymbol
ĠProt
aligned
ctory
ĠAdvocate
UPDATE
ĠUmb
ounty
square
Ġmessaging
Ġqualifiers
Ġredacted
ĠSqu
IDENT
thood
ĠMDMA
Pe
Hyper
ĠRiver
ĠPrinceton
Ġflavours
Ġenzyme
ĠVernon
Ġjust
Ġincess
tsy
ĠChi
Ġforcefully
ĠNPCs
ĠGraph
ĠLevant
Ġcomr
Ġequate
ĠWorth
ĠKenn
destruct
Ġdur
266
sten
Ġclaw
ĠBuffalo
Ġchildcare
Ter
Ġ349
IFIED
Ġsnippets
ĠFuj
iversal
Ġmounting
Ġgunmen
ĠHB
holiday
ĠCons
VILLE
EV
ĠClim
opathy
lan
fiction
lining
ĠDish
Ġshower
Ġ428
Ġobser
omb
Ġpornography
Ġpartisan
Ġsticky
Ġmatched
ida
Ġtimetable
inen
Ġsummary
cluded
104
iotic
Ġadherence
Ġillust
Ġbenevolent
Favorite
ĠSTATE
ĠMyr
å§
Ġanyone
ĠCharlotte
ĠLaz
ĠLydia
TOP
Ġevaluated
ices
Ġdenouncing
ĠQual
mob
ĠDirections
inski
Ġgazing
ĠMechan
sylv
Alice
Ġff
Member
Party
shed
ĠÂ½
Ġpige
ĠBul
inator
Ġcasino
farious
ĠPuzzle
ĠMb
Ġoffspring
Ġvotes
ĠPension
Fort
ĠMandal
336
Non
ĠLV
ĠAware
kers
Ã´
Ġtreaty
Delivery
NK
ãĤº
ĠCorrections
ĠUz
AppData
Ġeuro
Ġsuspicions
ĠTos
ĠSheet
Ġgift
Ġtin
Ġswirling
Ġprovincial
Ġpremiums
ĠQuarterly
using
ĠIncarnation
ĠSomew
volume
oing
Ġparam
shared
ilot
Ġne
Ġfeaturing
Ġstricken
ĠCyborg
Ġnexus
Ġadditions
Ġbetween
ĠHell
ĠXperia
Ġindu
mult
Ġtraditions
Ġrepository
Organ
ibur
volent
uces
Ġamd
ĠNDP
$,
usp
Jacob
Ġmigrated
?!"
berger
Ġreconcil
ĠScandinavian
Ġ261
Ġtidy
atted
ĠSleeping
ĠGemini
ersion
wallet
Ġincumbent
ĠRanger
ĠMonsanto
ecycle
osuke
atto
Farm
Ġstabbing
641
Ġextradition
Ġrank
atility
office
inently
ĠBDS
anium
ĠEconom
Ġmoons
Ġpoly
Ġpassword
Ġcapitalism
Ġ{
Ġproduced
Ġfooth
ĠApplic
ĠHH
ais
Ġcontemporary
ryce
ĠUncharted
ebus
Ġboxes
Ġsk
link
Ġcongratulated
Ġreforms
Ġraging
Ġloot
952
ĠAI
arettes
psons
ĠStatistics
uddenly
Ġtoken
ĠLearned
ĠConference
Ġfonts
Ġtheoretical
Ġwool
Ġpresents
ĠBeirut
ĠSubst
774
Thankfully
ĠSol
ĠGreek
Ġloosen
ĠSketch
ope
ĠLuc
Ġmater
ADRA
Ġdirection
Ġassemb
ĠIR
Ġsurgeries
Ġhello
app
ĠSpeech
Ġovercome
Ġpreferences
rig
ĠINV
Ġhated
Ġconcepts
Sch
inar
Ġunclear
uate
ĠChick
allow
ĠPrayer
--
Ġpatches
ĠPip
Ġenriched
15
Tai
Ġ1895
rules
DEBUG
Ġinc
ifiable
ĠGovernments
ĠVIII
Ġdesigner
WOR
reads
ĠEzek
ahan
ĠJah
Ġunforeseen
Ġconvers
ĠAluminum
956
ĠGener
Ġseasonal
asser
iqu
Ġmemes
ĠBind
Ġomin
Ġattire
uer
cair
packing
ÏĢ
ĠJournalism
ðŁ
Ġironically
Ġdefense
..
46
Ġorigin
Ġvicious
Ġsenate
Ġdissect
ĠPlenty
Ġlogging
Ø§
Ġ6
Ġdividing
Ġsensors
wave
pro
ĠCris
ĠCONS
batch
Ġundet
RED
aration
Ġcoerced
ĠShutterstock
Ġoccupational
Ġyell
ĠThrone
wright
296
etus
anchez
1111
eger
ĠGujar
åº
Ġune
Ġpublishers
ĠForce
ĠRose
gro
onse
Ġmig
undred
Ġhelping
ĠNightmare
ĠPolicy
Ġsurvives
opened
ĠBrow
ĠGiul
Ġspecials
Ġtong
internet
Lear
ĠÂłĠÂł
Ġappearing
Ju
Ġfollows
Ġredevelopment
Ġeffort
ĠPOS
Ġcoun
boro
Ġknows
Currently
Ġrealized
1016
anna
Ġapostles
Ġfict
Ġextremists
Ġmilestone
Ġprimaries
Ġstressed
Ġarticulated
Ġinsult
ĠPR
Ġtrusts
Ġlanguages
Reddit
irlfriend
Ü
reements
687
Ġsolutions
0001
rer
è¡
tones
Standing
Ġsubway
FOX
ĠSavings
Ġcolder
Wow
Think
)))
bed
Finally
ORS
Ġprojected
ĠPhotography
Ġapology
Ġdoubt
ĠRoh
ffff
Ġanticipation
Ġoverturn
ĠTurbo
Ġunconventional
ICH
ĠOR
ĠNAACP
independent
igration
Proof
ĠShane
ĠTrouble
Ġspies
ĠModified
Ġ1966
isle
Ġrevelations
Ġcardinal
Ġhelicopters
ĠMail
ĠTarant
ikh
Sync
Authent
Ġpaired
Ġmembr
âĢ¦.
agic
Ġinterests
Ġrunners
Ġseparatists
Ġappliance
Ġloophole
ogical
ĠFlood
ĠUSC
FI
Ġinsightful
ĠGI
Ġmuted
network
Ġnewsletter
Cost
Ġ347
Ġanarchist
Ġenemies
147
erity
Ġcreed
Ġsap
olicy
Ð¸
Ġexpires
Ġoval
neau
ĠOxy
Ġrejecting
Ġfill
Crime
isites
Ġthumbs
ĠCairo
idences
button
ĠMinotaur
ine
ĠKes
Ġsovereignty
Ġorgasm
Safety
Ġadmissions
ubb
Ġarbit
Ġflew
ĠBEST
ivalent
ador
eno
ĠConn
ĠNepal
ĠLange
ĠShelter
Ġannoy
Ġcc
GROUND
Ġhere
ç·
ĠInsect
ĠAzure
Ġholdings
ettel
ĠSurely
rypted
Ġhourly
ICES
irteen
Ġgrain
Ġdisposable
ĠDisk
antasy
Ġ(&
=-=-
Ġphases
285
++++
Ġsurely
Ġburns
ĠSlate
ĠSerbian
isode
ĠRangers
Ġtreacherous
Regardless
Ġwaivers
Ġpopular
ĠDG
Ġcurse
Ġ1440
Ġoutsourcing
olate
Ġbeverage
ĠÂ§Â§
ĠEugene
Ġattentive
Ġadjacent
ĠCaroline
Ġhurricane
ĠÃł
Ġshowcase
Ġexploited
Ġsized
ites
Ġthreatening
pre
Ġtrails
tre
ĠCave
Ġvoy
ĠDram
ĠCBO
ĠRestoration
String
Pres
Ġalternating
Forward
ĠEnlightenment
Ġchapters
------------------------
Ġpromises
Ġchilled
ARC
ĠHalo
ĠHigher
ĠBrom
825
ĠTiff
uner
ĠStates
Short
Ġbreathing
ĠFraz
osexual
Ġpriests
179
Ġmerchandise
NUM
FAULT
bye
Jay
BF
Future
Ġnerd
Ġtires
Emily
Dim
Ġpitched
ĠCannes
Ġdip
Ġreciproc
Ġcoil
Ġà¨
Ġexperiencing
Ġpour
Ġharsh
Ġassurances
Ġbenchmark
ISIS
ĠNapoleon
Ġmand
Ġinviting
ophile
CA
zac
Ġ112
Ġmodesty
ĠSQL
Looks
groupon
Initially
Ġpussy
Ġpencil
ĠShepherd
ĠSays
Ġnighttime
ĠRew
Ġrisen
Ġattention
ĠIncluding
ĠExpand
ĠNetwork
ribune
itarian
NBA
Ġec
Ġ"'
ĠKob
Ġechoing
Ġbaseball
ipation
Ġoverlapping
ĠKickstarter
.?
ful
Ġdiarr
Ġrud
Ġ1830
ĠInvasion
Ġtsun
ĠDiego
ĠBRA
Es
bending
Ġpropell
Ġrefuel
Ġdug
Ġdc
Ġlemon
Ġphp
ccording
Ġexisting
ĠBlink
fff
Ġstill
Ġbeloved
Ġincorporating
ĠFP
ESPN
ĠImperial
ĠEn
Ġlim
Ġsucked
innie
ĠSnake
ĠWass
Availability
Ġdated
aki
stic
ĠCavern
Ġwords
Ġtailor
Ġå
ĠKnowledge
democratic
ĠArs
Ġaccol
Ġbeaches
ertation
Ġfraternity
ats
ĠVegeta
cloneembedreportprint
Ġejac
Ġaquatic
Ġstere
ĠTrainer
Ġsmir
ĠWalt
Ġdisagreed
Guard
idated
Ġveh
udic
Ġwash
Lew
Ġblack
Ġmort
Ġrhet
âĸĳ
angle
Ġferry
ĠPhase
ĠKoch
Ġsurprises
ĠWITHOUT
repre
Ġment
Ġracist
struct
Ġincreasingly
aunch
Ġbonus
Ġmega
anti
ĠWizard
IER
Ġcoded
Ġexecution
Ġbake
eligible
ĠCollections
hazard
renheit
Ġtemperament
aughlin
Ġtricked
ĠArms
Ġ129
Ġmillennial
get
ĠReport
Employ
Ġlovely
parable
termination
Ġdark
Ġcavalry
Ġagriculture
ã
[/
ĠConsider
ĠMotorola
Ġpicked
Ġsuspense
auldron
irt
Ġspecialized
Ġintegrity
Crew
support
Ġnut
ĠWorkers
ĠAustralian
uben
ĠMUS
ĠAero
hatt
375
Fab
Ġteenage
aku
ĠConsumers
Ġ417
!
Ġum
ĠSuz
########
Ġconsidering
Ġinstalling
erey
Ġashamed
Lib
Ġinsulted
ĠMister
ĠHighlights
incial
ĠIntegrated
å¯
Ġidentifier
Ġresumes
Summer
ĠLast
Ġurgently
aths
Ġsenses
Ġstaunch
Ġpayday
Ġpenchant
Pri
Ġinfring
ĠAuthorization
Ġrich
ĠiPhones
Ġthickness
Ġconfessed
ogn
Ġloan
Ġcategorized
Register
158
hal
ederation
ĠDiablo
*:
Ġtouchdown
Ġgenerated
inx
Ġelectrode
Ġinterrogation
ĠCotton
ĠRevision
ĠCostco
ĠRing
conv
Ġumbrella
show
ificant
proxy
eller
ĠNeil
achev
Ġexceptional
ĠInsp
ĠSonia
224
ĠCorn
ĠNielsen
Ġgl
ĠCologne
Veter
ĠGuest
ĠDenver
Ġintellig
Ġfolly
Ġexploration
ĠZelda
ĠDrops
usting
ĠWraith
Ġbeforehand
Ġbruises
ĠSyndicate
cffffcc
Ġ!=
English
Ġpedestrian
Ġhanging
ĠQuarter
Ts
ribed
based
Ġ~/.
Arc
en
ĠSeason
Ġpartying
oth
Ġhistorically
Ġvague
',"
yi
Ġwild
mire
ĠTata
ĠShame
Ġgray
ĠShen
umption
ĠSens
ĠOr
ĠOver
Ġholds
ĠBB
Ġforming
ronic
onduct
South
Ġshops
ĠArmy
Ġopened
ĠBliss
ĠJem
ĠNau
icc
ĠPrepar
Ġspirituality
ĠCalcul
ÃĥÃĤÃĥÃĤÃĥÃĤÃĥÃĤÃĥÃĤÃĥÃĤÃĥÃĤÃĥÃĤ
Ġ<[
ĠAmbrose
Ġcongest
ĠChristine
¬
ĠJeep
ĠMcGee
ĠPleasant
Ġresolved
Ġcomprising
ERT
ĠAdapt
ĠNeeds
ĠStella
ĠCec
ĠAlam
Ġ|
ryn
Hill
329
ĠDag
imes
ĠMIC
Ġdisguised
ĠNovel
Ġmorals
ĠActivision
Ġcampaigning
..."
Description
5000
Ġslide
ĠKron
Ġmug
ĠMohamed
Ġoverheard
075
Ġgenesis
Ġdragons
icidal
optim
ĠRepe
okÃ©
QL
Ġnaive
Id
Ġball
ĠFancy
mol
Ġassociates
Ġcrawled
pard
Ġcomedians
Ġtrace
iments
ĠGrowing
Ġfold
Ġtemper
Ġremod
Ġextermin
Ġmit
economic
His
Constructed
Ġfederally
Ġnurse
eros
ĠEU
Ġwithin
ĠIndustries
Ġpe
Ġcaring
imbabwe
Ġescorted
thereal
ĠFantasy
Ġuniversally
Ġhopes
character
commun
240
Ġnumer
ĠOri
Ġwhy
bors
Ġfunk
ULT
responsible
legraph
Ġcircumcision
ĠÂ«
ĠSwitch
esse
arette
Ġmarathon
ittal
Ġdevs
Ġjerk
Ġest
luaj
Ïģ
When
Ġreserves
iani
Ġmovement
Ġfeeds
ĠMith
ĠCorbyn
ĠLogo
ĠTorah
Ġprotagonist
flies
rocket
ĠScy
Ġparole
Ġimpaired
Ġhoard
CAST
Ġdiagram
sharp
Ġdoesn
Ġholiest
Ġcaster
Alan
Altern
Ġpride
Ġcollections
Ġportals
Ġdownt
Speaking
ĠSEA
Ġpumps
Ġtruthful
Ġinherent
Ġknowledge
ĠAirbus
343
Ġcess
Ġprinted
onday
Ġannotation
click
Ġ407
uf
Ġ(%
Layer
y
ĠHistorical
Ġdx
Ġmodular
BLE
Ġadip
Ġsleeper
wn
itting
Combat
Slot
aces
ĠTir
695
vious
Ġbalanced
Sorry
Italian
Ġmilitant
Ġacre
Ġdocumentary
Ġbrutality
Ġclone
Ġswitch
Ġtypical
Ġcunt
ETA
Topic
istar
Ġforwarded
ĠTerra
Ġcleaned
isine
ffe
Ġoverw
Ġlandslide
nis
Ġcatastrophic
la
Ġriders
Ġpropaganda
Ġhugely
Ġempower
Ġmemoir
Ġranged
Ġdele
Ġattaches
Ġscram
ĠMatth
ĠIngram
ĠWayne
ĠMonetary
Ġhashtag
vill
Ġvolcanic
Ġpedd
Ġcapac
ĠRanking
Ġcommitted
Ġsubtract
Ġhypnot
ĠHandling
Ġnec
Ġsoul
Ġonto
bsp
Mac
Ġurges
Ġvide
behind
Ġentert
Recommend
985
ĠIts
ĠFilter
YP
ĠAJ
election
Finish
NULL
Ġfors
Ġenergies
ĠMD
Danny
icz
ĠNess
ĠTerms
shadow
ĠTyrann
ĠFront
ĠCome
books
ĠKy
Ġambient
Ġsofa
arsity
Ġalso
yssey
Ġrefusal
Ġsecretly
Ġpercentage
Ġnumerical
Ġdime
ĠLo
ensitive
Ġfamily
Ġsentence
chip
ĠAnyway
Ġmutants
ĠRising
kw
binary
aleigh
ĠKlu
Ġarri
Ġperiod
ir
1100
Ġbar
ĠRico
Î±
ĠUCLA
Ġraces
ĠHollande
Ġdiscontinued
Ġexert
ĠGrizzlies
ĠKang
References
ãĥĵ
LP
Ġtranquil
rican
cho
Ġnas
Ġ131
mage
Ġelim
ĠJing
Ġsurround
paste
Ġfocusing
Ġreverse
Ġmain
ĠSierra
color
Ġtad
Ġplight
Ġtedious
Ġglob
plets
Sense
oliath
994
Ġ$(
ĠIncarn
Ġdefault
perture
ĠInsider
Ġpavement
Link
ĠQuote
Ġblinking
ĠTanks
browser
Ġpaths
557
ĠDX
ĠSecond
sym
goo
partisan
ovember
ĠPlanning
Ġsevered
Ġdispatcher
Ġcase
ĠBubble
ĠJohns
Ġwrath
elli
Ġlabels
Calif
Ġdecentral
Ġnob
Ġallele
ĠWolf
Ġshake
Ġ110
inary
ĠSG
Ġbelts
Ġquitting
ĠHaz
Ġgirlfriends
Ġgenitals
tick
Ġpunishments
ĠMTV
Ġpores
handler
ĠRuth
Ġdrip
Ġpreviously
Ġanew
Ġinduce
ĠDisability
Ġcasual
Ġalt
ĠManor
ĠâĤ¬
ĠMSG
Ġlicensed
ĠTwilight
Ġcures
winner
Ġaggress
Ġgrid
Ġcustomer
Ġregional
Wide
gl
Ġsystem
ĠSister
Ġheavyweight
Ġtier
ĠMuller
Ġclassified
jj
Ġconceived
rie
innacle
Ġstudy
ĠReck
Ë
Ġmi
ĠStand
ĠGPUs
Ġovertime
Ġit
73
Ġdirectors
Ġcongreg
rosso
Ġsqueezing
Ġinvis
Ġrenew
ĠStatic
ĠSTATS
................
ĠLIFE
Ġdiscouraging
ĠCere
%.
Ġrepresents
Ġdemos
zers
ĠIv
Ġrepresentations
ForgeModLoader
uci
Ġsubmarines
Ġpermissible
Changes
Ġcrystal
ĠModel
lik
Ġbelow
Ġproceeds
Ġnecessity
ĠBowen
Ġpopulation
Ġdust
970
Ġvillains
racist
ĠVO
emate
ĠEntertainment
Ġbees
Ġopioids
Ġiterations
392
Ġdealers
Ġthrott
Ġparking
Ġmastering
ittens
Ġcamoufl
ĠAchieve
Topics
ĠOle
ll
2500
ments
Ġobstruction
atoon
Ġgenerating
Ġquizz
Bomb
Ġeffect
Ġur
Ġhomer
how
emic
Ġpickups
Ð²
ĠBLM
Ġapolog
Ġgraphs
ĠGeneration
identified
ĠPeru
tin
establish
ĠTotally
ĠDarren
stim
ĠTHANK
ĠSingh
Ġtechnique
ursday
Battery
performing
GGGGGGGG
ontent
stra
Ġtouching
ĠAbuse
Ġtexture
Ġswayed
ĠMeow
ortunately
Ġguideline
Def
Ġfranchises
Ġcrossings
oice
Ġprophetic
Ġwhenever
Ġunic
bidden
ĠAuthors
Ġcompetent
ĠTimes
ĠPoll
Ġlooked
IFA
Ġcoincidence
site
ĠBeam
ĠSUPPORT
Ġpublished
Ġreins
iences
ĠFair
ĠOcean
bling
Ġproclamation
ĠArbit
Ġnumber
Ġstumble
Welcome
ĠThomas
Ġproactive
ĠNEC
craft
ĠOfficer
Ġsealing
Ġundis
useum
Ġgrammar
ĠPepper
ĠUpgrade
Ġparadise
JV
forum
/_
Construction
ĠConnecticut
ecd
INESS
Ġparamedics
Ġimmigrants
Ġgon
Ġconsultant
ĠSaban
Ġdepict
Ġmaximal
olves
ĠCth
mys
uter
Ġsixty
ĠPalm
ondo
ĠFloating
373
take
cream
ĠPole
Ġpointless
Ġinfrastructure
ĠBald
ĠRuin
oy
Ġshove
nv
ĠCardinal
Ġinterven
ĠDaisy
Ġexerted
Ġsuspic
aila
protect
Ali
757
ĠBroadcast
ickets
wei
ĠProcedure
thodox
Ġtrophies
ĠChanges
tool
Ġgarrison
erker
ĠLayer
Ġ750
Ġmitigating
etition
Ġtd
Ġcourse
6666
Ġlewd
atcher
kn
ĠBCE
Ġexercising
ÂłÂłÂłÂł
ĠGuidelines
Ġcrunch
Ġtorped
Ġhyster
Ġ1
Ġtiming
ĠVanilla
ĠShake
Ġprofit
ĠDh
Ġwooden
NO
urred
ĠCitizenship
Ġdonkey
arat
ino
ĠWA
stead
Ġtransient
ract
Ġhazards
Ġentertainment
Ġsake
Chelsea
Radio
block
Ġtotaling
Ġlimited
ĠDesk
Prime
ĠCoconut
ĠDistance
Ġding
ĠAmbro
ĠLodge
ve
Ġtapes
atform
Ġfilesystem
ĠAviv
while
racial
ĠBC
ĠMelanie
ãĥī
Ġ1862
Ġpdf
ov
ndra
ressor
ĠScreen
ĠProvides
ĠWANT
ĠNet
ĠLaunch
Ġstagn
Ġprecious
owntown
ĠNex
contract
Ġextent
erto
ĠStruggle
soft
ĠBurr
ĠAmer
0
ĠCan
gor
uration
ĠTransition
Ġexacerb
Bon
ĠBac
Ġ90
ĠHit
ĠSeasons
Ġteacher
758
Ġvalidate
Ġtavern
ĳ
ĠOPT
Ġsinful
Ġ118
Ġbasis
Ġthrone
ĠJohnston
icy
ĠPersian
Ġmerger
ĠRelationship
ENA
ÃŃa
Ġga
ĠMul
ĠTent
Ġhumili
Ġcuc
ĠTurtles
Ġhappen
Ġcharacters
ĠShoot
igious
Ġovertly
Ġsufficiently
220
Arizona
ffield
Decl
ĠAoE
Ġdiagnosis
Ġ330
Ġ148
Ġasking
Ġbandwidth
ĠMarines
Ġail
Ġvas
ention
Ġvisualize
renches
Ý
Ġdisparate
û
ĠMann
âĢķ
Ġprisoner
ĠSwansea
ĠEB
Ġmouths
Ġ950
rec
Ġreleg
ĠWebs
vette
?)
Ġtechnicians
ĠVW
outher
ĠSup
Ġconqu
Ġclearance
Ġassisting
ĠDod
Ġpreceding
Ġremembrance
ivalry
Ġeven
MED
grad
143
Ġquote
Ġniece
ERN
lifting
ĠCadillac
Ġpetitions
produced
Ġ24
ilde
ĠBALL
Camera
lude
Cow
ĠCarlson
Ġtwists
Ġsandy
Ġod
ING
Ġbuilding
Ġfootsteps
factor
andre
Ġdestroyed
ĠHand
ĠRamirez
ĠSomehow
Ġsocialists
qa
Testing
Ġ1926
bum
ĠPly
Ġfracturing
ements
Ġab
ĠEND
metry
00000000
Bank
Ġay
Ġambiguous
Ġsuperiors
Ġattraction
+)
Ġmathematic
ĠBowl
Ġtail
Ġingenuity
Ġdemonstrating
Ġassumption
Ġpics
ĠOFF
resh
Ġpainter
Ġconstitutional
Grade
Ġbroaden
carry
Ġfloor
Ġcredited
ĠDeVos
Ġedits
coord
___
Ġ1840
ĠBaxter
Ġresilient
ĠDread
Ġtoy
enance
Ġbankruptcy
file
zzo
Ġopp
Ġasbestos
ĠRats
ĠEstablishment
Tag
Ġenables
DoS
Ã¡
Ġbub
ĠTRE
Ġkitten
nces
ĠÂ¥
Ġbrilliance
Ġsmell
ĠFG
ĠFSA
ily
oz
ĠFriends
Ġremained
ĠPrize
Ġconflicted
ĠJun
trump
Ġthreaded
Ġsalty
Ġwebs
Fed
Ġincompet
Ġdeclared
Ġ1991
Ġ|--
Ġbalk
Ġ5
Ġshootings
Ġupgrades
endas
Ġstrides
ucl
ĠEgyptian
lein
Ġdiapers
Ġ000000
ifice
regate
actively
ĠBad
Ġoverseen
alde
Michelle
Ġconfigurations
Ġreproduced
*
Ġintoxication
mbuds
ĠCay
ĠIOC
Ġflo
ĠComing
ĠTests
aughters
Ġcanv
Data
bugs
ĠTacoma
ĠAuckland
Ġmetabol
ĠChoice
ĠStarts
Character
Ġcohesion
Ġconfisc
Impl
ĠExtend
Ġdeliberately
leg
Rank
ĠFourth
Ġinfuri
Ġrings
Ġadversaries
Ġlocated
Ġslow
72
Ġplantation
Ġcasc
Ġpassively
ĠDOM
Ġundocumented
nice
ĠNone
Ġmask
ĠSpike
ĠGuild
Ġintellectual
iere
omnia
Ġinauguration
Ġcull
Ġclar
Ġdra
Ġwhats
Ġdistingu
Ġmanagers
Ġblond
ifi
Ġrequirement
Ġut
61
ĠWHY
ritical
coni
Ġteens
Lenin
Ġshelter
ILL
Ġbought
Ġreneg
ĠMinimum
DVD
ĠBar
ows
ooter
ardy
Ġhyp
ĠDoodle
Ġsegregated
PH
Ġ360
chem
ĠContributions
Ġmutations
hemat
Ġfreeze
Ġbaggage
amara
ĠPOW
Ġpertaining
Ġinfiltrated
Ġrecomb
Ġserved
Ġteammate
ĠSnapchat
ĠFreed
ĠSo
Ġaudio
773
Ġwarranties
ĠLone
âĢĶâĢĶâĢĶâĢĶ
)",
Ġ443
Ġwik
ãĥ¼ãĥ«
ĠFINAL
ĠUDP
antz
ĠPut
ascus
ĠIndiana
Ġobjected
Ġhectares
Ġexpansive
essential
Ġ1949
ĠColleg
ĠNHS
Ġsynonymous
Ġagain
ĠRN
irin
dim
shape
damage
H
ĠBlue
Ġregistering
ĠBasil
Ġ164
perors
ĠBayern
Ġvacated
ĠPumpkin
Ġpoison
ĠLafayette
Ġ555
ĠHIT
ĠPowder
ĠHDL
dule
ESSION
Ġaged
Ġqualitative
Ġrebate
Ġspear
esc
ĠBane
ĠSocrates
alla
ĠOverwatch
Ġactually
Ġinsiders
Ġprocessors
erson
Ġboycot
Ġsleeps
Cause
cher
Commercial
Ġespresso
Ġcancelled
event
asel
ĠBanner
Ġcitizen
170
Ġunrecogn
ĠWarp
Ġbackyard
arse
ĠAble
Ġshuttle
adle
Ġvanilla
Ġwhatsoever
ĠTrading
Ġsealed
ĠRudd
Ġkittens
ĠYelp
ĠOPS
oneliness
Ġlegislator
rower
ĠBurns
Ġwhiff
ĠPAX
Ġrockets
Ġscenario
ingle
ĠPIN
PL
Ġstrengthening
Ġallegiance
Appearance
Ġbacterial
Ġtimed
u
zing
ĠMaw
Ġanarchism
icker
Ġdropped
ĠMountain
Ġslew
Ġboard
Ġforecasting
ĠReduced
ieft
Ġlends
alities
ĠBie
Ġconversations
Ġdetermination
Jim
Ġorigins
ĠCena
Ġbottom
Va
ynes
Ġscars
Ġhun
ONY
647
ield
Ġclimb
breeding
fore
Ġlectures
Ã§
Stats
HUD
ĠSales
packages
Ġnaming
itures
ĠChel
Ġsix
Ġobese
obin
ĠKind
ĠBoom
Ġvaluable
Ġadvantageous
Ġoffsets
milo
ĠMunicipal
Ġtune
Group
pl
omas
Zero
else
Ġpayout
ĠHopefully
give
Ġchop
setup
imble
Ġtools
Ġthighs
tf
Ġreserv
Ġjunior
Ġdomains
ĠDON
Ġdocuments
ĠCain
teen
Ġdanced
irie
ãģł
Ġtoday
ĠAcid
Ġlaughable
Ġagreements
Ġremarkably
ĠDNA
ĠReagan
Ġdefect
Ġyellow
Ġbipolar
Ġhighlighted
ĠTesting
otta
ghost
Ġblended
ĠCutter
Ġcooker
Ġbay
Ġbuoy
wrapper
language
ĠAthena
Ġhealing
Ġdisob
Ġshattered
ĠForbidden
22
ĠPhilippine
Ġstaggered
ĠSakura
resistant
Ġoversight
Ġgods
ĠHIP
Ġtherefore
*=-
ĠAssass
Ġbreak
Ġequipment
Ġinvasion
Site
isson
Jonathan
ologne
Ġallocated
ĠKhan
ĠConservative
Ġoverlooked
Ġantennas
Ġviable
Ġlocate
Ġderived
ĠThorn
Ġlabs
Ġtherapeutic
uly
ummy
Ġbarbecue
Ġyours
Ġmobilize
cks
Ġdownhill
ocon
Ġperv
Ġpopulate
ĠPharaoh
-,
ĠBush
hon
Ġdistressed
ensible
Ġmishand
Thank
ĠHew
ĠRetail
ĠAV
visors
Ġsoluble
Fear
urches
ĠADS
Ġsuicides
Too
304
Ġinhibit
Tickets
ansas
Ġcommuter
uating
Ġhating
think
Ġpleasing
Ġclaims
Ġspray
Ġ402
Ġoxy
Ġteachings
Ġ154
Ġuniverse
amen
iPhone
gent
ored
writing
NET
Ġplastics
ĠMOV
ĠLoving
Ġlimp
Ġscreened
ĠÂ±
Ġextends
Ġwalk
Ġengaging
ĠEnvironment
jud
ĠAside
responsive
Ġwitches
Ġcouple
ĠNar
Ġovercoming
BL
Ġdisturb
Ġominous
ĠOrient
Ġfinding
Ġcents
ura
diff
Ġ195
ional
Ġequipped
Ã©
Indiana
Ġlie
Ġio
ĠHuntington
ĠErrors
gang
ĠSer
Ġsy
ĠMegan
san
atton
pson
Ġunsatisf
Ġpromul
ĠSage
Ġimper
Ġcompass
ĠGABA
Ġcache
219
Ġindividuals
ĠSimmons
646
Ġaccompan
Ġ386
Ġblat
Weapons
ĠPCIe
Ġplaster
Ġsoftware
ray
Ġpowered
Ġswaps
ĠErik
Ġoy
ĠUTC
ĠLore
ĠInstrument
ĠCharm
heading
ĠBerry
ĠErica
bench
ĠDialogue
HAEL
omever
Î
Ġoily
Ġunofficial
Ġrecruited
meier
Ġat
)-
Ġlobbyist
Ġgag
ĠUsers
ĠVapor
tall
Ġdared
*)
children
Ġboat
Ġdish
ĠOrgan
chron
Ġfreezes
Ġwithhold
Type
ocado
Ġsynt
tools
csv
Ġ132
Ġrevival
awa
Chapter
hma
ãĥĥ
do
The
ĠCorporate
ĠOffensive
Ġhip
ele
POSE
Ġobservation
Ġoverwhelm
Ġreadable
ness
ueller
cum
Ġreal
ĠFeaturing
ĠClaw
Ġneighbour
ãĥĲ
Do
ĠNonetheless
****
âĢ¦)
ĠDMCA
major
ĠBerkshire
atography
ĠFast
co
wire
uding
mology
Ġwed
Ġhubs
ĠCambridge
ĠDota
Ġquarterbacks
from
Ġpra
ĠSod
Ġextend
ĠSTAR
Ġslapped
Ġnodded
Ġleapt
ape
Ġbrewer
ĠTeresa
Ġ390
Ġpension
oras
Ġdeaths
Äĩ
ĠTop
Ġscreening
Ġwars
Ġtobacco
Ġhel
ĠMotion
Ġgrooming
imeter
ĠUX
Whoever
Ġtenant
ĠEm
caliber
EGIN
ĠEmber
chapter
Ġintrins
ĠExplore
Ġrumors
ĠSchwar
],"
Ġweakness
Ġuncle
ĠFle
ĠBAS
Ġ",
ABLE
NH
ĠFah
Ġphysicians
Ġlocals
Ġdonated
Ġcoordin
Ġnecessities
Ġsulfur
Ġstrike
prime
Ros
ĠCage
Ġcongressional
ĠComments
bear
Dis
ĠâĻ
ĠNIH
Ġchip
Ġguarded
ufficient
Ġprepar
grim
antically
asts
1993
ĠCourier
])
Ġcertificates
Ġ388
Ġclassy
Ġtablespoons
ĠGoodwin
ernal
Professional
ĠDragons
ding
Ġrecognized
ĠBelt
ĠBoulder
Ġhistory
ĠMR
formerly
ĠReed
NZ
Ġparasites
Ġcarefully
burn
ĠAuthority
right
Ġsorting
mouth
Ġreferendum
Ġbeating
area
Ġdementia
Ġmortality
anches
kov
medical
apolog
ĠSensor
ĠDaredevil
Ġdistances
lys
//
Ġunits
Ġ29
budget
ĠTestament
enta
Ġinjury
Ġbroccoli
Ġounce
Ġfixed
Ġdef
Ġprobe
Ġscenes
ĠKushner
Ġmoniker
Ġpretty
Ġpreservation
Ġfacilitates
Ġproducts
ĠâĢ¦
ĠSix
Ġspac
910
ĠCiv
Ġscholarly
isite
Ġhorrible
management
ĠKiss
ĠColonial
Ġvisuals
Ġembell
Ġth
ĠBurk
ĠBenjamin
Ġsits
Ġgadget
ĠDespite
Ġhorrendous
activity
ĠZoom
338
Ġscouting
Ġpersuade
ĠTransport
Ġpenet
ĠFinancial
Ġpainting
Ġimmigration
western
Ġsynerg
Ġtapping
Ġoperations
ĠOlivia
ĠSchro
ĠSamar
Ġadapter
NE
Ġsoccer
Ġcheering
ĠGrateful
Ġmillennium
olute
ĠTRA
Ġprohib
Ġinhib
Ġreprinted
Ġsatur
1007
ãģ¯
Ġspecialist
ĠFTC
Ġclinging
Whether
Ġdemonstr
Asia
ĠOrig
ILA
ĠPodesta
Ġreimb
Alexander
ĠWitch
Ġbona
Ġappropri
.$
low
BM
ford
Ġprevents
James
dom
Ġpulp
Ġcollaps
ĠPTSD
616
aspberry
ĠChinese
attered
Ġproport
Ġfreeing
upiter
lib
ĠPlaint
ĠOnePlus
ĠCollection
Ġthunder
ĠLutheran
Ġcha
Ġdebian
EngineDebug
ĠAirport
PDF
ĠDawson
Ġâī¡
ĠSri
Ġgig
border
iological
MER
ĠMathematics
Ġsparking
514
Ġrefute
ĠHung
mingham
clips
Ġtelescope
Ġidentifiers
emonium
Yo
WI
å¸
race
ĠPenguin
ortun
Ġpattern
ĠRapid
elfth
ĠSpartans
Ġ2015
Related
ĠGerm
Ġrescind
ĠMaker
Ġrecipient
Ġexclusion
dropping
Ġbombers
ĠLonely
Ġwebcam
enium
ented
ĠOthers
Ġlords
FIN
Ġdrowning
ĠHulu
414
Ġexpanding
Ġmatching
uations
Ġgraduation
ĠPAT
Kids
despite
wl
Ġsidelines
Ġswe
Ġexpel
ilon
Ġintimidating
ĠFlavoring
ĠZip
Ġless
ĠAsians
Ġredress
Ġ318
ĠDetected
Ġideas
ĠAfghanistan
Prince
ĠBarcl
Ġhol
ifa
Ġmates
ocation
Ġunlike
Ġwrestler
UE
irling
Ġï
Ġresolving
ĠQuiet
Ġsurging
ĠPoison
Ġfragmented
Ġ411
ĠBAD
Ġreportedly
ĠLength
Ġarose
SER
ĠFame
Ġsetups
Ġundermines
ĠHuawei
Ġwhist
Ġencamp
Ġreaction
ĠEssex
ĠForget
ĠBrass
ĠBlossom
Ġabolish
TC
ĠBonds
Ġfirms
Use
ĠLower
wine
Ġupgr
}:
ĠAqu
Ġabused
ĠKodi
Ġeval
eely
matically
Ġvolunteered
thread
ĠKn
Ġlock
Ġdwelling
875
raper
Ġseminal
Ġnorm
Ġdazzling
ĠOut
Ġ911
ĠHuffPost
Laura
Ġdod
Chicago
aple
Ġmildly
conom
Í
;
Ġawait
ĠBent
ĠSaf
rets
magic
Five
Uh
Ġenhancements
Ġ1937
Ġpurified
lins
Ġski
Ġdynamics
Ġchampionship
ĠOt
Ġparentheses
Component
Ġsshd
Ġintended
Ġupgrade
ĠHungarian
Ġappears
ĠEngels
Ġloved
Ġbrightness
Ġaccurately
Ġcostumes
wide
Ġexcessively
ĠSantos
estone
Ġinfection
imaru
Ġremind
stro
Ġdiscontin
Ġ266
NES
ĠExecutive
olina
Ġtweak
ita
Ġvomiting
381
yton
Ord
Assistant
ĠBers
axter
Ġobstruct
ĠDisease
Ġcafeteria
Ġ331
ift
Ġpurple
ĠTHAT
ĠSomeone
Ġrept
ĠViper
ĠAdv
ĠHuffington
640
ĠDangerous
ogens
ĠJudiciary
ĠDeus
ĠDanny
Ġmeaning
Ġ//
ĠYamaha
Ġprimer
Ġscrews
ĠAmericas
racuse
basic
ĠLunar
Ġtonight
Ġdepart
Ġclimbs
é¾įå¥ĳå£«
Ġcontention
Ġsalvage
Ev
note
opol
Ġsectors
Ġlicensing
ahar
ĠCK
-(
Ġimpressions
ighed
boy
ĠTRUE
chrom
Ġpelvic
Sav
Ġ(-
ĠIro
resident
Ġsurprisingly
polit
Ġm
900
ĠProceed
Ġdiver
ĠContrary
Ġrehab
Norm
524
ansson
ĠLighting
ĠWHITE
ĠCheck
ĠConsole
Ġclown
Ġdepiction
classes
Ġperpetual
gery
buck
Ġinsurance
ĠLem
ĠCOUR
Ġcad
butt
Ġworld
Ġvillain
Snow
ogenesis
Ġobsessed
EEE
æŃ¦
Anderson
Ġep
Fe
496
Ġimmune
ĠRedemption
ĠAustral
Per
HC
Ġcontinuous
Ġlengths
Ġinstalls
ĠLun
ĠTranslation
ĠPlaystation
Ġ35
Ġtranslating
ĠUD
Ġvegetarian
Âł
ĠDefinitive
Ġturnout
mil
Ġsweating
astered
Ġreviewers
BW
Ġshading
Ġfend
TERN
bor
Ġdelegates
ĠCenter
Ġcookies
Ġenerg
ographers
fty
Ġrollout
Ġacqu
Ġ+/-
MIC
Ġexcruciating
============
Ġsting
Ġbattlefield
ĠSandra
essler
my
ĠDietary
ĠApplications
Ġsecular
Ġrepresenting
Ġbelonged
Ġdisproportionately
âĪ
Ġrede
Ġmassive
FG
Ġlegislatures
Ġoccup
Ġsound
ĠSands
Ġcombos
Ġroutes
Message
Ġconjunction
club
WP
ĠShips
Ġunexpl
Ġ292
Ġclinch
achu
Ġstatistical
ãĥª
ĠEthics
intent
Ġmidday
Ġrecover
Ġerratic
490
Ġupscale
Ġtranqu
Ġmagn
Ġliability
131
Ġdagger
ĠStarbucks
interesting
Ġvampire
Ġupdated
Ġcurious
Ġsanity
ĠMast
below
Ġbesie
Quotes
?'"
Ġsling
Ġsentient
Ġhundreds
ĠCav
ĠNirvana
Ġclerks
Ġblatantly
Ġdaughters
ILD
/>
ĠÂł
dark
ango
Ġmeanwhile
ĠPr
getting
Ġglobally
aredevil
Human
ĠSamsung
hibit
NS
chair
nom
ĠSecondary
Ġcampaigned
ĠEnd
EEK
wen
Ġambassadors
Ġ34
Ġstored
gency
ĠCeres
Ġtorches
ĠBetter
Ġburgl
isy
Ġmash
outine
Ġclerics
Ġclues
ĠPitch
Ġmeasure
Bur
Ġplead
.]
upon
Ġsupported
Ġtickets
Ġpresumption
ĠJugg
uish
ĠCulture
Ġciv
ĠSwords
ĠAf
Ġunusually
Ġkinds
Ġ258
rd
aghd
founder
Slow
Ġrevolution
ĠHello
Ġinfluenza
Ġwary
Ġenormous
Ġgloom
Ġsooner
Ġphenomen
panic
uff
roph
Ġimpair
athetic
Ġdeleting
Ġmonitor
ĠWR
ĠRegistration
ilies
ĠTempest
none
Node
Ġ46
Ġpleas
hoe
ĠSovereign
Ġrenowned
ĠMySQL
Ġprejud
esthetic
Ġnormally
cot
ĠYorker
ĠHong
Ġincremental
Ġcol
Ġsclerosis
ĠGÃ¶
Ġwreck
Ġsupplementary
Ġnotor
vision
Ġrobots
Ġapplications
Ġpoker
Ġharass
Ġimagine
ey
443
ĠWikiLeaks
Ġgenerally
AP
Ġemissions
worst
ĠSmile
Ġsavvy
<pad>
Ġeconomy
Ġunlock
IRO
Ġwarranty
Ġliberal
pi
Ġdream
AZ
ĠðŁĺ
ĠArcher
ĠLouise
upper
ĠBrav
college
BUS
Ġvolunteering
Ġ180
communication
İĭ
Ġ361
CLA
Technical
ĠKrypt
Ġrevoke
ĠAdd
Ġradio
Ġraid
960
Ġtrillions
ealing
ĠESA
Ġcommerce
Ġimprovement
ĠNewcastle
ĠJR
Ġtransporter
Ġ('
Ġstep
Ġdeterioration
Ġvir
Ġobscene
David
ĠUA
Ĭ±
Ġcaloric
Ġdishonest
ĠFlav
jobs
ĠMetall
Ġ353
ĠJud
culosis
Ġgoing
Ġ289
yrs
Ġelectrom
Ġendorsement
ĠArch
ĠAirl
Ġhaven
ĠBarclays
dos
ĠSpice
Ġentry
Anna
Ġconfigure
Ġthereof
Ġrog
Ġsurveys
olia
Ġcorner
Ġevidently
Ġpigs
Ġphosphate
ãĥĨãĤ£
WM
Ġpolic
Journal
Ġinterruption
Ġcompulsion
ĠF
Ġmuscles
ĠJulian
Ġessential
Ġintelligent
Ġfertilizer
ĠSpaces
Ġnic
Ġlou
Ġgathers
ĠHas
asar
Ġblindly
iation
ĠKyle
Ġsung
Ġshotgun
Ġdrunk
ĠInfinite
Ġassured
Ġlamp
byte
Ġmethodology
ĠReid
ĠManufacturing
ĠAdviser
Ġineffective
bys
Ġgave
Ġhalluc
Ġimp
ĠGuer
illac
âĺħ
Untitled
hex
ĠHook
Ġmetaphysical
Minor
abase
ĠCommission
Ġmage
Ġbal
ently
Ġmarching
Ġhumility
ĠHindus
bug
Ġacquired
Ġbang
ĠFerdinand
ĠRJ
Taylor
Ġpresent
ĠCNS
Ġvulner
Ġmud
Ġproximity
zon
263
ĠAqua
ĠTransgender
Ġnuances
icycle
Ġdismissal
Tab
Bound
Ġmamm
ĠShares
RO
Ġrepatri
ellig
AFTA
itud
Ġdiffers
Ġextrap
ĠLIST
ached
Ġap
Ġagile
Michael
ĠPlatform
Ġidentify
Ġmammal
READ
Ġplots
Ġbrill
ĠTyp
adra
elope
stud
Ġfrontline
ific
TABLE
vers
Ġweapon
A
Ġlur
ĠAllow
Ġplethora
ĠNorth
Ġplush
Ġsympt
stories
ĠFO
ilton
58
Ġemployee
ĠFunctions
makers
pins
exist
Ġsounding
Ġounces
Ġstorm
Ġbolstered
Ġsensible
Ġnegotiate
UA
osal
<s>
ĠDiscord
assi
Ġregistrations
Ġbackground
cision
Guy
Simple
cake
Ġquar
Critics
Ġbatter
Ġborrow
onial
Coach
0000000000000000
Ġå¤
ĠTucker
ĠJA
ĠIGF
ĠJudd
ĠNed
arded
beam
regor
Ġexercise
ĠGry
hler
brids
Ġpapers
Obama
Ġdeaf
Ġrecreation
Ġcheered
Ġconcussion
Ġaccess
Ġactiv
Ġorganism
currently
ĠCart
Ġluck
ĠAHL
ĠCyprus
Ġharmless
ĠDOES
Ġminimizing
ĠEnder
ĠRect
ĠSilver
Ġadjust
ampoo
Ġjurisdiction
âĨĳ
545
Ġmasculinity
ĠAmmo
ĠOblivion
Ġthin
ĠWeird
Ġaliases
bernatorial
Ġskin
Ġbread
Ġexclude
1
Ġbinding
Book
20
opens
ĠMyst
Ġunres
Ġadultery
Magazine
ĠLa
Ġreck
Ġpenalties
ĠCALL
ĠCull
ĠMeaning
repeat
Ġinteger
Ġmurd
Ġtouch
Ġlen
Ġspur
ĠPV
Ġvinegar
Ġblacklist
Atl
Ġaffluent
Meanwhile
Ġseason
ĠGG
ĠReflect
Ġmajority
ĠLyons
aptop
Ġsmaller
worked
waukee
Ġstretching
ichick
ected
intel
Ġskins
ĠDak
Ġjoke
-$
Ġcontentious
Ġevasion
ĠInterest
Ġunconscious
ooters
Ġposture
Ġsquadron
Ġexchanging
ĠCorpus
ĠStraight
Ġenvisioned
Ġwise
dep
ĠDil
ĠHend
Ġdurable
rick
Ġprud
oil
ĠEmerson
ĠDeV
1985
Remote
awks
Romney
eteen
kens
Blog
Ġnonviolent
Ġsoak
ital
Ġkillings
Ġunlocks
ĠBuilding
Ġmicrobiota
ĠHence
Ġesoteric
Ġincentive
Ġforfeiture
ĠDial
guards
176
ĠSil
Ġaxis
ĠOverse
ĠRuins
ĠMoines
Ġcomplainant
Na
Ġremaining
Ġdivisions
ĠAurora
consumer
ĠRecord
Ġfears
YS
Ġintellect
ĠGenius
ĠSTOR
1979
Ġemphasis
Ġdefenses
Ġoxidation
("
Ġtracks
æŃ
ĠRab
Ġbound
Ġsuspects
crafted
Ġrealities
lain
antom
eden
ĠStudy
assembled
Ġprocess
Virtual
Ġpupils
Ġarchetype
Several
lor
outh
Ġfigures
Ġgather
ĠWaters
iana
ĠBasin
Ġupt
ĠSemin
chester
Nick
Ġcalmly
until
ĠPrevent
Ġlanded
Dam
Ġhonoured
Major
Ġbunk
imus
Dan
ocl
ugu
295
itia
ĠSouthern
rastructure
ĠCzech
Ġadministration
Ġloop
Ġintricate
ality
...?
ĠKur
Ġtrembling
Ġsal
Ġkingdoms
Ġappearance
ĠRonaldo
Ġregarding
PAR
species
Ġrelatives
EB
ĠRic
ĠCircle
ers
men
325
Ġhome
Ġcursing
ĠRestore
Ġsatisfies
omaly
Ġ(#
Ġunve
ĠCatal
vals
ĠPos
ĠSymb
ĠAre
ĠPocket
Ġsegment
immigration
ĠÂ°
ierra
Ġcannabinoid
Ġ{*
adian
ĠSus
nuclear
æĺ¯
ĠPeoples
Ġoutfielder
ĠCompar
118
Ġedges
Ġveins
!!"
Ġplayers
Ġhauled
Ġhappens
jong
Ġkiss
WIN
Ġguiding
ĠLoans
ĠClient
Ġ1914
1965
ĠLess
ĠMn
ĠHood
lot
Ġnowadays
ĠImpl
ĠFrankenstein
CAR
orses
Ġpressured
mit
Ġregarded
rust
Ġinspiration
opal
ĠEssential
eric
Ult
Ġheadlined
Ġstarch
Ġ>
Ġphys
Ġcontents
Ġprincipals
BN
Ġincon
ĠReverend
onent
oother
Ġgender
ĠSF
ĠAppl
ĠReyn
ĠHastings
Ġreminding
lda
Ġplumbing
VIDIA
ĠEz
olon
Ġestrogen
Ġliteracy
ĠBarker
serial
cient
iths
ĠTraffic
Ġbrief
ĠWORK
ĠRG
ĠNS
Ġpostage
ĠSteel
ĠPearce
Ġcauses
Ġintervention
Ġsteril
Ġenjoys
Ġamnesty
ison
ession
Ġbetter
Ġvine
Ġbye
ĠReve
Ġ313
ĠLeica
ĠPharmac
Ġcooldown
Ġquir
niper
Ġsovere
Ġacknow
ung
Ġwarns
Ġpenalty
isible
ller
phil
ĠGrip
Integer
Ġdogs
Ġinstallations
Ġdiagnose
ĠWOR
recorded
alert
ĠProtector
Ġ)))
ĠexternalToEVA
iff
ENSE
ĠLightning
ĠBarcelona
pm
Ġpatient
Ġhostile
Ġbrains
ĠFR
Ġdisruptive
Ġtuna
Ġfugitive
ĠPelicans
Ġchief
ĠExcellence
ĠDonovan
Ġpassport
ĠLoading
Ġbankrupt
fitting
Ġcritically
ĠTamil
480
Star
Ġcreator
Ġcrushing
TV
ĠReturns
Ġbrid
atered
Ġpaced
reporting
requ
Ice
Ġchampion
ĠBaylor
ĠPAY
ĠAxe
Ġblaming
Ġteenagers
Ġkiller
Ġevolves
Ġsnug
PA
Ġminutes
Ġdrama
Ġrated
ĠContest
Ġideology
ĠDash
ĠNT
annah
ppard
ĠCly
ĠSuff
itage
ociation
Ġbullied
uph
ĠTurns
culus
ĠREPL
Ġexpanded
ĠMuse
oots
ocket
489
Ġdement
å°
ĠSyl
Ġturn
Ġstockpile
1920
Ġagree
Ġsite
Ġassisted
ĠFallen
Ġcos
aches
ĠCed
Ġcarrier
Ġformat
ĠSWAT
Interest
Ġ=================================
Ġmigration
Ġgym
Ġconfir
ĠSeverus
ĠSmart
ĠBirmingham
secret
Ġlair
lad
ILE
maxwell
Ġcompound
ĠON
ĠAmon
Runtime
uc
SN
Ġmarginal
Ġrhythm
jo
Ġdiets
ĠWinston
ĠMAX
Ġeasier
Ġdying
mega
ĠEnabled
Purchase
ĠPistons
tax
ĠTower
ĠAngela
Ġmeaningless
Ġdetermines
ĠDI
Ġfixtures
Ġgotta
Ġintruder
Ġdj
ography
online
icity
Ġbundles
ATIVE
Ġarche
ĠCarl
Ġ1899
pected
ĠAck
Ġdiscrepancy
Ġpistols
Ġinvention
gravity
603
ĠVI
Ġtightened
Ġmocked
Ġunsustainable
operated
wit
ĠReprodu
Ġsacred
Ġplastic
ĠTHR
eties
Ġterrified
Ġcritique
ome
ĠEng
300
TB
ĠPAC
Ġspoof
115
Ireland
ĠSergio
Ġ109
Ġmars
abulary
Ġapologize
'."
ativity
Ġslicing
Ġrefinery
Ġmisleading
Ġsubscribed
Ġencourages
Ġpresident
Ġvolatility
ĠStuff
209
Ġinterpreter
Ġlicense
Ġone
ĠHoff
value
ĠRodriguez
Strike
Ġpropel
MJ
vised
Ġ×
ĠDiaz
ĠDing
University
ĠTreaty
Ġimpossibility
Destroy
Method
Ġtextile
Ġeuth
white
ă
ĠSolo
UNCH
olitan
Ġinflamm
Ġcoupon
hack
Ġ303
Ġflared
Ġplanetary
ĠWinc
ĠNem
Ġeyebrow
Aside
Ġtweaking
ĠSarah
ĠAve
Ġ145
ĠCelt
ĠPresent
å¦
Ġdracon
Ġbarrier
ĠOnt
ĠPrin
Ġorganic
Ġinvests
Ġmus
Ġpiano
ĠMH
Rub
Ġexposition
juven
ĠMit
ĠSundays
Ġhur
heet
itudes
ĠMirage
Ġslopes
Ġmafia
ion
ĠLH
ĠGir
akin
ĠMalaysia
rawn
ĠDigest
237
Ġded
ĠPoker
ĠDah
Ġboasted
aniel
ĠLanc
separ
inctions
ĠOutside
ribly
Ġcameras
ĠTr
ĠSw
over
Ġsafer
Ġdifference
Ġunnecessary
ĠSoft
ĠPRE
Y
Ġsm
ĠBun
ĠCrowd
ĠBulletin
199
pressure
Ġbackbone
mony
Ġsculpture
Ġjudged
Royal
ĠNare
Ġ[[
Č
Ġdepress
Ġdavidjl
Ġstreetcar
Ġproportional
ĠPlex
Ġshortcuts
ĠExpression
codes
Ġtotal
ĠZak
Ġmob
ĠHue
ĠMortgage
CLASSIFIED
iona
ĠDATA
ĠMilo
Ġinefficient
ivist
ĠScare
Ġteasp
ĠOlympic
hop
Ġlists
Ġmagazine
Ġpatrol
ĠAntiqu
Ġpoverty
ĠIllust
cott
ĠSutton
ĠAmnesty
utan
Ġthirteen
Ġforecast
ĠGene
ARCH
Ġfin
Ġallot
ĠEuph
ĠVariable
scroll
levels
ĠSCP
Ġpundits
ĠMurdoch
ĠSPR
orama
KN
Ġadopt
ĠEr
Ġescape
ĠSM
ĠTrophy
Ġnetworking
facts
Ġexecut
Ġinvoice
Ġpassages
ĠArab
ĠC
Ġclasses
Ġjung
Average
ĠEntered
Ġhormone
Ġfat
Capture
Ġelecting
ĠHaku
Ġcommuting
Ġasleep
Ġpathology
water
Ġinsisting
zhou
lete
Ġpaste
arted
Using
heon
fail
Ġvul
ĠNottingham
ĠWilliams
ings
ĠSTD
ORE
Ġshorten
Ġcats
Ġgrizz
Ġphysi
Ġhype
ĠRei
Ġinclusion
Is
nt
Ġarrival
ĠCelebr
Ġdecency
ĠEffects
ĠCount
aug
ĠHawking
Keeping
sequent
ĠTsarnaev
Ġroomm
ĠBrune
Ġsuperficial
urrent
Ġsort
ĠPu
Ġgenus
ĠReserve
...]
Ġconson
Ġadjustable
Ġdoll
ĠNg
Playing
Ġsodium
Ġchimpan
Ġproductivity
Ġmean
Ġrepositories
Ġboats
length
Ġdiscs
ĠFilms
Ġcircumvent
Ġgrate
Ġwedd
ĠThank
ĠVK
Ġdiscard
592
Ġmessenger
ĠSonic
Buzz
Ġmassacres
Ġdies
Ġshallow
09
idian
ussion
Ġeccentric
prints
ĠPDT
offensive
ourt
itching
era
Ġcannabis
Ġacademic
ĠLung
Ġlull
Ban
spective
ĠLeaves
ĠFI
ĠPhot
ĠChristensen
Ġmodified
ackle
Ġprophets
Ġevenly
Ġteaching
Ġmicrobiome
ĠAttributes
Advertisements
"
ÃŃs
Ġresigned
Pause
Ġproudly
Ġinitiative
ĠManifest
containing
ĠJavascript
ĠCrack
ĠGift
eq
Ġbrushed
Ġembarked
ĠLaden
870
Center
ĠToken
ĠSeb
Ġhumid
Ġmurdering
Josh
obal
dir
Ġdisqual
ĠMarijuana
ĠMight
Lin
Ġabnorm
ĠGE
annie
Ġscrutin
ster
ael
Ġwanna
ĠJarrett
ĠOrion
Ġambulance
Ġwetlands
ĠHaitian
ĠElements
zanne
lisher
atory
oter
Ġstatistic
Ġbullets
Ġsquared
Bring
Ġcaller
Ġmelted
Viol
Ġduplication
Ġcivilisation
Ġobtain
ĠThai
Ġvalley
Ġtendencies
671
dirty
EPA
Ġsomething
794
Ġhomework
512
Eng
Ġtime
ĠScripture
Furthermore
Ġany
uador
ixel
Ġdoubles
ang
sty
ĠChamp
ĠLyon
-----
ĠGive
Ġcosts
Ġdepressing
ĠSicily
âĸł
uchs
Ġ#####
Ġgardening
ĠMeter
Ġfacade
ĠChevrolet
ĠRib
ĠMori
Course
lag
Ġfastest
this
Ġirrational
Ġdenomin
enburg
Pand
gy
ï¸ı
Roy
ĠKilled
Ġshatter
nostic
Ġcondensed
abul
Ã£
umph
Ġyogurt
ĠMaxim
Ġcharm
Ġcellar
Ġcrystals
Ġobliter
ĠRPG
Ġeternity
px
Statistics
\<
vern
Ġbreakdown
Kay
flower
EEP
Ġsugars
Ġlooks
ocks
Robert
Ġsack
ĠProtesters
ÙĬ
ĠDEAD
Ġtil
ĠStores
Ġattainment
Merc
Ġapproaching
Ġsentiments
Ġconglomer
Ho
Ġbabe
IDES
Ġprimal
ĠLam
ĠAssociated
Tracker
Ġbourgeois
Ġ<!--
ennes
ĠRefuge
ĠGhana
Ġelectr
Ġscratched
Sequ
ĠDol
fit
anka
Ġsabotage
ARE
ĠElise
cas
model
oir
Ġ502
Ġtowed
Ġthinner
}}
ibliography
raltar
professional
Ġsqu
Ġknocked
nee
indu
ĠLovely
Ġribs
ĠScrib
oglobin
Ġcurses
NOR
Transaction
ĠRuss
bp
Redd
Ġbundle
visible
yout
ikuman
center
Ġspacing
arta
Ġmetals
1500
city
éļ
ĠJones
Ġgoofy
anuts
Ġdeploy
Ġblank
Ġspacecraft
ĠCathedral
monds
ĠConditions
Ġbends
Ġ=================
Ġstringent
Ġintending
simple
ĠWinchester
Ġtsunami
Nice
ĠâĶľâĶĢâĶĢ
tery
ĠDraper
ĠAdvantage
Ġharsher
tele
ĠStamp
ĠOUT
illed
Ġpropensity
Ġinterfere
Mania
Fish
Ġpersuasive
ĠSamuel
Ġcampuses
Ġvastly
ĠIsrael
Ġinvent
Ġbriefed
Ġfork
Ġtough
linear
reshold
Ġcharg
Ġsuper
credit
Ġtrickle
Ġstrang
Ġpreferable
isexual
AY
ĠAh
Oct
ĠâĢķ
ĠTelegram
694
Ġ"\
side
Ġutterly
Ġcoated
Ġdocks
authent
Ġdeed
Ġticket
Ġmanufacturers
ATCH
Ġguerrilla
ovsky
Ġrave
ĠâĶľ
ĠSimple
ĠFS
second
ĠBrewery
ĠContains
Ġembattled
Ġnoting
Ġheadquartered
Ġrife
Ġ44
Ġlining
ĠSuffolk
Ġvisas
handedly
Ġtight
Also
eton
suggest
oaded
isha
load
shown
Ġwinds
oba
{\
Ġwipe
ĠScrolls
Ġinvalid
Ġterritorial
ecake
ĠZurich
to
Hillary
Ġwe
enable
Corn
taining
Ġairstrike
GEN
die
ĠViews
Wa
Ġinexper
ĠJesus
Ġdwindling
si
os
280
ĠÂłÂł
Ġmilitia
ĠRevenge
Ġtypes
cart
ĠGAME
Ġroughly
Ġnotified
ĠLud
Ġjudiciary
Ġhive
ews
TRY
ĠWasteland
ĠDw
pired
ĠSCHOOL
29
ĠFX
ĠFranc
åĽ
177
Ġbulk
Ġobj
ĠSel
Ġfree
ĠWhat
Ġdiscounts
Ġcontempt
ĠHOU
fal
Ġbuckets
emo
Cache
Ġaffects
ĠRNA
Ġliner
Ġdowngrade
amped
ĠDPRK
ĠAlmost
Ġrailways
Ġwizards
rha
Ġunlocked
real
Ġgif
708
ĠTrance
ĠJ
ĠPAGE
nut
Ġskipping
Ġfounders
ologue
Ġuntreated
ĠOss
Ġforging
Ġcomprehens
ĠCong
ĠOperation
ĠShin
ĠParty
Gam
Ġmonthly
con
Ġbans
ĠCab
Ġhunt
Ġendless
Ġexpress
electric
rogens
291
Ġsystems
Magn
560
Ġobesity
Ex
Ġdrew
ĠSpain
ĠGould
ĠQi
Ġaboriginal
qi
ĠDR
ĠRaphael
hour
Australian
Maker
ĠAbsolutely
ĠHanna
Ġtranspl
Ġtrout
Ġultimate
HK
acent
ĠZionist
Ġaccidents
client
ank
231
ĠProgram
ĠMichaels
ĠGROUP
Ġmathematician
Ġrarity
Ġwasted
ĠVision
ĠOptional
Ire
["
idious
âĢĳ
Ġmonitors
Ġaudible
aler
ĠArd
Lady
Ġinjunction
Ġconsultations
002
Ġupd
Such
ĠFen
Ġsucc
Ġpriorities
onsense
ibi
Andre
ĠTemple
Ġunsub
ipe
ĠReaders
ĠNan
ĠDudley
Ġheadsets
ĠBorder
ĠTrevor
ieu
ĠCurrency
Effect
Ġlearning
Kim
Ġreload
Ġlegislature
ĠOhio
ĠStats
otine
ĠPresidents
ĠCust
ĠNeurolog
ĠHTML
Ġviolence
ĠRegular
Ġepile
Ġdetailing
Ġconferences
ĠVid
Ġoriented
ppings
Generally
Ġar
Ġsweets
Ġfungus
hetto
istic
ĠArnold
Ġì
ĠGirls
ĠDrug
ĠHomo
Ġobligation
ItemTracker
ĠMoj
susp
Ott
Brit
leck
ĠJin
Ġ398
Ġyeast
Ġphilosophers
ocobo
110
sticks
Ġgraduating
Ġbooths
Ġinstit
Ġsurroundings
ĠToxic
ucha
Ġ65
Ġenacted
ĠSheep
Ġ389
nesday
ĠGet
ĠCongressional
ĠPixel
Ġstoryline
Ġspilled
Ġvariables
ateral
Ġdisappointment
Ġwhining
ĠOrche
keepers
ĠLanguage
biz
Ġguardians
tg
Ġcounter
ĠSeym
Ġnickel
Ġobserv
Ġmanufacturer
Ġunparalleled
ods
Ġwherever
strike
Ġunl
account
gom
Ġpunt
ĠMcCartney
Ġozone
Ġdodge
Fore
rab
Ġshone
Ġcl
Ġhormonal
Ġexaminations
ĠCosmetic
Ġhandle
ĠMinistry
Ġromantic
Ġvariability
LECT
Ġ395
plus
Ġtractor
iday
ole
Ġke
Am
ĠWHO
Steve
Dream
Ġmov
rous
YE
ĠVersion
iferation
ĠCho
Ġsustainability
cro
oros
Nin
Ġeldest
Ġant
emi
)."
Ġconsult
Ġnicknamed
anical
cooked
activate
ippy
ĠTemperature
impl
ody
Guest
ç«
Ġboasting
ĠFulton
Ġaudit
ĠOrchestra
ĠMusical
Ġtackles
Ġlol
Ġspontaneous
ĠBaltimore
the
Ġe
9
ĠAdjust
ĠTree
Ġimaging
lang
Ġamplify
felt
ĠTrin
Ġspecifies
Ġcircadian
Ġvac
Ġfulfill
othal
Ġintensity
Ġfrightened
ĠSyria
ĠTroll
itters
ãģĭ
Ġsor
Ġabstinence
idon
Ġtablet
Ġdescended
Ġearners
ĠStarr
Ġ161
DT
raphic
Ġtrick
Ġpolygamy
Ġpriority
us
ĠTodd
Ġusher
Ġjersey
Ġprocessor
pee
ĠShak
Ġcliffs
Ġmaxim
Ġvariety
ĠGorsuch
Ġsuddenly
ĠXbox
ĠSullivan
elt
Ġprovisions
does
fb
Ġliberty
ĠFurther
Ġfav
Ġrooft
expl
Ġbureaucratic
Ġaccounting
ĠGames
Ġsockets
Ġmas
Ġ01
oser
Focus
Ġconfines
impact
ĠTN
Ġbuff
Ġempires
id
ĠStoke
Ġsolution
Ġcreating
ĠBaptist
Ġfrontman
houn
ĠBorn
PD
Ġethos
ĠPatterson
ooky
Ġinsects
ĠHG
Ġimagining
Ġplanted
ĠCONTIN
Georg
Miller
Ġ10000
esa
Windows
ĠGadget
issance
ĠMilton
alph
ĠCONFIG
Ġbringing
ERC
420
ĠJung
288
ĠTick
Ġgestation
Ġample
ĠWheeler
Ġseller
Ġdig
ĠHammer
code
yk
ĠAmen
ĠCig
Sac
ĠBangalore
Ġnumbering
,)
Ġcaptures
Ġvari
primary
behavior
Ġdiscretionary
Ġoffending
ĠWHERE
Ġwasn
oh
Ġdes
ucked
Ġguarding
Ġintrinsic
Much
ĠSyri
ĠQ
Ġextending
estine
kr
ahu
ĠGriff
"}],"
arp
Ġscheme
ĠEditorial
Ġmanufactured
ĠactionGroup
ĠZup
aspers
import
ĠSting
ĠBees
Ġsolves
ĠIraqis
entary
Spons
Ġpolitics
Ġpodium
Ġfocus
Ġre
rats
Ġoverseas
Ġtrial
Ġaggregate
Ġreferenced
Ġsubtly
Ġacross
§
Ġtwitter
uality
oub
¥
Ġinsur
Div
ĠEMP
done
Ġprojectile
ovation
Ġvent
ipient
ĠNYU
Ġsidew
Ġclip
ĠRemoved
ocally
BE
Ġcolumnist
Ġirresist
Ġdoub
Ġlifestyle
archs
ĠHemp
members
Ġoverarching
Ġ254
uous
ĠFormation
Acknowled
ĠCurtis
apes
ĠNewtown
950
Ġgui
abba
Ġcollecting
Ġmunicipality
oker
ĠBradford
ĠTOP
Ash
Ġeducators
ĠVita
Ġmultit
HE
Ġreusable
Ġ418
Failure
Ġgate
Ġdraped
Ġrestruct
Ġcultured
ĠArchitects
Ġsquat
Ġdisson
Ġstrikeouts
>
unker
Ġfigur
Ġprotest
Ġicons
Ġmeasurements
ĠPill
ĠLuckily
ĠFAC
Rust
ruby
Valid
Ant
usercontent
ĠFault
Ġmount
ĠAuthor
arks
ĠFIGHT
ĠIceland
Ġsmash
ename
Ġdefunct
ĠWarriors
ĠDecision
Ġlone
Ġaback
ĠEquipment
lish
Ġeliminates
Ġbuds
Johnny
Ġblitz
ĠFurthermore
Ġdiscarded
ĠGM
665
Ġarithmetic
enabled
Ġbiases
uint
Tel
asma
pos
ĠRiyadh
ĠMorrow
Ġ2008
pperc
allas
Ġsauces
Ġcerv
Byte
ĠUtah
ĠBrands
ĠJac
Ġdiss
ĠBST
Ġfranch
Ġdelighted
Ġpreserves
ĠRankings
Dynamic
Ġsons
Ġ0004
Ġwatched
eters
ĠMaggie
olis
ĠSeriously
rison
âĢĭ
Ġsar
Ġideals
Ġdeception
ual
Ġembedded
ĠAlto
Ġweigh
orable
Ġtrailers
ĠCopenhagen
AGE
OLD
ĠCot
liness
Ġtiers
Ġrelation
INS
ording
UTE
ULAR
Ġbarred
Plot
Ġbuttons
Wing
é¾įå¥
log
Ġstumbling
Ġhypert
Ġgravity
ĠBobby
Ġfoundations
oops
ĠCanterbury
Ġvoicing
ĠRuler
Ġra
ĠFANT
crazy
autical
Ġdem
gewater
DCS
ĠLOC
ĠHive
ĠADD
Ġscarcely
Questions
--------
ĠGuides
Vaults
Ġfastball
Ġdelta
SP
Ġrevisit
ĠMarkus
ĠGoPro
Ġdin
othe
ĠIsles
Ġcorporation
book
ĠFont
YouTube
Ġ294
ĠDam
Ġreside
ĠGur
Ġdreadful
ĠSiege
andum
Ġinput
Ġmanagerial
Ġmargin
init
Ġabusers
610
Regarding
ĠROS
ĠMEP
ĠASS
ĠLLC
ĠBirthday
Ġmanufacture
ĠRevolution
istrate
Ġjewelry
Ġstudied
ĠArchae
Ġalike
ĠFrom
ĠCustomer
ĠDowntown
iesta
squ
ĠMARK
Ġclout
Ġemitting
Ġsculptures
ann
Ġsunscreen
Ġuncanny
ĠGy
ĠAbraham
Ġencouragement
ĠPatriarch
Ġceleb
Ġprohibited
ĠACL
ĠJefferson
Leon
orian
ĠDrop
Ġbetrayal
Ġpromoters
Ġprincip
Ġscoring
Ġrgb
Ġtailored
Ġexorc
¸
Ġinitiating
ĠCosby
Ġpetrol
Ġwere
Ġutilized
ĠStranger
ĠMaul
Ten
Ġ1901
ĠIo
)--
Ġfirepower
Ġcommons
hol
ĠLDL
ĠUncommon
Ġdictate
ĠMoor
Ġrhythms
ĠEv
ĠTherefore
Ġentrepreneur
Ġquo
ĠLance
Ġlegalization
Executive
Marg
ropolitan
flow
Ġ))
amy
ĠMormonism
ItemImage
ĠPEOPLE
Ġdumps
Ġcontin
orry
ĠIraq
820
ensibly
icit
Ġpermit
Ġshortened
mington
ĠKin
Ġannexed
IA
Half
iving
ĠTuls
ĠSummit
Ġii
Ġtoxins
Ġbuildings
Ġtea
Script
ĠSa
ĠEst
Ġflex
Ø¯
Ġtimid
ĠDre
Ġmodulation
Ġavoid
ĠCarolyn
Ġunhappy
Install
Ġfracking
ber
Ġtone
Ġcollide
ĠDeadline
OUR
undo
Wikipedia
ĠNASCAR
depend
ĠAlexis
ĠLF
Ġsway
Hen
Ġimproving
Ġholes
]]
ears
mir
Ġexp
Ġtempo
Ġshipment
issue
ĠGathering
Ġlaying
Ġconfig
Ġwor
Ġë
ĠVis
ace
swers
ĠCobra
Ġlured
ĠProhibition
inic
Ġhis
veh
friend
Ġachievement
ester
NR
ĠCathy
Ġreproduce
Ġprovider
issors
Ġsausage
Ġexported
Ġrhetoric
Pick
inav
Ġdemise
Ġdreaded
comings
ĠSuperman
Ġparties
Ġfolks
Ġpurse
Ġcultures
rak
ĠPret
ĠEasy
Ġreplicate
ĠPercentage
Ġ1931
Ġeighty
Ġus
ARS
Ġbundled
Ġbapt
ĠSudan
Ġunavailable
Ġcommentators
iod
Ġscores
cing
Ġanalyzing
ertain
ĠDISTR
eks
Ġrun
cheat
Ġbooster
needs
ala
ĠDied
Ġmu
Aaron
Ġexplains
ĠSyrians
ĠWeekend
det
Ġfunny
Ġconcentrating
Ġambig
ikes
ML
Ġindisp
ãģ¨
Ġcoastal
ĠTables
wagen
ĠSUP
ournal
Ġtranscription
igent
eme
ĠFML
Ġrelationships
Ġdefending
iled
ĠRestaurant
vor
ĠHearing
ĠBuddha
Ġconcess
ĠE
ĠInnocent
ĠJoe
Ġapplicants
ĠChrys
Ġfleets
ĠDairy
Ġmil
Ġ1969
å¥³
erg
Ġshirts
Ġhandwritten
organisms
Sel
Ġcruising
Ġhawk
Ġprison
ker
yle
ĠFour
worthiness
Ġarisen
ĠAc
ĠSch
Ġbypass
ĠSUB
HAM
naires
lear
ĠScourge
Ġdescribes
Ġcaches
ĠProducts
Ġinteg
Ġ192
ĠSight
Ġprograms
ĠScream
Ġomit
uring
Ġconsortium
ĠHotel
Ġration
ĠLiu
Ġprecaution
Ġinnocence
Ġpositional
ĠAustralians
ĠDEL
ĠRita
Ġ202
Ġcomplaint
Ġcomedic
Ġframeworks
ĠProgramme
Ġempt
Ġprecincts
overty
ĠNX
Appearances
Ġdemocr
Ġfaster
Over
Ro
famous
ĠFreder
ĠUzbek
ĠBeaut
ĠAzerbaijan
ica
ĠWee
Ġgrade
Ġrecharge
Ġacquitted
pathy
Ġacidic
ĠSabres
678
ECH
Ġridic
ĠMei
ĠDDR
Ġnp
edient
Ġtrafficking
ĠEngineering
acer
Ang
effective
esson
ĠViv
Ġgeo
Ġ580
ĠLennon
haps
Ġvs
Ġordained
ĠTruman
int
rant
Ġsanct
Ġconvoluted
ĠCreat
ĠGAM
iel
Ġguarantees
Ġmasses
Ġsatisfaction
Ġvying
Ġenvelope
venth
ÑĤ
Ġelectrodes
igraph
Ġ768
Ġholster
Command
Ġxml
é¾į
ouver
Ġprovide
ĠBarbara
ĠLakes
Ġcotton
ĠAdministrator
Ġordinarily
door
ĠCenters
ĠFri
441
ĠMorph
ĠDM
udden
ĠIss
play
Ġincidental
knife
Document
ãĥ¼
ĠCluster
_
kh
ĠHar
nosis
viously
Ġbladder
044
Ġattractive
acher
Ġperform
ĠMVP
Ġestimates
Ġtra
etermin
REF
Once
idential
Ġgastrointestinal
Ġpurpose
Ġrooted
asia
uder
Ġamazing
ĠPanama
Ġ267
Mob
Ġadaptation
made
ron
Thanks
ĠSkills
Ġpregnancies
Ġbeasts
com
Ġallergic
atalie
Ġdilig
ild
Source
ĠHalloween
ĠQB
Ġstranger
ĠShot
Ġinduced
ĠOlympics
ĠKah
iping
ĠYES
agna
Ġseaf
Ġbellig
Ġbro
EX
699
ret
Ġalluded
Ġtracked
Red
Ġdarling
eva
Ġnonsense
ilda
ĠResearch
Ġportions
ĠCAT
Ġcones
Ġsails
ĠPact
Ukraine
Consumer
2015
Ġva
Ġmobil
ask
ettle
aus
hello
ĠYs
ormon
Ġgotten
Ġbask
Ġdelivered
ĠRecommended
ream
Ġmarriage
addock
Ġtenancy
bnb
Ġminerals
Ġmessing
211
oried
ĠRothschild
Ġdeduct
Ġdebt
Ġrefer
ppe
ION
ĠDroid
SAY
Ġheard
Ġamid
ĠLink
Ġmountainous
vered
ĠRO
Ġdrastically
ĠGaw
ĠSuit
ullah
ISTORY
Ġrh
Ġrecall
Ġdistributed
Ġbillionaire
Ġconfidentiality
Ġrespects
ourced
ĠGeorgian
Ġ747
ests
fer
Ġjokes
Ġdelight
Ġate
Ġscaven
Either
onomic
sworth
Ġdism
irtual
Ġchoir
Ġsatire
Occup
ãĥĨ
ĠChancellor
sound
Ġtraders
inance
ĠCJ
Ġthinly
ĠMarian
Ġcrushed
Ġ191
ument
roit
ĠAlways
kell
bara
Ġsole
regation
Ġthirds
ĠCA
OC
ĠPas
228
Ġmeta
Ġfacebook
links
pell
Ġpuppy
Ġdop
Ġhegemony
Ġingrained
Ġprotocols
rowth
DK
abeth
Ġdispensary
Ġallocate
Ġignoring
graph
Ġcrane
mans
oeuv
Ġrightfully
Agg
quick
Interested
Ġpreventing
quished
ė
chance
uked
etheus
Quest
Ġamulet
Okay
322
Ġquoting
Ġcryst
Ġparameters
Ġ("
ĠComic
ĠLauder
because
Ġg
aji
orce
Ġbarr
Ġdoses
ER
Ġceiling
Ġissue
Ġtransforming
ĠWAS
ĠExcel
episode
Security
ĠMathemat
gel
Ġrecommendations
Ġinverse
Ġrelocation
Ġhelp
ĠPuzz
Ġtelling
ĠPay
loading
Example
ount
Ġbrun
Ġpressed
ĠSpiel
Ġinterested
Ġflood
ĠFifa
context
enthal
ĠNord
rons
Ġbeware
ĠAfghan
Ġendeavour
Mail
ĠHi
ocracy
ĠBecause
Ġoption
Ġcrusade
Ġpresence
Ġsearching
ĠMinneapolis
Ġceasefire
ĠPeel
ATIONAL
Ġcustomizable
Ġfactories
ursor
hin
still
ĠGlas
ĠRat
Ind
Ġlad
Ġthroughput
ĠHau
alyst
Lost
ĠHawaiian
istant
Ġlinking
ĠVengeance
ĠEverett
ĠGOD
Ġteaspoon
yy
ĠexternalTo
ociated
ĠTrying
ĠEllis
Ġbet
ĠAgric
VOL
ĠPamela
ĠCrist
ĠSummary
ĠMcCarthy
258
Ġmonk
1900
ases
ĠJaw
ĠThief
ĠMuslim
Ġghetto
Ġsubmarine
osity
Ġconcluding
ĠTogether
ĠRecover
Ġincub
iosis
ĠACTION
Ġcomparative
ifix
._
Ġawaited
Ġzombies
":"","
ikk
Ġvested
Ġcareful
Ġfrantically
Ġ424
cade
Ġdelightful
ĠCNN
endars
Gordon
Ġdeclaring
arine
Ġdemonic
Ġ203
ĠRecipe
Morning
Elizabeth
Ġaster
rontal
absolute
Ġbra
Ġaccomplish
Hel
Ġdefective
Ġmessage
ide
Ġdisregard
Ġbedrock
Ġtraged
ĠLife
Ġintegers
ueless
Ġunexpectedly
Ġcultivated
rouch
population
igans
oby
ĠFry
ĠWE
Weather
ĠShy
otom
Ġattendees
ĠMI
Ġwont
Ġunable
Ġdescription
Ġsemester
Ġapologised
ĠShark
Ġsatisfied
istance
Ġpse
Ġairports
Ġcorro
Bec
ricane
Ġtwin
................................
Ġlicens
ĠSetFontSize
ĠDate
Ġsanitation
ĠJays
Ġcounters
1983
Ġdim
local
ayers
ĠBEL
ĠNero
RS
ĠTup
Handler
Ġhumane
Ġinvented
ĠMarch
casters
ĠFirm
Ġhormones
Ġunloaded
Ġ268
////////////////////////////////
istas
ulates
hra
Ġslog
Ġaur
ĠGenetics
Ġvaccinated
Ġnarrowing
ĠPere
alter
ĠFlam
Ġflavorful
Ġflu
ĠCrusade
ensional
Ġutilities
ameron
Ġmammoth
feature
Ġsyntax
ĠKre
ĠColts
osis
ĠMeasures
ĠPOLIT
ati
Ġval
Ġatt
Ã¡s
Ġseven
Ġshores
Ġdeduction
Ġ78
Ġresponders
Pass
ĠComics
Ġscratching
ĠStability
gray
ĠKhal
odied
è¯
Ġperpend
ĠCost
lo
Ġphysics
NT
Ġ"/
Ġcomposition
Ġpol
ĠJay
Ġpresidents
Ġsupra
Developer
alia
Ġshroud
Ġhars
Ġsarcast
Ġsince
ĠSeeds
ĠSloven
Ġclash
ĠParas
parse
picked
Ġpersistence
Ġoffended
Ġscraping
payers
Ġhusband
ua
idas
Ġâĸ
orb
match
Ġinj
Ġquantify
pu
ĠPastor
oren
Ġreconciliation
vine
medi
uthor
reck
ĠElves
ĠHeath
ĠEarn
ĠRegistered
ĠBOX
Gene
Ġcirculate
THIS
Ġtale
Ġadmon
Ġpirate
Ġsculpt
ouls
ĠUnlimited
abis
ictive
Ġsensations
Ġdeeds
Ġadapting
ĠDiamond
ĠPreferred
Ã¼r
Ġgovernor
Ġhighlights
Ġdiscrimination
SE
Ġdisplaying
ĠVert
Ġorganis
ĠEmir
Ġattract
Ġreiterate
cop
Ġscorn
ĠNeutral
511
Ġpersuasion
Ġanthropology
ĠBard
Jes
Gb
Ġphotons
Ġspecifics
ĠCa
Ò
Ġingredients
Ġreinforced
ĠColombian
Ġinfected
ating
Ġinstructional
Ġterminology
Ġgoto
ĠAngle
Search
capacity
Ġnegligence
ĠComponents
Ġgoodbye
ieg
ĠWilhelm
Ġfetch
ĠFarmers
ĠMcH
éĥ
ah
Ġsavior
ĠSheen
Ġcp
Ġsqueeze
Ġtelevised
Ġflower
PIN
jack
Ġresearching
Ġlast
ĠClement
alias
Ġimminent
Ġmanually
period
Ġ"+
hl
ĠBur
Ġsnapshot
iens
Ġharming
Ġvend
Ġlikes
arton
ĠKuro
ĠRecreation
ĠDP
ĠCarr
adish
×Ĳ
ĠLAT
meg
Ġspending
ĠInner
651
ĠIgnore
Ġapproximate
Ġscrewed
Ġbasketball
ĠFaculty
umenthal
Ġconfinement
cook
path
mosp
Ġemploys
ĠBalloon
rÃ©
umin
Ġembed
Ġcongress
Ġgenome
Ġbreakup
ĠBasketball
glers
ĠANG
ĠAtkinson
angan
ĠAnthony
ĠEconomics
Ġmitigate
Ġ(),
ĠIndependent
Ġlocking
Ġtamp
ĠAfterwards
robe
Ġfurious
Ġsubstitute
Ġpageant
ĠOctober
Ġreservation
asu
ĠFranken
Student
ĠGareth
Ġ27
ĠSupports
Ġpercussion
Em
ĠPelosi
Canadian
pecially
ĠTechnique
ANG
anasia
yeah
comments
ĠGained
59
ĠVIDE
ombo
ktop
aye
ĠTitans
Ġpals
Ġavenues
Ġrentals
Ġdispensaries
ĠOlympia
Set
Ġjudging
Ġfashionable
Ġlest
Ġfuture
âĢĭâĢĭ
ĠBagg
Ġgrouped
ĠArc
figured
Ġbanned
geist
ĠWealth
runner
onents
ĠCabin
Cond
Ġplat
Whereas
Ġdon
Release
ĠPrime
ĠPacks
Ġshuff
Ġ<-
Ġact
ocious
haul
Ġgiven
Ġpostal
ora
Ġamounts
Ġimagery
Ġvex
Ġarmour
Ġcruiser
ĠSounds
Ġtrapping
402
ĠGrimoire
Ġger
Ġbent
Ġabolition
ĠUb
Ġintimacy
Ġtesters
ĠVanessa
Ġcompanion
ĠTw
ĠOo
April
custom
ĠKul
ĠInstitutes
Ġnewborn
ĠCentre
ĠThird
Ð°
Ġbulky
Ġredes
Song
holders
315
Ġacet
Ġmobs
blem
isoft
Ġpiling
hyp
TAG
Netflix
Joshua
]).
Ġphantom
Ġrelentless
oku
gue
IGHT
ĠEvan
ĠMarty
Ġarrested
Ġdecon
Ġexhibit
ĠHOL
Ġinclination
ĠMuk
ĠMSI
Ġupstairs
âĢ¦
Ġstriker
yu
ĠStrategic
ict
ĠBieber
ixtape
ĠActivity
ĠAwoken
tip
ĠZah
ĠDynamic
ĠHuss
Ġ356
Ġaerospace
brush
icone
ocre
Reilly
ĠUltimate
Â·Â·
ĠVir
ifications
onom
Ġpaws
ĠDaily
gram
Ġlaund
camera
stage
ĠSunni
olla
ĠHamm
Ġ:
ĠIntegrity
record
ĠMuscle
Ġtraumatic
Ġsalt
ĠEquity
Ġ455
read
ĠSponge
\\\\\\\\
ĠJak
ANE
ĠMc
COR
Ġignor
ĠCruise
Rat
Ġsilenced
ĠLith
÷
ĠDig
676
uca
Ġdrill
Ġobsc
1977
ĠExpedition
From
rics
Ġexaggerated
Ġdrifting
hub
ETH
Ġplantations
ĠPlays
rued
ensen
mare
Ġleft
ĠCharl
latest
Ġ100
ĠShia
FLAG
ĠWide
paced
ĠWhit
Ġinvaluable
umers
Ġconsciously
Ġpunched
ĠCAP
Unfortunately
uries
ĠQuran
ĠOWN
Ġhumanoid
Ġperk
aling
Ġclones
duino
iler
etically
arrison
ĠAsian
ĠLiberals
ĠGoodell
osta
Ġpsi
Ġchosen
Ġprosecuted
ĠRudolph
Ġcynicism
617
Remove
ADE
ĠTheatre
Ġreinstated
Ġpersonal
ĠRogers
Ġmeals
Ġaveraging
Ġdough
ĠUniversal
ĠYas
Ġremember
ĠZam
Ġanonymously
Ġexits
Jason
gar
Ġruining
ONS
Ġunpleasant
Ġsent
Ġdevast
ĠDire
Tube
sql
Ġfused
ĠBott
Ġacknowledging
Ġ"%
Ġmenacing
Ġdeciding
ifted
uda
Ġmuseums
ournament
Ġhumble
Ġstatewide
Ġmassively
rieving
ĠLeadership
Ġ1888
Ġimb
ĠHampshire
ĠCorp
Com
Ġshown
iquid
icipated
Ġprov
Comm
SpaceEngineers
Ġstorytelling
Ġbrilliantly
YL
Ġcommittees
Ġtreatment
dem
Ġrebound
ĠPreston
ĠPublishing
Ġraged
adesh
Ġgateway
burgh
auna
;"
ries
Ġfitting
gie
Ġcurved
454
span
Ch
Ġnervously
Ġpredis
Roaming
ocument
Ġcry
Ġwoke
regnancy
Ġcripp
tag
itched
minist
osa
Ġshadowy
Dialogue
ĠFinal
Ġforward
wood
oc
Ġplaced
ĠAllied
Ġyielding
atos
ĠShaw
Ġflourishing
washing
Ġlord
-+-+
Allen
Ġrow
Ġpara
ĠProvince
Ġedit
Ġvile
compatible
Ġworkshop
NING
Ġ213
auto
Ġcis
Ġacknowledge
PRESS
Ġrec
Ġprocessed
ĠGrass
Ġoutlined
ĠExpend
ween
Ġkins
Ġbleeding
ĠBelfast
ĠFishing
Ġcustomization
ĠTTC
Ġmainline
Ġgravy
Ze
Ġang
Sen
Ġresultant
Ġingen
ĠPrivacy
oodle
reviewed
Question
Ġbystand
ĠCubs
Ġlif
Ġproviders
Ġli
Ġconnected
Ġroster
Ġerased
Ġreasonable
Ġhotly
ĠMilitary
OTT
Ġtakedown
Pros
Ġoath
ĠBett
ĠDouglas
arr
Carl
ĠPebble
OK
Ġdy
ĠSYSTEM
osterone
ãĥĩãĤ£
OOK
sword
Ġfairness
ĠTAMADRA
Ġsynth
ki
ĠBay
Ġthreads
cerpt
ĠArt
Ġelicit
Ġmetaphors
Ġwiki
ĠTau
Ġshowcasing
ĠEsther
aez
YR
ined
Ġdetained
Ġfrust
igure
InstoreAndOnline
tk
Sex
ĠGNOME
ĠVirtue
82
Ġey
ĠVirt
ĠHSBC
Ġvocabulary
Ġpolicemen
Ġdeferred
555
auga
Mur
Tan
ĠRough
ĠRussia
pass
ĠZh
ĠWer
emer
Ġaber
pine
td
ĠLabrador
esan
Ġmins
ĠSponsor
ĠMaver
ĠRep
Ġsoft
NA
Ġmarriages
ĠSach
roc
aii
RN
Prior
mid
Houston
ĠSanct
relation
Ġcharism
Ġdiscredit
Ġworking
kt
ĠMIT
ocking
ĠUse
Ġunheard
Ġattracted
planes
ĠAnglic
idium
wolves
oglu
nin
Ġmes
qq
Ġmund
Southern
ials
unknown
Ġassassins
Ġinfect
Ġhappening
que
cester
arger
Border
ĠAgriculture
ĠO
Ġcrimes
Ġappearances
ĠIntern
cript
Ġexcerpts
ĠSilva
Ġchained
Spell
ĠDrawn
Ġallow
Ġdefinitively
Ġ()
closed
Ġinappropriate
Ġcomb
phies
Ġdensity
ĠHayes
Spanish
!!!!!
Pattern
Ġfierce
Ġpounded
ĠGoldman
Ġtips
Blood
tube
Ġholistic
ĠSending
Ġtelesc
Ġhuman
Ġyouthful
ĠAbsent
Ġliv
ĠKiller
Ġestablish
hom
ĠCurious
Ġdatas
ahoo
Ġdivert
"?
Ġhotline
ĠPOST
Ġmedicinal
Ġjumper
ley
ĠTes
agle
ĠIf
ĠWarner
bats
ĠWarehouse
Q
ĠPlaying
ĠBav
ĠOcc
ĠExactly
charge
Around
umann
Ġinspected
Ġflourished
ĠUniv
Ġimpuls
ĠPSU
ĠEat
Ġillumination
Dutch
ook
ĠConf
003
Posts
Located
Ł
Ġcommunist
?'
ĠConway
ĠDew
ĠAtomic
ocused
Ïĥ
ĠTotem
ãĤĬ
ĠINFO
vernment
Ġ600
Ġcharismatic
inc
ĠBackground
erm
Ġlocally
faith
Ġvibe
math
Ġinitialize
ĠWall
ĠKelly
anks
isan
Ġide
Qaeda
Fast
ĠProgramming
Ġalienation
akespeare
Ġadvis
Ġsever
ĠNina
matched
sts
uddled
offic
lore
Ġepigen
ĠTransportation
time
ĠPartners
ĠLIM
Ġeconomical
Ġgland
iates
Tur
aeper
ĠHowever
Ġdisclosure
Ġinstrumental
Ġdetractors
iphate
ĠOval
ĠTu
ploy
mb
Ġduplicate
Ġeloqu
ĠLeft
Ġshootout
Ġranks
ĠFletcher
gas
Ġviewers
ĠSaw
Ġneutrality
Ġmentioned
aith
tle
sports
Ġhanged
red
Ġfamiliar
acity
Ġadopted
Ġbrightest
Ġtouring
ĠRIP
Ġedition
dependent
Ġchast
phas
ĠVIEW
Ġprofitable
311
ĠBUR
ĠHave
Ġdecay
eed
ĠSupplemental
ĠPATH
ĠRachel
Ġ291
outer
ĠTact
Ġbombings
ĠBundle
Ġunthinkable
orgetown
Ġevict
Ġcounterproductive
ĠAlternatively
jri
NI
ĠJulio
589
Ġsubur
Ġ1982
ĠIC
condition
Ġmapped
ĠSlot
ĠAccessories
Ġadministering
Ġonstage
Ġtechnologically
Ġresolve
IAL
Ġvag
ĵĺ
etc
Collection
ĠGrande
MIN
igl
Ġreliably
ĠSparks
uania
Ġoffshore
ãĤ§
Ġtrad
ĠTECH
ASHINGTON
biased
998
Ġtaps
182
Ġpassenger
Ġtermed
Ġconstituency
ĠManual
Ġpurchase
ĠRhodes
ĠProblem
ĠSwe
Ġyes
ĠCran
Ġmoot
Ġsheets
acies
Ġaccuser
Ġcontests
Ġoffence
Ġreprim
à¥
ĠTags
Ġmobilization
ref
Ġ980
Poor
Ġgraded
Ã°
href
Ġneuron
Companies
ĠAppearance
benefit
obbies
Ġregularly
ahi
mother
Ġâĸł
Ġ221
ig
Prop
Ġpanels
Ġcontemplation
ARR
Ġqui
Ġshredded
chwitz
ĠZerg
Ġboom
ĠBrittany
Ġmeant
grade
Ġvocals
Ġsoutheastern
Ġbreasts
Ġgets
Ġmanipulated
nik
Alternative
ĠFlesh
RESULTS
ĠIng
page
Ġcooler
internal
Ġgorge
Ġann
ilitarian
ally
Ġrepresentatives
ental
ä¸ī
Ġbridges
ĠMcGu
ĠSpeak
ĠMeadows
anie
ĠDen
Ġsteep
ĠCameron
ĠSor
Ġirregularities
build
Things
ricks
uction
Ġenqu
ĠJericho
olphin
methyl
collar
ĠThinking
Ġ([
Ġsessions
acking
Ġstarred
ĠClimate
uties
ĠKaw
ĠCalvin
ðŁĺ
Ġscaling
ĠTue
Ġcontended
inea
Ġgrossly
Virginia
Debug
Ġexpend
ĠAustria
ĠMaps
Ġreferrals
ĠPandora
EMS
ĠRandolph
Sup
Ġcrazy
ĠSNP
ĠSuzuki
ĠDraft
Ġdrums
Ġfrustrations
Ġlocating
Ġse
Ġbrowsers
Ġsector
Ġsketches
Ġshifting
iOS
EN
Ġnonpartisan
Ġinsistence
Ġcompositions
ĠSwedish
Ġfisher
Ġ232
ÙĦ
Ġstrokes
oxide
Ġchores
Ġimpractical
ARP
aley
March
111
Ġlaughed
Ġworse
Ġsup
bird
Ġfisheries
ĠHero
Ġnarratives
ortunate
Ġintelligence
Ġoverlap
Ġrescuing
Ġdisorder
ptroller
Enable
MS
ĠFrenchman
reasonable
Ġtouchscreen
ĠEd
ms
ropolis
replace
ĠWindows
ĠPanzer
ĠEvangel
Ġ970
ĠHicks
533
OAD
Ã¢
Ti
ĠHA
ĠFlor
Ġimpecc
ometown
VIDEO
cules
Ġcommission
Ġmoderate
Ġ280
Ġdistort
ĠFrequency
daily
æ°
Ġtmp
574
Ė
ĠDie
Ġinference
Ġconspicuous
ĠEVER
ĠLenin
Ġapprehension
Ġamp
Ġpromoter
Ġpesticide
gger
Ġstripping
Order
ipolar
Ġpedest
CHECK
ĠReal
Ġdivid
Ġfame
ĠMarshall
Ġsubp
Ġroses
ĠMoreno
SHIP
Ġpin
wash
ĠBo
Ġjs
ĠTales
Ġwounds
front
Ġoverweight
Ġetched
ĠIPCC
hus
ĠGreenland
awed
Ġpsy
ĠGeorgetown
ĠUnle
Ġmosaic
Ē
ens
ĠImplementation
ĠNumber
Ġexplain
extreme
Ġwithdrawals
ĠRevel
ĠALEC
Ġnorthwestern
ĠFAA
;;
ÃĥÃĤ
Ġcardiac
Category
ĠFors
Ġvanity
!"
ĠUE
ractions
Ġmonitored
Ġcorresponding
ĠSUV
ĠStories
Ġmediation
ĠSkinner
utra
Ġrejects
rounded
ĠKeeper
Ġsummarize
ĠWicked
Brew
RNA
Ġbutterflies
ĠCHO
Ġresilience
Ġ166
ĠCher
Cop
ourge
Ġdepartments
nance
ijing
ĠThur
Ġque
syn
Ġcommunicates
Ġ225
Ġparaph
Ġduring
Ġelapsed
wrap
outube
ze
ilst
Ġapostle
Ġexclusively
ĠMits
ĠCrusader
Ġhyd
Ġ325
ĠAster
Hart
stadt
Ġally
Ġbias
ĠVermont
APP
ĠGabe
ĠAdelaide
Ġabound
ĠCGI
ĠHein
Ġbridge
ĠMÃ¼
Ġquarantine
Ġanch
Server
itable
ĠArchbishop
Ġwre
Ġappropriation
Ġwall
Ġphen
ĠInsurance
ĠShannon
ĠRobotics
Downloadha
Ġcompeting
."[
"[
]}
Ġunstable
ĠKaplan
Ġinacc
é¾įåĸļå£«
Ġband
Ġvigil
Had
coal
Ġgentlemen
Ġdisp
Ġanalogue
Ġcircuit
vertis
ington
Ġequity
ĠSA
aldehyde
Ġmarginally
ĠDrawing
Ġmoderator
ĠAlthough
agraph
environment
Ġgangs
ĠSaunders
Ġ1890
aggressive
ĠAQ
Mos
ouple
Ġmedieval
Ġintern
Ġdental
Ġow
Ġexpresses
Ġplague
Ġclosest
Ġprivileges
Ġcleaner
Ġfoot
ĠLv
ategic
96
Ġns
Ġlarge
t
hr
ĠiOS
erer
ĠRoc
Ġenvironmentalists
ath
Ġlegs
Ġrefrain
ĠDeck
comes
ĠClosing
UG
category
combat
2011
esteem
In
erton
ĠDarling
Ġinconsistent
Ġmerry
Ġbig
ĠDek
ĠSie
Ġindustrial
abby
587
Ġsurfaces
Ġreassured
Ġbetray
send
Analysis
ĠDinosaur
ĠPrinted
vg
Interview
ĠReflex
Ġlabelled
riad
Ġ)]
Ġgir
Ġupstream
idges
Ġtrop
ĠCM
Ġimplementation
Lo
ĠTh
rology
Ġhurled
ĠCharleston
dig
]),
Ġalters
Ġlog
Ġportion
ĠNEWS
ĠDustin
Ġconspiring
Ġclicking
names
Ġcouncillors
Ġgoverns
Ġearthquakes
Ġeconomic
ensor
ricted
Ġbeg
Seven
Ġrecip
ĸļå£«
Ġmatrix
âĶģ
oman
Ġsurveyed
ĠVarg
Ġbreeze
Phones
ãĥŃ
Filename
ĠDeluxe
shop
ĠBaltic
Ġlaunchers
sh
ĠPhotograph
Â´
Ġfreak
Ġmechanically
Ġreunited
requently
sylvania
Available
Ġsuffix
ĠRou
165
Sort
Ġfruition
Ġover
wer
ĠCous
"'
ĠSAP
Ġmanner
Ġrooms
Ġskillet
rain
Ġimpoverished
uctions
ĠPound
Ġunden
Ġputs
PO
ĠCanon
fill
Ġwoven
ĠIon
ĠArtists
Ġmistakenly
332
Ġdifficulty
ĠGalactic
Fred
Ġ295
izontal
ĠConsulting
SK
ĠMonth
econom
Ġrapidly
Ko
Ġ1990
Ġ2004
Ġeffective
ĠAssad
cycles
ungle
otrop
ĠEag
Ġseconds
tx
Ġdisillusion
ĠFi
sighted
Ġdrones
ĠTransparency
agonists
Move
Ġprow
Ġcurb
ative
aya
Ġsuscept
ĠÙ
Ġsts
Ġpackage
ĠATM
Ġstri
ippi
Alert
Ġcars
ands
Ġbids
Ġscripted
Ġshoved
iration
hedral
ĠArtifact
ĠPatt
ĠWitness
ĠDowns
Ġbride
rawdownload
Ġlibraries
cern
ĠTaiwan
Ġbest
ĠInst
çĦ
ĠRumble
ĠElon
ÅĤ
ĠHEAD
ĠCao
Ġattempts
ĠMor
ĠHyundai
Ġmetropolitan
Ġrays
ruary
Yesterday
ĠViol
Ð¾
Ġperpetually
Ġremem
aepernick
Christmas
ĠTurk
'd
ĠCarrier
Ġ......
Ġend
urtles
bole
Ġsemic
ĠGar
Ġdisappointed
tub
ĠTurning
Ġneighboring
Ġhostilities
Ġminiature
Ġpetitioner
ĠHPV
ĠONLY
Ġskysc
ĠASIC
ãĥį
bel
Ġbroadcaster
Ġrefreshed
Ġbee
ethyst
ĠCooke
ĠAleppo
Ġleader
ĠBengal
Ġthrowing
Ġgenerous
Ġsolvent
ĠExperiment
Ġdiscouraged
Ġmanual
ĠChandra
Ġcoff
uyomi
ĠUP
Ġexpands
ĠSiem
Ġneoliberal
OR
ĠInstagram
Ġreinforces
Ġampl
illin
ĠMurd
804
Ġirrig
IFIC
Hours
Ġvictorious
ĠGraphic
,,,,,,,,
Ġdepartures
ĠChromebook
ĠLily
ĠGallagher
Ġsuperf
Ġjungle
Ġfalls
Ġexacerbated
ĠHist
Ġ252
Ġairliner
ornia
Ġdenotes
Ġinvestigative
Ġrobotic
orset
Ren
Ġcoup
Ġdefeats
Ġ196
Ġbeneficiaries
ĠDefenders
Ġwob
âĸĴ
vernight
Ġof
Ġhelicopter
Ġmysterious
ĠEC
ano
ĠTem
Ġquotes
Ġstatutory
ĠDot
Ġunderwent
Ġcreature
Ġdispos
Ġswelling
vant
uu
alking
Ġinward
ieved
ousand
Ġembryo
ĠNV
Ġwhatever
ĠDi
Ġinstallation
Ġshelves
Ġgenes
Ġmisses
ĠSUM
Ġpredictably
RECT
á¹
fing
ĠAvengers
ĠBooks
Sem
ĠConfiguration
Ġconcessions
rac
Ġaudi
674
ĠMisty
ĠRebel
åĨ
ĠAssessment
afety
leep
ested
./
ĠValent
Ġpaed
ĠGreeks
Ġtraveler
Ġdictators
Ġaffirmative
Ġunison
Ġambush
ĠMind
Ġexposures
';
ĠAnonymous
Ġ335
ĠMonroe
Actually
Ġstating
pta
ĠDue
orough
ĠJudicial
Î½
ĠAerial
farm
ĠSheridan
Tuesday
ĠClaims
Ġavoids
ĠAnth
Ġcapsules
Ġcloning
Ġpracticed
erb
Ġmurdered
ĠFF
akespe
Ġsep
Ġcheers
Ġoccupations
Below
Ġspiked
ÑĢ
intelligence
KA
ĠSubway
worldly
resent
Find
Ġevangelicals
Ġoutlet
ĠLexington
Reference
è¦
Ġsl
ĠThunderbolt
ttp
Ġmusic
hest
oki
ĠEnt
ĠParticip
itutes
Ġ236
ĠAbyssal
onic
ĠItaly
Ġdiscovers
cat
Ġimprove
ĠBIG
Ġalleging
ĠLynd
ĠMilwaukee
ĠVide
Ġwatershed
Ġcrown
ĠMexicans
tn
Ġwithdrew
BLIC
inventory
ĠFairfax
Ġqueue
399
Ġbustling
Ġsweetness
Ġinfrared
anto
ĠImport
ĠAlibaba
imsy
Ġ<@
65
cases
Ġ\(
Ġwrestlers
Ġ1865
Ġseriousness
mails
Ġarchaeological
Emb
Ġcommissioner
Lt
Ġsexual
Ġfo
fried
tail
ĠAke
Ġlistening
Ġfew
ĠZhang
Ġspreadsheet
Ġanonym
Ġarranging
Ġ355
Discover
apache
ĠDemonic
ù
Ġtrainer
ĠMoney
122
Ġgarage
atin
Ġhypertension
ĠFreddy
Ġbraces
IU
Ġrein
ĠSark
itely
ouble
ĠCaptain
Ġrises
even
ĠGraduate
is
Ġvoluntary
Ġperpetrators
fulness
agin
Ġparse
Ġreturns
ospital
"!
cms
Flying
ĠJake
Attempt
25
Ġkindness
âķĲ
ĠShant
riter
Render
urai
Ġunderstandably
ĠMargaret
overed
ĠLic
Along
Ġmedical
Ġmete
ĠAstro
CLUD
Ġbeat
ICT
../
hall
Ġlets
Ġfarther
Ġsacrificed
Ġdevastated
Increased
rx
ĠWednesday
ĠPE
Ġtowering
ovic
Ġscriptures
ĠTheNitrome
ĠGuards
Polit
Ġsees
sers
Ġmorale
ĠParticipants
Will
Dialog
posed
ruciating
ny
Ġconduct
Ġballpark
ĠBene
ĠThoughts
ĠDai
Ġcove
ĠGrac
pload
Ġstated
Ġbirds
Ġzones
Ġschooling
gz
ĠPatel
Ġatom
ĠOutput
ismo
Par
Ġborrowing
Ġdepos
ĠTER
Ġhazard
ĠTears
Ġpredictive
ĠArist
amphetamine
nton
Ġadherents
ãĥ´ãĤ¡
ĠSpecialist
Ġferal
uvian
Ġnortheast
0010
Settings
Ġchewing
Ġmilestones
Ġsax
Ġnominating
gru
STEM
Ġthesis
156
ĠNintendo
Six
Ġslander
ĠDRAG
ĠArcane
ĠNIC
Ġnude
714
ĠKarin
*/
Ok
structed
hani
Ġhig
ĠNotting
ENS
Ġouting
ounding
Ġbloc
89
omet
mon
ĠYaz
213
library
Sher
Ġintermedi
tab
Ġunique
ĠMolly
Ġstockp
ĠMID
ceed
Ġpiracy
Man
AIR
ĠSchn
Pin
Attempts
Ġhumorous
Ġpowerless
Ġcredibility
Ġovercrowd
ĠLatest
ĠGraves
Ġard
meaning
ĠEVs
Ġvolume
ĠWeekly
Ġ1973
enos
Ġdomain
Ã
Ġunite
Ġintegrates
Ġregist
Ġliberation
Ġdeclining
ĠHang
ĠFacilities
Child
Ġuh
Ġrelease
ieth
ocene
Ġinsurg
Ġalbums
Ġpotassium
cast
Ġstakeholders
ĠTucson
Ġpriesthood
Ġinvestigate
"âĢĶ
Ġcampaigner
786
Ġstreng
Ġraises
âĹ
II
ĠPlanned
ĠHomer
Ġwestern
Ġreinvest
Ġbaff
Ġprick
Veh
0002
osate
ĠCarlo
Ġresid
ĠNA
ĠMurder
Ġstorage
Ġban
Ġinvites
ĠAccount
initely
met
Save
860
ĠNUM
Ġpony
ĠTarg
Ġclo
ĠApril
ĠSax
200000
ĠClara
rise
ĠZar
atech
Ġsquee
ĠDarwin
SC
Ġemployers
ĠHarbor
ĠRush
Ġdispar
raining
ĠReconstruction
Twenty
ĠDisco
ĠMcKenna
Ġdefenders
Ġincorporates
Ġleap
summary
Performance
wing
anny
ĠTuc
cler
ĠIris
robat
Warning
Pan
ĠLD
ERG
otto
ĠBritt
ĠGold
Ġwillpower
rodu
ĠBruce
Ġinfluenced
ĠLamp
ĠKro
Ġjourney
Ġanalytical
Ġdyed
ĠPartnership
Ġrestoration
Ġvoluntarily
Blue
equal
ĠPT
apers
020
ĠBF
ushi
ĠSigma
ĠAi
Ġcomplexities
Jump
ĠCustom
Ġ1861
ĠAcc
Ġoptimizing
Ġblessed
river
Ġ<<
Ġpalpable
Ġrebuilt
ĠMatthew
porate
lishes
Ġjournalist
ĠUndead
isSpecialOrderable
Ġspinach
attle
alky
ference
Ġ224
ĠKash
ĠEVEN
ulpt
bur
ular
Ġwr
Ġaer
ĠUSPS
Basically
Ġprotester
itect
Ġpil
ĠDeals
limited
Hal
ĠFren
omic
ĠSlater
ĠIntellectual
ĠUFOs
Ġwit
Ġinternally
Ġtransit
QB
ĠMarg
579
((
Ġsoutheast
icultural
ĠMasquerade
Ġcontinuing
Ġcollect
Ī
Ġpizza
lez
Ġnutshell
Ġ2007
Ġammunition
ĠFixed
IGN
Ġ373
Ġmating
Ġpresumptive
ĠOS
isu
ĠXie
efficient
nation
Studio
achusetts
obo
ets
Ġmanifests
Ġoverrun
ĠNeph
ĠLua
ĠKernel
TIT
estyles
ĠCatholic
terness
itialized
Ġpropag
Show
unsigned
Ġ1921
WIND
reys
Ġsideline
uru
ozyg
Ġoutlets
times
ĠAlabama
ĠHelena
Ġbike
ĠAnthrop
Ġbrokerage
ĠFebruary
nu
Ġantib
Ġ396
Ġbillion
Ġfallout
Professor
023
ĠAer
plain
aken
Ġbaths
Ġpaint
Ġ(?,
Ġrappers
Ġconfidential
elled
zza
ĠWarrior
669
Ġdrawings
ĠTyph
UB
define
lves
Ġplays
Twitter
ĠOg
Ġcardboard
ĠPer
Ġdreaming
Ġexpedition
ateur
Ġpept
Ġcontrovers
Bu
Sp
ĠCycl
Ġonce
Ġ3
Ġexpectation
Ã©t
oto
Ġwedge
Ġwelfare
Ġramps
Ġindependents
Ġsimilarities
Ġqueer
Ġpeg
Ġhamm
Ġrecollection
East
Ġwounded
imum
Clar
ĠMattis
ĠMonstrous
Ġdiplomat
Ġ1908
659
ĠAttribution
Construct
ĠRacial
ĠSheila
Ġreimburse
ĠPhysics
ĠFlare
Updated
Cole
ĠLanding
Ġrack
Ġmolten
LV
Ġoutline
mortem
ĠBudget
Enjoy
Ġfeet
Ġsync
Ġdelivering
ĠCoat
ĠBak
Ġillegal
ĠWerewolf
ĠPlatinum
``
Ġbean
Gh
Ġinitiatives
ner
Ġsymbol
Ġscratch
Ġsubmitted
iable
Ġdownward
stration
verting
Rocket
styles
ĠIndustry
ĠCorey
prefix
ĠKirby
Jen
eman
Ã¯ve
ikarp
Ġsuspend
ĠCastle
Ġoccasionally
uckles
ĠSOL
tracking
VIEW
Ġpancreat
Ġmileage
ICS
Ġflirt
Ġrepressive
issues
atinum
Public
EFF
Ġdrought
Ġfide
ĠTurn
ills
Ġcrammed
Ġreport
ĠEssentially
NM
ĠAndre
Mic
Ġreleasing
Ġimplications
ĠHunter
ped
ĠGol
sold
ampa
Ġcombatants
é
ĠGender
assic
Ġprofessional
ĠCeltic
ĠDodd
Ġcd
kHz
cul
ĠAus
Ġdiscont
Ġxp
izoph
Ġnested
Ġpersecut
ĠPvP
Ty
ĠPilot
Ġindex
minster
ĠProfessor
Ġonslaught
ware
ĠMedic
rupal
MG
Ġeru
Ġ209
Grab
Ġendogenous
ĠMalone
colo
hawk
Ġoz
dra
ĠVaugh
Ġexceeds
ifling
Ġjackets
Ġes
ĠFrancis
quiet
anski
ī
ĠEUR
ĠBuffett
iety
Ġoutcome
Ġpays
Ġsoap
Ġelephants
ĠPaste
rem
ERS
Ġunidentified
cientious
tenance
Ġ--------
ĠRak
çĲ
Ġdusk
677
Ġ\(\
ĠQUEST
604
Ġrenovations
007
Ġsubscribers
ĠAcer
Because
Ġunwillingness
Ġ********************************
ĠKnox
ĠYates
Ġparach
SUP
Ġnuclear
iss
HA
sequ
Ġnanop
Ġpause
Ġdarkened
ĠTeachers
Ġgrinning
ĠBeatles
Ñĥ
Gay
Ġbrands
ĠEast
Ġcounteract
Paper
Ġscheduled
idae
ĠMiz
Ġprematurely
ĠHyp
Ġnerds
ĠComes
IENT
Ġcolours
Ġboredom
ĠInvestigators
Ġhighlight
Ġclashed
ĠFriedman
Ġsolitary
Ġundertaken
Ġclan
Ġwhich
Ġrespondents
Ġretro
Ġhopping
Ġsuspension
ĠOre
Ġethnicity
ĠOb
MK
wk
Ġhighs
Sport
ĠDid
opa
Ġdistortion
656
ĠLIMITED
Ġadjunct
Ġ670
Ġanalogous
LAB
Ġbadly
ĠPlace
ĠLegendary
Ġfrankly
ĠSpears
552
Export
Ġlayer
Ġtearing
ĠSEM
Ġfourth
ĠNancy
Ġjihadists
ĠHis
Ġjumping
go
umb
Ġenabling
filled
ĠCousins
cca
turned
Ġnarcotics
Ġlistens
Ġoverall
Ġcompulsory
positive
Ġtint
ĠProcessor
ĠResearchers
ĠStev
ĠPersia
Ġcf
().
ãĥķ
colm
ĠNET
Ġ69
Ġerected
ĠNetanyahu
Ġghost
Seriously
Ġproc
ĠChimera
ĠRasmussen
aphael
ĠJeremiah
ĠTrans
Ġnano
Autom
Ã±a
ĠOB
ĠPowered
Ġsuppress
reverse
Ġbelonging
Excellent
1978
ĠVictoria
ascript
Ġparanoid
Ġrobes
Ġgoddamn
Ġplanting
ĠCookie
ĠJUSTICE
ĠRabb
Ġnonprofits
enic
Ġsimplistic
inately
ĠPhar
ĠEclipse
ĠDOS
Ġconnect
Ġacquisition
Ġends
Ġrocked
itution
ĠBet
Iraq
ĠBernard
ĠJean
ĠAOL
Ġdouble
Ġtoddler
ĠConc
Ġfighters
ĠTher
ohn
Ġconceivable
Ġbill
Most
Ġstepping
Ġbusinesses
onia
ĠIndo
Ġweb
Ġinduction
ĠSenator
ĠCor
org
uchin
ĠMichele
Ġcontractors
Ġbun
bro
Ġdistinguished
Ġ419
ĠScott
Ġembr
ĠTW
Ġenrich
ĠCONTROL
itions
ĠAllaah
Ġacquiring
ĠLinda
Ġmissile
ids
McC
Ġchopping
Agent
Ġscr
Ġwires
æĪ
ãĤ¯
Ġlooph
Ġinsulting
Ġblueprint
Ġdied
ĠNatalie
conf
Ġthermal
sha
Ġna
Ġjaw
ĠMAD
ukes
Ġrecounts
Ġdrag
ĠMaintenance
ĠAthen
ĠABV
forth
ĠCLS
Flag
>>>>
ĠSanta
ĠDemon
ORY
Ġexceptionally
ystem
President
Ġprest
Ġrumored
ĠLSU
Ġprefer
ĠKyr
ĠXan
aunder
Ġglitter
atio
Ġflip
Ġ59
Ġadvant
Ġowl
Ġ((
Exit
/*
onna
Upon
Ġstocks
asive
778
piracy
Ġassassinated
ĠAbel
Ġintroductory
ãĤ°
Ġimportant
ĠAlps
Ġnostalgia
ĠFul
ĠCoup
leave
Ġshrug
Ġbenefiting
Ġdisruption
Ġauthentication
ĠBrah
Ġzo
REC
'.
Ġstripes
ulative
ords
Ġmaze
Moreover
Ġ42
AMP
ãĥ¤
ĠHus
ĠHavana
jit
Ġvector
ccoli
ayan
qua
Ġconstituent
\.
Ġlavish
Stop
olen
Ġanarchists
atibility
ĠFas
ĠCalm
ĠRidge
Ġoptimizations
rescent
ceptive
Ġtaxp
Property
wordpress
Ġamplitude
ĠFalcon
Ġoverhe
menu
abetic
ĠNC
ĠInternational
Ġsexism
generated
>,
Ġinadvertently
EC
ĠWTO
Ġdragon
ĠMethodist
ord
Ġprotects
294
hov
Ġreporting
ĠDerby
ĠTroy
athan
telling
Ġrep
ĠMedicare
ĠWoody
Lou
args
":{"
Ġjurisdictions
itiz
reating
Ġbarbaric
:,
Ġreluctant
Walker
ě
ĠHate
Charlie
etic
Ġrecipe
Ġfragmentation
oppers
ĠFiorina
Ġadmits
Ġbeam
Ġadmirable
Ġgenomes
ignore
ĠRath
ustomed
Ġmisrepresent
EMOTE
Ġspends
Ġpartnered
ĠT
aced
mine
Ġslaughter
ĠWorks
Ġraft
utterstock
Ġrift
ĠPract
Ġ159
Wild
Ġsaddle
Ġexec
parents
Ġapprentice
ingu
ĠCanaveral
rip
anty
Ni
ANK
Ġesc
etch
ĠLegislation
Know
Baby
Ġbrowser
eg
icester
pread
ĠPen
eanor
Ġconstructor
Ġspend
ĠPatty
Safe
igion
ila
Ġpremium
450
ĠSIG
Ġgraft
ĠSter
Ġrenters
Ġseizures
ĠGhosts
ĠguiIcon
Ġharvesting
ĠConver
Graham
ĠBhar
Ġgin
Ġtriumphant
ĠController
Offline
Adult
Uncommon
ixon
Ġmicrophones
Liverpool
Ġcatapult
writ
Ġmoaning
NRS
ĠWorse
ĠCasting
HOME
Ġunpop
ĠBel
Ġtrigger
ĠÙĪ
ĠAmir
ĠMou
Ġmashed
ty
Ġawa
scape
utical
raw
Ġenhanced
ĠAme
Ġrub
Ġpolish
ATES
Ġblocker
iership
Ġcolleagues
Ġracks
Ca
ĠXi
Ġworkout
sized
OSS
incre
eries
Ġ1953
Ġcrises
vind
tri
630
ĠSpot
Ġadapters
Ġprohibits
ÃŃn
Ġaux
Ġadmiration
displayText
Meta
ĠValerie
Ġemergencies
outheast
ĠKw
ĠLTE
ĠMixed
agree
scope
ota
Ġencompass
ĠExpo
Ġmonsters
ĠDad
zzy
Ġmell
ugar
Ġovershadow
ĠDwarf
ĠRussians
Sphere
Ġorche
Controller
Ġregistry
ĠGray
Ġparticipated
ĠWatts
Ġdisadvantage
Ġweeds
ĠProsecut
hhhh
Ġbenign
ĠDresden
Ġintermediate
itas
ĠDirk
ĠGard
nr
Ġnarrowly
Ġmar
agged
Pacific
Keys
UN
Ġemphasized
Ġcounties
Ġkale
phant
mobi
Ġmisguided
rings
ĠYah
ĠContra
dyl
Ġbanter
ĠBat
Ġdaunting
ĠZe
Ġboiling
ocy
ĠSitting
Ġoffices
Middle
acers
man
icating
Ġsocially
Ġprofiles
Council
1997
files
Ġviruses
ĠINS
oenix
Ġnons
Stew
checks
Ġult
Invest
Ġbets
Ġsettlements
double
AI
player
ĠArchitecture
690
ĠFor
Ġrenders
Elf
Ġcolony
ampions
af
Trend
ĠMining
strong
Ġthou
Ġarchaic
ĠTurks
Pocket
imen
Ġwiped
278
ĠPump
Pope
696
eree
chard
ĠTA
ĠEarlier
Ġstealth
Ġappointment
oyd
%:
sup
ĠRazor
Ġprotect
reaching
Ġbeaut
Deal
Ġlease
Ġconducts
Ġsophistication
Ġpen
uclear
ĠSpartan
Ġlatent
Ġresisted
Ġobligatory
ĠGundam
ĠTitle
Ġpro
Ġlover
aunted
L
Ã©s
Ġplun
ĠFuck
Ġvictories
Ġrely
Ġserial
ĠOlivier
Ġgraduated
BILITIES
Compan
itated
Ġ208
Ġshelf
ĠMcDonnell
Tech
ĠSequ
Ġloft
ĠTheft
ĠSpiegel
face
ĠTaking
Ġ__
Ġdisreg
ĠSk
Ġdropping
ĠFive
Ġ77
ĠTory
Ġreality
Ġboosted
ĠMeg
Ġ-
production
aten
placed
continental
ĠUpdate
Ġminister
Ġentitled
Ġsiph
Ġbiomark
Ġunbeat
Ġdelusion
ittee
Ġlend
ĠZeus
Ġ},
Ġchops
ĠKas
Ġfake
avering
ĠCW
Ġapi
ä»£
Ġdivided
leys
Ġtraditional
Ġshaking
Ġphilosophical
Ġasthma
ĠTrave
Tree
blind
ĠCinnamon
lev
Ġincentiv
Ġcompounded
ald
amps
check
385
Software
ĠRally
iddy
Ĝ
Ġgeographic
traditional
Ġlens
Ġunrealistic
arez
Ġdecisively
Ġfirewall
ģ
Ġeclips
Ġbasics
ĠHeck
Ġpainstaking
ĠAlmighty
Ġemulation
Ġenrolled
Ġattaching
Ġeve
Ġpower
ĠShap
akery
Ġneur
Ġformidable
Ġremote
Line
Ġdemographics
Ġresc
ĠWol
Ġexplaining
Ġtribal
Ġhandy
Ġhang
inct
Ġsurgeons
ĠSatellite
Ġunfor
Ġofficer
Ġpip
Ġsticking
SW
Ġstalled
Ġmurders
financial
ĠKeane
ĠDayton
Ġdependent
ĠAlter
Mess
ĠARE
ĠNurse
IRT
Ġpredictor
Ġowes
Ġmicroscope
Ġcigar
arer
ĠOp
Ġnoticeable
ifer
ppelin
ĠWindsor
ĠFB
alid
ĠGeh
oslav
Ġmornings
Ġrespondent
Hyd
cup
plugins
ĠRiders
Ġdenies
Ġsweeps
Ġsale
weight
ĠPF
95
ĠFallon
owan
195
ĠYou
ĠClyde
Ġcombustion
vana
ĠNov
****************
KT
Ġneurotrans
itzerland
ĠAmmunition
Ġspills
ĠFrenzy
ĠCompanies
NER
ĠConquer
ĠGoods
inks
Ġpurposes
ĠIslands
Ġentangled
prem
ĠHan
hung
Ġmode
Ġmammalian
IE
925
Ġfavourable
activation
pool
ĠAdvertisement
Clear
ĠAsh
ĠEmployees
ersen
ĠIreland
ARM
ĠDrain
ied
ĠKling
ĠSlowly
Change
Ġ----------------------------------------------------------------
Recently
Notice
Ġrivals
Ġblowing
Ġconsulted
Ġdealt
ĠFTA
ĠPAR
orthodox
ĠâĹ
='
ĠLes
Ġreviewed
ifies
ĠTong
Ġtow
Ġa
Ġfulfilling
Ġcough
Ġenlarge
Ġenorm
Ġstack
Ġpinpoint
result
lems
?????-
ĠPoc
Ġdiverse
These
Ġpasture
Ġshow
âĢ¦"
Ġworldview
TO
ĠMary
ĠLif
metic
Ġsteam
cycle
ĠFULL
Ġmerged
ĠLeading
Ġobserver
opus
Ġcompassion
Ġcheeks
ĠDexterity
ĠAnxiety
Ġdirectories
ĠGS
Ġcopying
Date
õ
test
Ġdumb
orneys
ĠEternity
Ġ=
Ġforgotten
Ġinduct
Ġstrikers
enment
aun
Ġcontemplated
Ĵ
fleet
Ġsquats
USS
Ġrubber
ĠMult
xi
ĠChat
apeshifter
à©
elect
Ġdiscussions
ĠCroat
nam
emption
Ġunlikely
Ġzinc
ĠComet
Ġpayroll
enda
Ġteaser
Ãł
Haw
Ġcorresponds
Forest
Ġmarines
ĠGhostbusters
ĠNordic
Ġshut
Ġhardships
alach
ĠPubMed
Marginal
åī
pri
ĠRafael
Ġ11
ĠIb
ntil
":""},{"
ĠFather
Ġupgrading
ospons
ĠStrongh
Ġgenre
ĠNicotine
Ġturnover
umber
h
ulp
ĠBurnett
ĠRAW
ĠDC
ĠOtto
5
Ġfreezing
Ġintersections
Ġsome
ĠTooth
ĠSkin
Ġfalling
Ġapartheid
arios
Ġexclus
Ġmiscarriage
POL
Ġcleansing
peak
ĠPenny
Ġrotation
Ġ31
ĠDonation
645
ãĢĮ
ombat
ĠLONG
Sax
ĠAccept
Ġconfiscated
perhaps
lost
Ġabbrevi
rapnel
iably
estinal
fters
ĠPau
Ġcommentator
Ġdiesel
proc
URES
for
Ta
map
Ġadept
Ġexecutive
Ġmanifested
ĠÂŃ
ĠTY
entry
Ġcontam
mma
Ġintervening
©¶æ
Ġstress
packed
Ġkindly
WHAT
itÃ©
ĠCary
illo
Ġ"_
Ġgovernors
shore
Ġunhealthy
Ġstems
Ġ1941
Ġathleticism
Ġbroken
Ġroar
igm
ĠRes
))
Russell
Ġcondem
Ġlearn
broad
ĠLatter
Ġtravel
Ĕ
Ġverbs
ĠDuke
ICE
Ġseating
ap
Ġmoves
Med
Ġgreet
Ġrespiratory
Ġfacto
Ġballistic
sels
UES
Ġpeppers
ĠUsage
stant
ĠEle
Ġintertw
Ġsq
filter
ĠMercy
Ġmentions
Ġappropriate
Ġiodine
Ġ38
Ġblasphemy
Ġsupply
Ġblue
ĠIntent
r
Great
Ġfoolish
Ġmigr
ĠFUCK
cession
ĠDim
Ġrese
inant
Ġiter
ocese
Ġjournal
Modern
SAM
ĠWhitman
Ġrelief
Ġdescribing
ĠBraun
Ġ15
Ġ48
Ġcommented
BY
Ġintimidated
amber
Ġdozen
ĠArabic
Ġbrunch
auts
Ġcolors
ĠCatalyst
inning
GA
Ġcalculator
Ġachieved
ĠSeth
Ġhateful
Ġpinned
Ġvaginal
eling
ter
Ġaunt
Ġunbeaten
photos
hattan
Ġac
DIS
Wal
Ġusb
Gre
ĠCensus
RES
ĠPes
Login
Ġcompromising
Ġethics
ĠHarrington
Ġcompleted
Ġtear
python
Ġwellness
Ġleftover
ĠShinra
USB
Ġinfections
lb
ometime
ĠLI
Ġlib
Ġfeat
Ġspeed
Ġtraff
eming
Ġleans
523
ĠSupported
Ġirritated
Ġba
perial
Ġeligible
Ġword
ĠHz
Ġindustry
plug
itations
ĠDrew
Ġsalvation
Ġfodder
ĠExxon
ping
Ġsustaining
Ġcommanded
ĠShad
ULE
STON
Ġspawn
Ġgentle
uggle
ĠMd
angling
ĠBale
Series
leen
Ġschemes
Ġbuffer
ĠFlore
instead
Ġvalue
ACH
Ġwoes
Ġmunicip
ĠJenna
ĠEntity
omsky
Ġclimbed
Ġconstruct
ĠCOMP
Ġdaily
Ġrequired
Ġsim
Ġcontinuation
jandro
remember
Chip
Weak
ided
top
velength
Ġ1979
Ġanxious
shirt
hunt
icient
Fri
Ġdomin
ĠATT
widget
ãģª
ĠLi
Ġresume
Ġgrievances
ĠScientific
Ġchau
ĠRepresentative
mits
ĠWe
ĠVent
Ġgrading
ĠElephant
Ġdetectives
ĠBangl
Ġastroph
Ġcontroversial
Ġshowdown
ĠIsle
verett
ĠDelete
Ġparsed
Ġworthwhile
Ġelectric
Ġmotivational
©¶æ¥µ
drug
Ġhealthcare
Ġlane
Ġreactions
Ġ28
Ġcommit
Ġhybrid
Ġmicrophone
outing
ĠVeteran
Ġtorch
ĠDollars
Ġcontain
Ġdirected
Ġmall
ĠFloor
Ġpirates
erva
Ġbury
Ġcentralized
Ġuptake
Ġ1280
fall
ĠAstral
bs
ĠApps
ĠOnline
Ġaspirations
ĠAnchorage
ded
ĠChains
oned
ĠLarge
Ġflights
Ġbarracks
ĠRebirth
Recomm
centered
Ġbadge
Ġalias
Ġfootnote
ĠAnime
?????
Next
Ġhand
ĠReader
ĠIP
White
Ġoriginated
Ġunfolding
otent
Ġgrowers
ĠLauderdale
ĠTerritories
ĠcafÃ©
ĠHann
ĠTwice
OTS
append
ĠPetition
thank
ĠNinja
enger
Books
Ġsuccumb
Load
Jackson
Ġlocalization
founded
212
Ġsixteen
ĠIce
Ġworks
Ġwaive
Ġdeductible
ĠSabha
FontSize
Fresh
ĠParticipant
ISC
Ġorganization
Ġ02
ht
ĠToggle
Folder
Ġunless
ash
Ġcarbohydrates
583
onian
orney
Ġsample
prev
Ġgrey
501
shit
Ġinteraction
ousel
ĠRebels
705
chanted
Pretty
able
orsche
èĢħ
Ġfoliage
ĠSunder
ations
Ġvulnerability
Ġpursuing
åį
rozen
Ġthwarted
artifacts
Ġdelayed
ĠVoice
anted
arde
Ġbast
Associated
303
Ġcollusion
Ġsupporter
irez
ĠCertainly
148
Disc
won
Ġdude
ĠBuc
Ġpredatory
Thirty
Ġremedies
monitor
Ġfelon
tree
ğ
Ġreferred
Ġexcitement
Ġpod
ĠConspiracy
aged
Phone
Ġdemocratic
Ðµ
ĠHispanic
Ġelastic
Bird
owned
ued
Ġmodeling
ĠSpectrum
Ġwives
peg
jing
asio
Ġ141
ĠFriendly
ĠChocobo
ĠMitt
Ġcure
ĠBain
Imp
Ġbund
Ġenthusi
Ġcoron
ITT
ĠRefugees
Ġguarantee
Ġantidote
Ġde
ĠPew
Del
ĠSD
Ġwage
612
omed
Setup
Zip
Ġrape
ĠSharma
Ġinnocent
ĠRemote
Ġprefers
Ġdemocrat
Ġaddicts
IFT
ommod
ĠWorldwide
Ġwidened
cean
ĠDar
Ġbutton
pur
ĠPle
ĠGCC
ĠPe
ĠCLASS
Ġdiscriminated
atra
Ġthro
ATING
Andrew
ĠMcCain
ĠRange
Simply
Ġperspective
Ġcou
ĠSutherland
Ġstemmed
ud
ĠBennett
Ġspan
Ġregret
Ġstint
ĠAreas
ĠRogue
ĠFramework
ĠBob
Ġroles
ĠVia
Ġmarketers
Ir
Ġmenstrual
ĠIps
Ġreminded
ĠGuy
late
ĠSab
Within
ĠPrincipal
ĠAug
sted
Kat
Ġ392
minute
Ġresonance
ĠSpecific
terrorist
Ġcenterpiece
ĠPaw
Marx
Ġinspir
cha
cles
Ġaviation
ĠContent
Considering
Ġstreams
åĤ
Ġenergetic
Ġrepublic
Ġassist
Ġupheld
Ġshrugged
Ġcomplex
ĠRegarding
ec
Ġaltitude
Ġeffectively
ĠBrill
Ġpalms
Ġprintln
Ġexcavation
Ġadvances
ĠHowell
Ġauthoritative
Ġproposition
Ġcharts
ĠId
Ġaverages
reve
Ġdome
Lat
Ġlift
ĠUnified
Ġdoors
Ġfinishing
Ġportraying
Ġvetted
state
ĠElk
ĠSe
Ġ364
Ġvanquished
387
angu
Ġantioxidants
skin
Ġbreathed
Ġpotions
********************************
ĠWarranty
Ġyak
ĠLau
ĠCorrespond
Ġsurge
lighting
Perhaps
micro
itably
Ġperpetrator
ĠRunning
Ġoper
Ġpave
ternity
ublished
oan
Ġcompilation
tainment
Ġproperties
Ġassociations
prone
ĠExtract
Ġ[];
ĠShanahan
Ġphotographed
bie
ĠPark
Ġtapped
Ġgrandmother
ĠRedskins
ĠJacqu
Ġautonomy
HTTP
ĠHELP
ĠDusk
ĠEff
herry
Ġqualified
Ġmatter
Ġheading
ĠDead
ellery
¬¼
tex
dream
Ġmessages
ĠCliff
iment
ĠOffline
ĠWhole
Ġvouchers
Ġnotions
Ġfeather
ĠHY
oÄŁan
ĠPharma
Ġscreamed
Ġcolumn
Jones
į
pert
Ġretrieved
layer
ĠPassion
Ġfolds
Instance
0200
Ġshapes
,'
1080
dk
Ġchromosomes
Ġsecurity
Dispatch
ĠWar
icol
Ġdevelop
ĠExpress
STE
ĠLibertarian
vim
ĠEp
Ġtwilight
ĠCrimes
restrial
Ġ(+
Ġdissidents
adult
air
Decre
ICAN
ĠFranch
Ġindoor
03
ĠRadeon
ĠWyatt
Ġstemming
dress
Ġgradually
Ġtown
hyd
Brain
Ġoffend
ĠEther
Ġrefugee
="
Sold
Diff
Characters
Cont
ĠHaram
ĠBarn
Mike
ĠAbram
el
Ġacademy
ĠImp
ĠDani
fat
Ġinjected
Ġsupervisor
Conf
ĠOU
Ġbegg
pton
ĠSlip
Ġexpended
Ġrefinement
num
Previous
ĠRadius
ilater
Ġorientation
Ġrepairing
Ġcrimson
ĠTelecommunications
Ġabandoned
Ġlightning
ĠSoc
Premium
effect
ĠSources
meta
>]
Ġcontem
ĠFernand
Ġongoing
Ġinjuring
Ġbarrels
Ġbuggy
Ġinsist
Ġthought
Ġhypocrisy
ĠSpecies
ĠCl
Ġmaintaining
imeters
Ġenchanted
wcs
Ġpossibly
ĠUl
ĠCancel
Ġcoveted
ĠRamp
EU
arov
gars
Ġstra
Ġwinters
ĠCo
Desk
ĠWriters
Ġ1925
"],
Ġmale
iber
451
pring
Ġsoftened
Ġupdates
Ġsuppression
ĠBBC
ĠPakistan
ĠSuperintendent
ĠFiji
Sleep
âĢ¦âĢ¦âĢ¦âĢ¦
Ġvowed
Ġprototype
stores
Ġscoff
Monster
mom
Prep
typ
ĠRazer
Tre
Ġdemolished
Amazon
Ġfundamentalist
charg
ĠQin
Ġsports
ĠAlong
ĠFirearms
Ġlistener
Mp
Task
Ġrepeat
Ġcommonplace
ceptor
Ġlungs
Ġupbringing
ĠLucia
ç
Nor
Ġballot
cloth
acteria
Ġadopting
oad
Ġtagging
Ġperpetuate
Copyright
Ġvisualization
ĠElf
ĠKart
Ġaccording
Ġdisability
ban
Ġrevoked
Ġproliferation
Ġmodifications
ĠRED
Ġsimpl
ĠPLAY
Ġmined
Ġsimulator
ĠPolaris
ĠVul
ĠLIC
Ġneglect
Ġdont
rg
boats
Dog
ĠArmageddon
you
:
ĠScore
Ġpropelled
Ġmilitias
ĠZap
Ġthree
ĠVERS
ãĤĭ
ĠBarr
augh
beat
ĠReach
)(
Ġundergo
Read
Keep
Ġcrucial
Ġthoughtful
Ġnoon
Ġglance
ĠCorrectional
Ġnets
Ġpeach
achment
Ġdetails
Cele
lab
ĠFres
ĠSynt
Ġmismatch
uffed
Ġrainbow
ĠKarma
Ġadvert
ĠYourself
Ġarcade
UTC
Ġsuburbs
ĠSkip
quet
249
guns
ĠReplace
ventional
ridges
ĠSecure
!'"
ĠLuigi
ĠDrift
amph
Ġprec
Ġpubs
ĠGENERAL
èĥ
Ġ{}
jet
Ġecstasy
Ġ108
Ġhour
Ġvodka
ĠPix
world
undrum
message
Ġskip
Ġdarts
Ġeerie
ogged
çķ
Ġphenomenal
````
fetched
ĠPilgrim
Ġcautiously
Ton
Fr
ĠSUN
ĠAdults
compliance
Ġassistant
sheets
guide
ĠInstant
Ġlauded
ĠNash
Japan
OUS
redo
1024
Ġdecad
ardi
Ġinformal
ĠBenson
Ġburden
buquerque
Ġpins
âĸĪâĸĪâĸĪâĸĪ
ugg
pb
Ptr
Ġremain
charged
Ġ".
ĠBrooks
Ġconcede
Ġexce
ĠCPR
ĠPanasonic
ĠDri
ĠDelaware
ĠBuilt
dds
aux
ĠStru
abor
Ġcompete
ĠBian
Ġunfl
mite
ĠTex
ential
ositories
241
ĠTerrorism
ĠMinisters
ĠRoss
Ġincite
ĠILCS
om
Ġstoked
param
Ġpositives
Ġexhibitions
Ġlithium
Ġbloody
318
Ġsignifies
ARD
BIL
ĠTib
ĠSah
itance
ĠTwins
Ġ[+]
break
Ġable
Ġbrothers
Ġproceed
Ġretailer
ĠMatthews
Ġglasses
ĠHop
full
ĠPick
ĠClark
resses
Ġugly
waters
Ġvegetation
ĠBashar
ĠLA
ads
ologies
eon
ĠWins
ĠCrisis
ĠGomez
ĠSTA
ĠBol
Â£
ophe
utor
ĠGutierrez
Ġtraffickers
Ġboobs
Ġcogn
Ġhumidity
Ġidle
ĠRow
od
ANGE
yes
Ġimplements
Ġabundantly
odan
ĠLikes
Ġpartisans
uler
Ġmm
ombs
ĠPupp
Ġpsychopath
inoa
ĠKoran
suit
Ġfacilitated
Ġurban
sie
Ġstarts
ĠEmergency
ensed
âĢ³
Though
ĠComparison
Ġmarg
Ġpoking
obiles
addle
ĠIDE
324
ĠLuxem
habi
Ġairs
ĠNou
Ġstrengths
ĠLE
ĠYog
ĠGarrison
MAS
centric
Ġannoyance
Ġantibodies
Boost
fu
rupted
ĠReincarnated
Brook
ĠGregory
Ġscandals
iture
rosse
Ġdescendants
ĠAttacks
?]
ĠSOME
ĠModi
ĠKatie
ĠWard
Ġmaterials
Ġassessing
Ġrazor
Error
Ġ640
Ġsubter
holder
ĠSerial
pad
Ġwrongly
ibli
Ġmanufactures
Ġfootballer
oj
Ġheld
ĠTorn
ines
Ġ_
ĠWiki
Ġseeking
ĠAT
Ġmarketed
Ġindicates
Ġechoes
Ġsuspect
();
Ġobserved
Ġunfocused
Ġmillisec
foo
ĠWarrant
Ġsurvey
ĠElectronics
âĺĨ
Ġdevotion
ĠOlder
Ġsheltered
ening
Ġsecurely
Ġdetermining
blocks
Ġshortly
!?"
Tony
Ġprotracted
ctor
=\"
Ġfallacy
Ġsemif
Ġprogression
Ġnu
ĠUFO
Ġ301
Ġmargins
Ġpent
taker
ĠMick
ĠMax
gging
skinned
isal
Ġbackstage
ĠTrojan
Ġcaucus
Ġmissionary
Ġprobing
ĠIntelligence
Â®,
ĠCompleted
ĠThought
aroo
Ġsacrament
Ġhundred
ĠMaine
Ġvom
ĠStacy
Ġpard
SIZE
;;;;;;;;
Ġsouthern
Ġpercentile
Ġcontrace
ĠOVER
Ġhumor
Nevertheless
ometimes
ĠInv
Ġsens
ĠCS
ĠProtestant
Board
Ġapr
Mer
oll
an
Battle
Ġvertex
Ġout
Ġunravel
Ġpolar
ĠJOHN
ĠFrame
Ġsuffered
Ġasserting
Ġnotes
Ġhoney
ĠVarious
ĠClothing
fig
Ġbaseline
Ġecological
who
Ġcoffin
spoken
OCK
Ġrescued
pic
ĠPalin
ĠReps
util
Girls
ĠAad
Ġroaring
ĠEDT
ĠContainer
ĠRÃ©
Ġlaundering
Ġcurrently
etrical
ĠNiÃ±o
avoid
Ġslang
Ġ1000
Ġtrope
Ġrelegation
ople
Ġinvestig
ĠSH
Ġadded
Ġ162
KB
undle
lished
ĠChau
orient
ĠKaty
ĠDems
Enter
-+-+-+-+
Ġsubtle
auder
ĠLeafs
Ġants
Ġsom
oot
ITE
Ġgreatness
Ġpeeled
174
});
ĠTell
âĸ¬âĸ¬
Ġinfants
ĠReports
ĠTanner
ĠMirror
binding
Ġphilanthrop
dest
ĠSpecifications
Spread
ĠMate
Ġcritics
ĠCustomers
281
ĠWrit
Ġcloves
ĠBritain
Ġradar
Ġerror
Ġwelcoming
Ġflawless
Ġtrio
itar
ĠNOTE
ĠNato
Sean
Ġmum
Ġanybody
44
ĠArpaio
Ġpilot
rique
ĠComb
####
ĠStarting
Ġespionage
ĠGrail
Ġstimulation
Ġblunt
ulate
Ġnow
ĠSoutheast
Ġbuck
Ġcheated
Ġpoets
Ġperception
ĠScroll
Ġjugg
Ġaccrued
anus
owler
»Ĵ
Ġdiscrete
wa
Ġsurvivors
Ġvalues
ĠWester
Ġother
Ġsw
ĠEsp
Array
Ġchew
Ġplaque
upload
GUI
Ġsoldier
Ġinferred
ĠGamma
Writ
Ġreminder
Ġrigs
ĠTOR
uitous
oxy
Ġtagged
weapon
Ġi
Ġsi
ĠTurkish
Ġspew
ancouver
Cand
Ġunusual
Ġfinishes
ĠCursed
imag
Sund
Ġdepressed
Ġscatter
obi
ĠCosts
Nearly
Th
Ġleisure
Portland
ĠPublications
Ġarrog
Ġstout
udes
tern
ĠStri
Ġparticles
braska
inger
Ġears
Tools
']
www
Ġ234
ĠMethods
Ġtrivial
Ġinnings
Ġkindergarten
Ġweeks
Ġinfluence
ĠPath
chin
Tu
usted
Torrent
Ġlandscape
Ġhandshake
itle
ĠBulgar
ĠOregon
Ġcocoa
ĠNBC
one
Ġinstances
Ġfewer
Ġmidfield
Ġdumping
redients
oding
ĠCorrect
Ġvows
those
Ġweaknesses
Ġdistract
Ġpa
Ġdou
esis
Ġemperor
Ġhabits
ĠDiane
Ġfoll
ĠSN
uras
Ġvaccine
Ġgoblins
rib
Limit
retched
mes
Ġcontainers
appro
Ġthreatens
Ġbob
ĠSites
mA
Ġnewcom
externalActionCode
ĠCRA
ĠAmendment
ĠYue
oting
Ġ920
Ġsupplemented
Ġconfuse
ĠAbbey
ĠWilde
ĠPerl
Ġallocation
Otherwise
secution
rpm
hops
Ġreef
Ć
Extreme
Ġgrocer
ĠGSL
ĠVel
FINE
Ġfences
Ġbeaten
ĠQuality
FTWARE
ĠSto
Ġlace
ĠRX
ĠWCS
ause
Ġwandering
Ġblob
Ġletters
Ġannotations
ĠUniversities
ures
ĠEventually
little
âĻ¦
ĠDisc
Ġenvironment
Ġknit
¿
Ġabuse
NEW
Ġcommemorate
889
Changing
,'"
ĠHeroic
Ġforfeit
Ġdisapp
faced
Ġsins
Naturally
esh
ĠDale
ĠKM
Ġtighter
Ġ152
Ġgains
hesis
Ġsuggestive
Ġmodifying
Ġdesired
ĠDUP
Ġshovel
ĠSung
ĠSug
ob
ĠHawks
Ġ2030
abin
ĠSpokane
rea
cars
Ġcared
Ġsharper
folk
Ġnineteenth
ĠFlores
Cru
ĠIncreases
ĠMean
ĠGarn
ĠMars
thouse
UU
DAQ
Tes
Fans
Ġsafe
view
foreseen
ĠHorde
madeupword0002
ĠCumber
C
Ġentered
ĠAriel
Ġpiled
Ġunfamiliar
Brow
activ
Jenn
Ġ><
ĠCelsius
anking
Sunday
ĠBaseType
Ġantagonists
Ġsings
ĠLL
Ġpositive
53
offs
rol
ELS
osh
military
Ġgranite
ĠStrange
ressive
ĠChanging
olas
Ġcounselor
Ġplaces
Ġheroes
ĠHands
Ġsummer
Ġvigorously
Ġendorsing
Ġcrumble
ĠIBM
Ġsubstantial
Ġcosmetic
Ġbrew
HF
Ġpies
Ġresh
Ġsuspicious
Ġfurther
Ġs
ĠFav
ĠOh
Ġspeaks
ĠRoots
athe
Ġjealousy
Ġmotorcycle
Ġpatriarchy
ĠPKK
icago
Ġcomic
Ġpagan
ighter
Bs
Ġoverl
Ġmythology
collect
ĠFoundation
ĠHu
Factor
Ġblocks
Ġafloat
Ġintroduction
rawled
FA
Ġsettlement
ĠVictory
009
altern
Jeremy
Ġnorth
Ġfavourite
ĠHour
Ġ501
ibus
Ġlapse
oya
Ġsynergy
limits
Ġillustrating
ĠEqual
ĠTorrent
Ġlibertarians
ĠGolem
ĠPretty
Ãĥ
ights
Ġslogan
Ġsac
Ġexplor
ĠBarber
lasting
ĠOF
ĠVenus
described
Ġplurality
Ġushered
ip
Ġsurplus
ĠLoki
remove
ĠUnderground
Ġrepression
Ġtackling
ĠMatte
Leary
lopp
Ġrc
radius
ĠBattery
Ġillum
ĠProvided
ĠBluetooth
!),
Ġboycott
Ġpuff
Ġ306
Ġanterior
Ġcorridors
ooo
ĠOCD
ĠDetroit
Ġmesh
ĠNuclear
ĠQuin
Ġunmarried
Ġverification
Ġtestim
1973
Ġchurch
Ġelegant
ĠCorsair
mop
Ġfeeling
¶æ
Ġowner
Ġmurderer
orical
Ġnor
ĠLeonard
Ġwhipping
ĠFound
idal
onest
ĠNF
ĠSituation
Green
ĠCommun
Ġclouds
ĠAirbnb
onyms
Ġplay
ÂłÂłÂłÂłÂłÂłÂłÂł
Ġrode
ĠQU
affer
Ġretaliation
abilities
ams
Ġimpose
Ġcowboy
Ġatheist
Ġsubsystem
ON
ulz
Ġscrut
Commission
ĠStellar
682
ĠTan
ĠCosponsors
redibly
stay
ĠStudies
Hit
ĠNow
iba
Ġaccusing
Digital
irty
ĠThunder
747
Ġafforded
ĠDevil
abama
Ġillegitimate
ĠALS
ĠPrep
aucus
ĠBuzz
Ġpooled
Points
Ġback
ĠCommunities
Ġconfrontation
ĠSound
Ġbrakes
ĠSidney
RT
')
ĠPair
ĠBrand
rolled
013
Ġblamed
ĠValley
Ġforeseeable
Ġtattoos
Dist
ramid
vard
Ġrival
killer
Ġfools
Ġpuck
Ġfault
ĠâĢĶ
ĠRW
LE
TY
Ġlikelihood
356
Ġfuse
Ġsol
------
Inc
Mat
ĕ
wcsstore
ĠGad
Ġgrams
crow
ĠOriginally
Ġsn
ĠCow
riel
Mex
cosystem
Ġcurrency
Ġmercenaries
ĠYam
iard
Ġshrimp
ĠProud
Ġexemption
Ġunn
Ġlate
Ġcheesy
ĠVendor
Ġrail
Ġblades
whelming
Ä
ĠHelen
Ġsworn
ĠEnrique
industrial
%;
ĠTradable
Ġcontinuity
Ġmids
ĠDaddy
untarily
ĠMystic
ĠAlbany
Ġgrieving
Ġdocumenting
Ġcousin
un
Ġlucky
urance
ĠAless
Anth
Ġscared
olor
Frames
imi
Ġwallpaper
edit
Ġflat
der
Ġmeaningful
ĠRadiation
Ġtackled
ĠMAN
ĠBurton
Ġnavy
Ġrows
Ġfunding
Ġ~
kan
321
ĠTsukuyomi
tm
Ġperce
ĠAntarctic
umm
Ġwildly
ĠKru
Ó
ĠTire
ated
ĠBorough
ender
ĠRescue
Ġty
Ġhumming
ĠDef
Ġexcluded
ĠVand
Ġchromosome
LIN
Ġquarters
Ġpious
Ġsection
Ġdues
Ġdeficiency
Ġcrypto
Ġoutper
ĠNarc
ĠThom
ĠWed
ĠScarborough
Ġdisposed
ĠTriumph
ĠSeattle
Ġsnap
PB
ĠJavaScript
Hist
though
ĠRight
.......
Ġsevent
Ġlargest
ĠPlague
Ġflaming
Cross
orts
ZE
Ġtimelines
Ġbon
Ġdisappoint
kamp
Open
ä½
ĠMyanmar
Ġhousing
Ġmorally
ĠHappy
Ġsummon
Ġtipped
Ġtaxpayers
AMA
Ġassuming
ĠForest
ĠSomewhere
Ġshifts
ĠBears
Ġunfounded
Ġcake
husband
Ġconsensual
Ġlaunch
ĠNetherlands
borough
plan
ĠYork
ĠDominic
vil
ĠPeak
ĠWerner
auri
aque
Ġquarry
anne
Ġeverywhere
ĠFel
versely
Ġshocked
Ġrider
!!!
ADA
370
bt
Ġstarters
roman
ĠReleases
ð
ĠTheory
ld
UK
ĠUSDA
goal
Ġpresupp
Ġearn
ĠPCs
Ġ217
assault
Ġpant
ĠHollywood
Ġpromoted
ĠArri
ĠEDIT
Ġtorpedo
Ġdoubts
Ġweeping
quin
ĠVC
Ġimplementations
ĠOL
Ġdisappearance
Ġlean
Ġattendants
Ġventured
Ġpi
Texas
Ġsocioeconomic
436
ĠCosmos
Ġceased
orescence
Ġhandling
Ġprelim
Ġoversees
Ġtomato
opted
Ġcompares
Ġjoystick
lucent
Ġaccompanies
ĠCivic
Ġmandated
ĠFisheries
ĠCredit
ĠBucks
Ġwaging
ĠPeter
sett
Ġathletics
ĠDoomsday
ĠOrigin
ione
Ġpuzz
ÂłÂłÂłÂłÂłÂłÂłÂłÂłÂłÂłÂłÂłÂłÂłÂł
Ġlecturer
Ġuncond
ĠReloaded
Ġsmartphone
Dear
Ġinterrupted
Ġchocolate
oder
Ġwielded
ĠPDF
dfx
ascal
Ġlaced
rame
Ġignored
Ġhonored
Ġ298
ubs
UTERS
engineering
ĠAo
Ġlongevity
inem
ĠMaster
Ġprior
Ġpainted
Ġlofty
Ġsocieties
Ġselves
misc
enzie
Rew
arus
Tex
pour
ĠIcelandic
Ġseat
ĠYankees
Ġidols
ĠSchneider
erous
ghazi
lines
ussed
Ġrelie
Ġsands
Ġwaterfall
Ġastronomer
Ġgallon
usal
artist
Ġdisagreements
ĠReality
Ġrusher
onson
Ġastronomical
Ġdisgruntled
Ġreversing
Ġcourtroom
Ġdisturbed
Ġeyeb
oreal
CC
ĠPortsmouth
Ġletter
Ġstunning
Ġcontroversy
ĠNATO
ĠQueens
olicited
uin
Ġcruel
aucuses
Ġcanine
ĠReported
Ġoverdue
ĠTavern
olan
Ġawhile
Ġoneself
ĠPyrrha
ĠDepot
çļĦ
stock
ãĤ®
Ġrain
INA
Ġworsh
Ġinexpl
ĠChung
ĠWHEN
Ġabsorption
ln
arella
Ġinterfered
ĠVictorian
swer
Ġobstacles
Ġdamages
Ġchap
Ġcal
Ġshowcases
lamm
Ġdesigned
Grand
ĠPerformance
ĠJal
ĠBrief
WW
Santa
ĠRain
Ġ480
Ġcages
izza
Ġtransl
008
isitions
Ġplutonium
Ġconfusion
Ġregions
Ġwrap
Ġentertaining
ĠEven
ĠRen
Ġtaxis
ĠGreenwich
aden
ĠRamsay
Paris
ĠWii
Ġheartbeat
Ġstabilization
Ġdictionary
Ġheel
ĠSolid
ILS
otomy
rament
Ġnobles
Ġrobber
Ġadvisory
Ġproceeding
ĠSexual
ĠBio
Used
Ġboss
Ġwet
chool
Ġpractice
ering
heat
Ġleased
Ġfeared
ĠLois
ĠBib
oner
Ġpsychiatry
death
Ġhull
Ġaffordable
ĠRESP
ĠDartmouth
ĠDealer
ĠCognitive
çī
ĠMain
Ġcontra
ĠSoros
Ġinqu
Ġtir
Ġcatchy
ĠShakespeare
Ġhugs
Ġintense
ĠSteele
Ġdistractions
Ġincorrectly
ĠSonny
usterity
Ġhealthy
Ġnearly
ĠSummers
nav
Ġdarkest
ĠCaldwell
Ġkil
Ġviol
Ġdividends
Ġ1998
Ġmonster
Ġfiction
Se
Ġburdens
Ġcider
boxes
Ġsignal
Ġassembly
orah
Ġmixing
Ġtorture
Ġregiment
ols
iour
Ġstarve
Ġthri
Station
etsy
ĠExile
imedia
-[
esi
ducers
ĠMonte
Ġartificially
Ġproxy
ĠEuras
Gun
Psych
Ġneigh
Ġuncom
Ġtx
ĠBenefits
received
Ġidentifiable
din
Ġsubsistence
ĠApostles
Ġaug
Ġcomparison
ining
Ġ1954
ĠBalk
ĠSpec
ĠBarrier
Ĩ
them
Ġsil
ĠWolver
izzle
nington
Ġfanatic
iao
Ġbears
ĠApollo
BIT
Ġtanks
ĠDE
Ġsaint
ventus
ĠBout
ogie
Ġgradient
Ġfps
Ġcyber
Ġrebuke
Ġvarying
utm
Serial
Ġappalled
Strong
Ġ197
ĠMalfoy
Ġartif
fml
ĠLeilan
adden
pol
dec
Sin
Ġcoalition
Ġsituations
ĠStam
ERA
%,
Ġlies
2019
Ġpersonalized
Ġalternatively
Ġethical
ĠLastly
iamond
Ġarmed
Ġimpressive
Ġtransc
Ġfacing
Ġtravers
Ġhappiest
Ġrepeatedly
WASHINGTON
Top
gross
ĠFired
Ġbelief
walking
ĠSodium
iqueness
/(
Ġmigrants
:]
Ġoffered
that
Ġbreathe
Ġpomp
wings
Ġpledges
ĠBake
ĠComed
796
Ġcomparing
adapt
Near
arm
Ġ169
Ġassaults
oulder
All
Ġrudimentary
Ġbrist
Ġton
gered
ĠRaz
UCT
Ġcoffee
Ġpronunciation
Ġrecommends
Ġdetailed
enged
fork
Ġfifth
ĠShanghai
×ŀ
Ġfunction
ĠVideo
Ġrenal
Ġdesk
Ġescort
Ġaudiences
ĠNorton
ĠGuinea
Ġheavy
ĠICE
Ġlaboratory
Ġgran
ĠAutomatic
Ġrepeating
ĠMatrix
ĠReg
Ġinvited
rika
Ġexam
ĠChap
rentice
Iss
irc
Ġsuc
ĠJohannes
ĠMC
pixel
Ġmindset
ADS
pack
cf
illa
ĠMob
Ġivory
Ġleukemia
given
ISA
Ġblock
Ġomnip
ĠRedd
Ġhorror
priv
ĠAudio
476
clave
Ġresent
Ġphenomena
Ġastounding
ĠOffice
ĠDavies
Free
Ġfaithful
Ġmosquitoes
Ġveteran
806
raged
Ġought
Ġfavorably
Ġlined
ynam
Ġgoalt
ĠSaur
Ġthug
ĠPokÃ©
,
Length
Ġoccurred
Ġkissed
Ġburst
âĢ¦âĢ¦
ĠWhats
Ġpersuaded
ĠMiranda
Ġcinnamon
ĠLazarus
ĠSatanic
--------------------
Ġparsing
ĠMont
listed
freedom
Ġprocedural
yles
prof
Ġhybrids
relations
ĠFW
Ġwithheld
ourcing
Ġbadass
Ġqueens
Ut
ĠForeign
ĠHills
Ġstraw
ĠBO
Pl
ariat
pt
lla
Ġbarely
Ġdisappear
ographer
Ġcoils
Ġshouting
Ġtolerance
orting
Wed
Ġradiation
Ġesteemed
Ġunwittingly
Ġtall
Ġcommend
atican
ĠIch
dll
Ċ
ĠCerberus
ĠALWAYS
Ġconserve
Ġattacking
Ġlawyers
Ġhaving
ĠKh
64
Ġdeities
unda
Ġaggreg
Music
Ready
addons
Ġmango
æ©Ł
ĠClaim
Abyss
ĠRodney
Ġplugin
Ġ282
ĠMP
Evidence
xml
ĠLime
Capital
ĠAlloy
3
Ġbright
More
ĠCannabis
ĠFerr
ĠMun
ationally
LR
sky
ĠMonarch
ĠEzra
Ġoffense
Ġdominates
Ġnesting
clusively
Did
ament
Ġsomewhere
ĠRegist
iasis
ĠDK
Ġlicking
Ġtouting
ĠLiberia
ĠA
Ġfostering
Ġsecretaries
Ġunsur
iever
ĠCarib
mic
Ġfrontier
vez
orig
roversial
Prim
trade
Ġpools
ĠAmp
Ġ177
Ġastronomy
Ġmail
inated
ĠSophia
Ġpurported
ĠInstruction
.'
OIL
ned
Ġpollen
ĠPreview
Kh
elong
Ġvirgin
Ġrodent
gan
Ġoverr
ĠLiam
Ġsignings
clamation
644
Ġjan
bred
ulent
akens
aron
zek
Ġunderscores
ĠUlt
238
VID
ound
ĠMour
Ġspirited
ĠChu
alg
Ġfireworks
Effects
Ġt
Leader
Ġvict
Ġsturdy
Ġdirections
another
Ġfret
likely
Ġembryos
Care
Ġpuberty
Ġtraction
ĠBinding
uran
ĠNormally
Ġvirginity
Buff
ĠCube
Ġ255
Ġclimax
Ġaffiliation
ĠRational
Ġhr
Impro
Ġweap
viation
OUN
inally
nz
Union
367
ĠLaw
Ġimpe
pei
Ġbreaking
Ġpunitive
abling
xp
ĠCond
Ġclinics
432
ĠMalt
ĠSelect
icult
Ġprimary
Through
bil
Ġfile
then
Ġsustainable
rek
ĠTWO
Ġcavern
ĠFaces
Ġcommunion
ĠFellowship
where
ĠCreating
ĠSuddenly
Ġnpm
case
elsen
Ġmotors
Learning
ĠCol
Ġcosting
ĠGithub
Sit
Ġgad
Ġpreseason
boa
NC
Ġregardless
Ġdestroying
ammu
Ġcoconut
ĠBark
Ġmeme
ĠKits
astic
raine
Ġcounterfeit
Ġcode
Ġgas
Moon
Ġravaged
wal
friends
commit
crypt
total
Ġacc
essa
Ġwaits
Ġatheism
310
ĠIcon
bell
Ġwitness
Ġlyric
wy
ĠScale
Voice
Ġinvaded
ĠCand
Ġendorse
pun
asing
ĠGree
Kar
ĠFeet
1986
Ġbrowsing
ripp
Ġign
Ġhors
Ġmaize
vice
Exc
cdn
âĶ
Enh
<<
Ġiso
aimon
Ġunderstandable
Ġ(/
Ġpsyche
rev
Ġcarp
Ġscroll
schild
Ġ\"
Drug
çīĪ
hillary
Ġthereby
âĸĪ
Ġexpense
Ġindistinguishable
ure
warm
Ġallegations
Ġwhom
Ġdisputed
ĠFALSE
ĠFat
love
fe
Ġfundra
Ġstealing
Ġso
Community
are
kes
Ġexchange
Ġsuperintendent
ĠBritann
ĠYOUR
ĠMund
ĠKlingon
Ġinfluential
Ġsubscript
ãĤ±
Ġdivers
loc
nat
UV
Ġtomb
accessible
ĠBonus
Oak
ĠBayer
operation
lift
Ġcorrectness
cox
byn
Ġtennis
Ġimpulse
REL
Ġdevelopments
Return
475
ĠMack
Ġaggrav
ĠCDs
flight
ĠHermione
Ġsuburban
Ġofficial
abet
Ġmuse
ĠDo
endale
animate
188
NV
Ġcomedy
ĠGuatemala
ĠAmpl
Ġemphasize
Understanding
ption
Christopher
ĠManchester
Ġsusceptibility
Ġjourneys
Ġsingle
ĠAlan
ĠDHS
ĠLeon
Ġsourced
Ġrefining
Ġmonet
Ġinconsistency
ikini
ĠSho
akuya
ĠParkway
dit
Deb
Ġtou
ĠAtom
IAN
ĠBlaster
ĠSke
Ġseemed
ĠAshton
ĠDive
ĠRape
ĠLuna
Ġignorant
adies
Ġhooks
ayette
Ġanymore
Ġracer
Ġmisled
Ġrob
Ġmolecule
ennis
Ġsmartest
Feed
ĠKer
ĠHerald
Ġilluminating
ographic
ĠKra
Ġconsiderable
Ġcompiled
ĠSunny
wart
ĠZot
ĠIcar
Ġphilos
ĠAlone
Ġrenovation
Ġsqor
Ġexperiences
Ġhitters
ĠMiddles
acterial
elfare
riots
ĠWeinstein
ĠSack
ĠFoster
Ġjustice
brain
ĠIndia
ributed
Ġ115
Ġconversation
Ġbesides
ĠNG
Ġreveal
ĠModer
ĠNieto
essage
ĠImam
Ġ57
ĠNug
Ġ309
ĠCamel
Ġ262
cand
ĠIO
Ġcharact
opsy
ĠTele
utions
Ġconnector
Ġredistribution
ĠClair
atars
ĠTess
acting
Ġleast
ĠMaking
ĠIvan
Ġimplying
ricia
060
ĠCourtney
audi
autions
loads
Ġste
Mem
tracks
ĠAge
Ġcarts
Ġfranchise
Ġappar
Ġreluctance
ĠGibbs
Ġgrandma
Design
Ġdelete
Soviet
Ġcriticize
Fer
Gear
_-
Ġmartyr
Ġrelic
Ġblows
ufact
Ġstake
Ġdisplaced
ĠRout
ealous
ĠLenovo
Accessory
ngth
ĨĴ
Ġprod
Ġreading
Ġsoaring
].
Ġchamber
ĠRisk
Ġtum
Ġincludes
Ġparticipant
ĠRiv
Secretary
Ġgrinned
ĠHanson
Ġgunned
Ġspices
Ġreincarn
ĠKlaus
agar
_____
ĠHeights
TION
ĠNI
Latest
Labor
ĠBrook
ĠSav
ĠTheresa
ORGE
Ġhone
Ġacceptance
estate
boss
Ġstreak
Ġscrolling
izations
Ġhuge
abo
FIL
Attach
Ġbasic
Ġsolidarity
ĠToledo
Ġcatcher
zx
âĨ
ĠChosen
ĠMermaid
ĠPhelps
ĠCover
Ġpredators
Ġscreams
ĠValues
PT
ĠStanley
987
Ġankle
ĠMOT
mi
Ġpast
ushima
Ġmethodological
Ġkicks
Ġchrom
Ġcer
Ġbattered
osition
Ġattrition
Ġcoh
ĠRecipes
883
stab
ĠDuc
Ġevolved
quite
Ġcaf
^^
ĠPeople
orn
Ġexisted
ĠFoods
Ġextingu
Ġsnail
ĠCRE
ĠTTL
ĠAgricultural
ĠLego
amura
520
1971
ĠCPI
Ġrecalls
ĠDMV
Ġreason
Ġbead
Ġfare
ĠSlave
ĠJoint
lia
Ġdeparted
odic
Ġexpensive
ĠBerman
Ġoste
bind
FN
Ġlipid
Ġreact
ANT
459
Panel
Ġaven
emetery
ĠLloyd
against
ĠPagan
Ġrecognise
Ġfounding
Ġintermitt
ĠPlay
Ġpharm
Ġdismal
ĠDeng
Basic
Ġsender
ĠFIFA
Ġmystery
Despite
owl
Ġrenovated
Ġpanties
ĠCoulter
ĠSS
Ġ(>
ãĤĤ
ĠPROGRAM
Ġtranscend
ĠMorales
Ġripping
Ġcaric
Ġcancel
ATURE
Ġsurviving
Chris
ĠVolunteer
post
File
Ġjoy
Ġattacks
Ġdemonstrate
iries
Ġconcentrations
rim
Ġregrett
atem
ĠGW
ĠAgreement
RB
Ġfingerprints
ĠKira
warn
Ġhost
Ġfrequencies
Ġchairman
Ùİ
Sound
Ġfinancially
ĠBung
Ġconditions
RE
ĠTaco
there
ĠHobbit
ĠPeters
Ġbakery
izophren
umbled
asured
ashes
Ġpunching
Techn
Ġmidrange
angler
Summary
ĠCatherine
Ġmonkey
American
ten
ĠSoon
Ġprotesting
Ġharmed
Ġclicks
ighthouse
ĠMeteor
Ġrecourse
CP
ĠTool
ĠLiter
DEP
Batman
ylum
void
ÃĥÃĤÃĥÃĤÃĥÃĤÃĥÃĤ
125
ĠDiplom
Best
ĠMinor
reme
Ġtimeout
ĠTIT
Ġahead
Ġcovert
ĠThen
ĠNicolas
atre
ĠVader
Ġbooklet
Ġcosmos
ĠElectoral
ĠRai
Ġarticulate
Ġdotted
ĠPCR
ï¸
rax
bourg
Chinese
ĠiP
Ġrubbing
Turkish
754
Ġ219
ocom
ĠPaper
Ġstereotype
ĠRio
ĠShock
ull
ĠNum
ĠBernstein
Ġpops
igon
Ġsill
ĠIdent
cv
Ġadvent
ĠDecoder
ĠPar
ĠAntarctica
Ġrepro
Ġmarketing
Ġpass
ĠKarl
ĠRory
Ġslee
Ġfrowned
Ġblood
Ġalien
Ġadmitting
Ġdarker
ĠLINE
ĠAdamant
Ġthrough
ĠTrails
Ġlifestyles
Ġpap
Ġlinen
ĠHonor
Ġmoral
ribing
zona
Fine
6
ĠLopez
DEN
COL
Ġtbsp
ĠWhatsApp
fin
ĠAway
Chart
ĠElev
Ġiconic
Ġnil
Ġ($)
ĠVerse
Column
Ġcaptcha
Ġintim
ĠGeoff
Ġdetectable
ĠHal
way
ĠCalais
ĠAmber
Ġborderline
Environmental
Ġnausea
andise
Ġmillennials
ĠEddie
ros
Ġanticipate
Ġapartment
ĠSprings
ĠTwenty
imately
ĠDetective
Ġaligned
ĠSi
ĠScythe
Ġsimmer
ĠPassword
yah
ĠNotably
Ġregistered
Ġbeers
oga
ĠLap
380
ciples
story
ĠJasper
Ġsubsidiary
script
Ġtempted
ĠAmelia
ĠVerd
Ġunprepared
iatures
},
ĠBund
Ġtheolog
ĠPrimary
ĠSatisf
ĠMFT
Ġindo
Unity
Ġchem
Ġsamples
equality
Ġsubstance
otaur
She
ĠBrotherhood
Energy
Newsletter
ivery
Ġlag
Ġdeterior
aylor
oo
Ġcup
uron
rint
ĠBailey
ĠLabs
ĠRot
ief
Ġmilitants
Ġasc
Ġrevisions
ĠConstant
Ġrather
ĠSurv
theme
Ġtalk
Ġsinging
Ġillicit
ĠPike
Bear
ocard
ox
Ġ"(
Ġrefined
re
ĠDos
Ġ127
Ġinserted
ĠDodge
Ġsto
ĠRichardson
Ġsubpoena
Ġsurg
Ġç¥ŀ
ĠEngine
PER
ĠKurdistan
obs
Â¨
Ġliberate
Ġpall
abetes
Ġbehavi
assing
sleep
Ġfueled
ĠTreatment
bern
clerosis
Dat
ĠSlovakia
Ġspecificity
ounce
ptic
Ġtimeframe
ĠCul
Ġspecializes
ĠMiss
ĠHank
Ġearning
ĠAgent
ĠDD
ĠScotch
png
Ġledge
akura
Shift
ĠâĢİ
Ġappointments
Ġconfirmation
Ġarming
Ġnood
Ġanecd
Ġ##
Ġem
Ġbatch
ĠBlumenthal
idepress
Ġbubbles
Ġprisoners
Ġpract
ĠApproach
ĠBannon
ĠProbably
ĠDodgers
Ġspecifications
(
Ġdisclaim
ĠAnaheim
Ġmountain
Ġsafely
ĠOswald
Ġtranspired
Ġcausal
Ġsmug
Channel
ĠBroncos
Ġcompel
Ġseams
detail
ĠEuros
ĠVM
Ġ311
ĠESL
ĠGOODMAN
ĠNationals
inventoryQuantity
ĠKris
ĠDemand
added
ĠMend
Ġcontractor
Ġreproductive
Ġreducing
agne
Ġtacit
ĠAFC
Ġtheological
ĠMbps
ĠGan
ifting
Ġsober
Ġskeptical
Ġdensely
fashion
Ġbooze
So
Ġincorporate
yet
ĠKings
Ġfront
ĠBaseball
Ġdistraught
Ġoperatives
ĠIndividual
phone
Ġreceipts
Ġgrabs
Commerce
Ġscourge
Ġreasoned
Ġrite
Ġpushes
arden
estead
Ġmutation
izon
orius
Beyond
male
Ġlineage
ĠWonder
BTC
LOS
Ġstump
ĠYak
Ġmonopoly
ĠLogin
Ġapes
Ġoccupant
insert
arl
some
ĠLiberties
izo
Ġpsycho
amus
illi
Ġconferred
bub
Before
Ġsightings
ĠCanada
________
ĠBucc
stein
ĠBlvd
ĠReply
Ġshorts
Ġcloses
Ġconcentrated
unct
Ġunprotected
Ġprotagonists
880
ĠFamilies
Ġtroopers
ĠFuji
phot
ĠObservatory
Ġgathering
Ġdisabling
ĠConstantin
Hat
rylic
Ġtheme
Ġregulated
idation
Ġengulf
Ġthumbnail
sectional
ĠChristianity
ĠASUS
Development
.",
Ġformatted
Ġcompensation
ordes
Ġpecul
ĠBradley
estamp
Ġhelps
Ġvot
Ġtodd
Ġprecipitation
ĠGovernor
ĠsrfN
Ġviolently
Space
ĠMahmoud
ruit
str
Tw
list
llan
today
ãĥĥãĥī
imal
ĠPolo
Ġdisclosing
ALL
Ġconducted
ĠChong
ĠEpstein
ĠChevy
Ġskew
90
Ġflooded
Ġobsession
Ġdollars
339
arist
Ġshot
Ġcanyon
ĠDispatch
ĠRussell
ĠSimply
itionally
annel
Ġdepended
Removed
Ġfleeing
inosaur
js
Ġaid
Ġbillionaires
ĠNicaragua
Ġbott
Hamilton
Ġapprehens
ĠElite
plant
'm
uba
undy
ĠNy
Ġderivative
ĠIntroduction
ĠNe
Ġcrisis
rup
rays
acular
Ġformations
Ġkeyboards
ĠGustav
Ġ(Â£
Ġlied
itives
Ġplates
ĠXV
erno
ĠNerd
Ġrhyth
302
Ġenergy
Ġ143
Ġrushing
liberal
mounted
emet
ashed
Ġexams
ĠTennis
ĠWade
cur
ĠMud
Ġkissing
Ġcivilization
tto
Ġburger
Ġsank
imm
Ġ1936
Ġzipper
Ġnib
Ġsmuggling
ĠCommonwealth
Ġnearest
ĠHundreds
ĠKaz
ĠAhmad
rag
Ġoblivious
Jud
Ġfailures
ĠSold
Ġsupernatural
Ġtempor
ĠEX
Ġreconnaissance
ĠBuddhist
ĠBEFORE
ĠDemo
Ġatmospheric
Ġpossessing
isure
Jamie
copy
Cam
ĠArtist
VW
ĠLabyrinth
Ġincent
Ġjournalistic
éĽ
Ġâĩ
commerce
Ġinstead
Ġinsisted
ville
unta
oshi
unes
seq
Ġdefic
30
ĠHE
Ġstrikingly
debian
pet
headed
Ġopinions
Ġdemol
DC
Ġoxygen
Ġtheater
ĠSwarm
Ġcomposed
Ġtossed
Ġdiagn
ĠGentle
Ġ625
uebl
fil
ressed
administ
scoring
rees
ĠHazard
ĠOmega
onto
ĠSacred
ĠUNITED
aiman
Ġmasculine
ĠTerran
Ġmenus
ubuntu
ĠShoals
--------------------------------------------------------
Ġkilometers
Ġex
ĠMueller
ĠMoody
ãĥĺãĥ©
Joined
Ġlive
Ġservant
ĠStaples
Ġfrag
ĠVault
Ġwomen
kered
ĠSort
asis
Ġyet
ĠOper
ĠSentinel
ĠDin
cellaneous
Ġsuits
equipped
==
Ġvisit
isk
iasm
iltration
ĠDEFENSE
oler
Ġfunctioning
Ġparagraph
ĠApplication
Ġluxurious
ĠKeller
Ġponds
otor
Solution
Ġdevils
Ġpsychological
Ġantiqu
ĠKung
ĠCunning
Repeat
Ġsizeof
Ġcolourful
ĠAp
ĠGarcia
ĠSinclair
ĠRabbit
ĠPyro
Ġchurches
ĠMetroid
Ġtogether
ĠInk
Ġrobbers
<unk>
ĠVoting
ĠEntry
Ġtet
icide
Ġmarijuana
Ġworldwide
Ġeducator
Ġdemonstrations
ĠPeck
Ġhideous
dding
Ġscript
ĠVS
olyn
abbage
Ġeaves
ĠRAD
Lewis
Ġpar
tailed
Ġbribe
Ġseems
Ġdraft
Ġ83
ĠDefendants
Ġhepat
final
ĠMehran
ievers
ocrat
Ġslipped
Ġskulls
ĠFORM
ĠLibre
Ġreliever
Ġtrials
Ġ}}
ĠNational
acco
ĠBoy
Ġhero
017
ĠPolice
Ġamused
ĠUbuntu
Ġpostings
ĠTomas
Ġstaggering
Ġbureaucrats
being
Ġembracing
ĠBeaver
Ġunt
fifth
xff
Ġcamera
Ġsilent
Ġdrinking
546
50
ĠSev
ĠConstitutional
ĠPurdue
Keith
peace
Ġcomponents
ĠFloyd
Ġfactual
uffs
Ġschizophrenia
Ġpulses
ĠSever
stop
ĠVigil
Ġforgiving
olithic
obyl
Ġmid
Ġsum
Ġbreastfeeding
ĠFIX
Ġartillery
aucas
bottom
Ġangry
ĠDelicious
Ġmansion
ĠFreeBSD
ĠDesert
Ġworkflow
ĠDeter
ĠIchigo
Ġperfect
ockets
pex
AL
Ġeclectic
Ġdisagree
ĠQueen
USD
Ġsprung
ruct
Ġcircles
ĠGore
Ġesp
Ġtransitioning
Ġrepud
Ġmemor
enza
ĠFANTASY
Ġneighb
identally
EM
john
ŀ
ĠDirty
ĠTravels
Putin
RAM
ĠSolitaire
Ġacres
ĠRobbins
Ġv
Ġoverturned
enne
Ġhazardous
ĠHag
irement
aditional
thin
141
car
Ġfencing
Ġrude
yards
idan
Ġvou
Ġformulations
ĠPatent
81
âĸĵ
existent
ĠRye
Ġparagraphs
North
eve
Talking
ĠRomo
Ġrepeats
ĠCaller
Ġwarped
ActionCode
Ġknew
Ġinch
Ġscam
aka
Ġfre
ghan
Ġcum
Ġeliminated
Ġindispensable
Ġvolatile
Ġgr
Post
Ġcouncill
Cas
okin
itles
Ġflexible
ĠMarilyn
Ġcoincide
Ġponder
ĠACA
ĠShadow
ĠPok
XL
Ġthyroid
Ġhitch
Ġsplend
UTH
Ġinstr
can
ĠResult
Ġrendered
Ġvoiced
Ġsav
SB
Ġindirectly
Ġvariants
igne
ĠBeacon
Ġmalnutrition
ĠKnock
ĠZhu
ĠTrinidad
celer
ILLE
513
agonal
Ġdir
ĠCarpenter
Ġhelpers
Ann
Consider
ĠCommando
sm
Ġinhal
Ġleaked
ĠMcCl
Ġcolumns
father
bill
Ġskim
ĠHungry
ĠRecession
Ġ1961
hours
bris
ãĤ½
Ġplease
By
Ġconsists
vs
16
Ġportal
Writing
ĠeBay
ĠWireless
ĠAber
Ġendpoint
anke
Ġnarrow
Ġ1976
ococ
Ġpose
Ġlousy
Ġlink
retion
Who
iddled
ĠSoy
Ġelectroly
Touch
Ġhacking
opez
ĠShuttle
ĠPoke
athi
ranking
ĠHandbook
ĠLeviathan
Ġgaping
Ġerroneous
ĠSalem
Us
Ġax
moon
Ġinsurer
Ġtheatrical
Ġglitch
IRED
java
ĠTumblr
CHAT
ãĤ´
ĠHitch
atural
ÑĮ
%),
ĠTampa
ĠTwo
ovies
Ġwond
Ġcropped
ĠMod
ĠSki
ĠMagnetic
ĠComposite
ĠMcKenzie
ĠCollider
ĠONE
Ġseverity
ĠLimited
rose
ĠAccounting
ĠMorgan
Motor
Ġfloppy
ibling
Town
ĠThames
aunts
Ġtestament
Ġsurpassed
ĠOM
Ġsentences
Ġmold
Ġhordes
leases
claimed
ĠPUR
kos
ĠBon
Ġjuices
Ġsink
119
Te
Ġsomewhat
Ġstressing
sum
ĠSgt
ĠMississ
pretty
ĠReady
Ġsubscription
ĠPyongyang
Ġabide
Ġjealous
Ġilleg
Ġcons
ĠSmoke
ĠNPR
Ġaspire
ĠAddiction
ĠSoci
Ġfluoride
Pa
Ġyells
Chuck
ĠLAR
JC
Ġpiercing
keys
ĠShank
Sil
Ġstyled
Metal
semble
brow
ĠMacintosh
Ġamplification
Ġemanc
ogeneity
ĠHoliday
opes
706
ĠFathers
pled
Ġpaved
iterranean
ãĤ»
GBT
Force
Ġproficiency
ĠNose
ĠmM
Ġincarcerated
Ġintermediary
ĠMichel
ĠTransfer
KE
ĠClo
ĠNot
veland
ĠOlive
Ġcrossing
Ġfungi
Ġdeliberate
ĠHarvey
Ġrecruits
llers
AFP
ĠHeard
forums
Ġbearing
fd
ĠPhysicians
usions
Ġrelocated
Ġadul
Ġ12
ĠVern
course
ober
ĠGerr
Ġ146
ĠLeaving
ĠQu
ĠAccording
ĠTaj
Ġgenerator
Ġinteresting
ĠCes
Ġsurface
ebra
ĠVisitors
umbers
ĠChili
Ġintoxicated
Ġtherein
Ġretribution
Ġdoctors
Ġdign
Ġretire
ĠRepublican
Ġconceded
Ġstride
mile
ĠSaga
Ġrespected
ĠHiroshima
ĠMarina
Ġpartly
wan
2020
avior
Ġwrist
ĠMild
Ġtink
Ġfired
iners
ĠSpr
owed
Ġwildfires
Ġsettling
ĠVAT
ellation
canon
ela
ĠBellev
Ġemblem
Ġcommodities
Ġkilograms
ĠOpera
ba
Anyone
ggie
silver
ĠMessages
ĠTaiwanese
Ġdiscusses
Ġpackages
ĠJelly
Ġactivism
Ġaest
Ġoffset
Ġenvy
Ġnihil
ĠSlash
Ġmighty
ĠDeath
ĠPuppet
Ġfuneral
Ġfer
Ġhoped
aning
Gab
ĠPU
lees
Ġcrust
Ġ>>>
Ġlivelihood
icas
ĠFixes
ĠSnapdragon
eneg
ente
Ġdad
Ġoffer
Ġeconomist
authored
At
Ġperpetrated
Beer
ĠNigel
Ġordinance
ĠJamaica
ĠRoe
Ġbathrooms
Children
ĠDenmark
Ġpuzzle
Ġdiner
Ġardu
ribution
Science
ĠLetters
ĠAb
arcer
cknow
cess
Ġstigmat
Stretch
åŃĲ
+,
asley
)
ĠBucket
nard
Ġcancell
142
ĠPork
Ġdeterrent
issan
Ġhairc
Ġclipping
Ġcannabinoids
Ġmanuals
Ġintuitive
MY
arij
Ġdamn
âĢĶ-
Ġ2012
HL
Ġillustrated
Ġmom
Ġkidneys
ĠKear
agg
Ġdigitally
ĠFranz
ĠâĢ¦"
Ġsteer
Ġkill
Ġvigorous
Ġcontribute
iren
eston
orno
ĠRoundup
Ġbeta
Loc
Ġprosecut
ĠTLS
chieve
ĠTut
Ġlaunched
Helper
ĠBuchanan
Mult
Ġhttp
Ġpositioning
inding
ĠJeff
Ġleash
Ġprotector
Ġcrus
Ġsisters
ĠIndies
fred
Traditional
Ġexcav
Ġtrilogy
emy
umed
ĠGolden
ĠLl
ĠVaj
Ġdisastrous
ĠAlbania
Ġimplants
CS
JJ
Ġrules
Lv
Ġlung
emia
Ġresemble
eder
Saudi
Les
ery
got
ĠCham
Ġ1997
ĠNib
Ġlockdown
18
Ġgenerations
igi
Why
One
ĠTribune
ĠPett
something
ĠJackets
Ġtrades
Ġdependency
echo
Ġcryptocurrency
ĠDob
ĠGat
Ġreconstruction
Ġleg
Ġki
Jam
ĠLearns
lessly
Ġjoints
Ġrevolver
Ġsmelled
ocry
ĠMets
itor
Ġconstituted
ĠAshley
Ġhurd
ĠChance
ĠNak
Ġfitted
iatric
ĠBolt
Ġcollided
Ġlumin
sand
Ġpenetration
Ġmog
Ġmortgage
Ġmilitar
Ġchoking
801
Ġunions
ĠNa
Ġgalvan
Ġleth
ĠBooster
Ġfoul
ĠConstantinople
Ġgrap
ĠNames
ĠMeanwhile
ĠTat
ĠRin
elo
Ġjam
Ġcommuters
Ġfeder
Ġnotoriety
582
âĸĳâĸĳ
PLE
Ġconsidered
Sat
guided
ĠBeta
ĠCle
Ġvoyage
:[
ĠDeL
Ġ/
verts
Ġcriticised
ĠTRANS
Ġpostponed
ĠHogan
Ġmuscle
oms
prop
ĠHollow
Ġhover
Ġpropriet
ĠCoverage
Const
Ġprecedence
bearing
Political
Ġspare
ĠImm
Ġplagued
ĠPerson
ĠSections
Ġoppos
Ġmeas
Ġunreasonable
cessive
ak
Ġtwentieth
Ġenum
Ġrestricted
Ġoven
Ġworker
Ġtricks
Ġuncommon
Ġwax
Ġrelat
odus
jured
Ġinside
crim
ĠHardware
ĠCowboys
Ġdiverted
Ġemphatically
ĠSchool
ĠAnimation
HD
ĠNeal
uary
ĠTomb
ĠMadame
uppet
Senator
ĠHighlands
Ġlegality
Ġcaveats
Ġsocial
Ġknown
ĠOpen
Ġform
Ġunfairly
ĠBombay
Ġhandheld
Ġdefendants
razen
Ġimpat
Ġderiv
ĠSpiral
roups
114
Ġtempting
ĠTunnel
Rules
æĺ
Ġglim
ettes
Those
Ġrev
ĠSalmon
Ġattained
Ġancestral
each
life
ĠGot
ĠCoordinator
EMENT
Ġbitch
Ġoverboard
LER
ĠGarg
Ġanimations
Doctors
Ġreduce
ĠTarget
ischer
Ġguaranteeing
ĠVeronica
illegal
Ġencomp
Ġwhis
Ġmultimedia
dollar
irgin
ĠMaxwell
ĠBachelor
Ġslowing
Lind
ĠSnyder
Ġawful
Ġsarcastic
Ġdiagnostic
itative
Ġeager
Ġidentities
Fran
ĠImpact
Ġdownturn
ĠSally
Ġfarmer
Ġclassify
ĠCourt
ĠMog
surprisingly
Ġups
Ġagainst
feet
ĠMSM
ante
Ġbounty
hots
Ġnamesake
uncle
etitive
Ġrelates
ĠHide
Ġmistaken
Ġslaughtered
oustic
ĠBl
Ġhockey
hibited
ãĥ©
oving
ĠPi
ĠTayyip
Ġspilling
ĠSanskrit
Ġsediment
ĠTill
ĠFinish
integer
ĠPopulation
rey
Ġcombine
stasy
Ġ149
Ġhouses
Ġconv
arrow
Ġlearns
udence
Ġpronouns
Ġnarrowed
ĠConfig
inal
Ġ172
rily
estial
azing
ĠBanks
Ġsust
Residents
Incre
Ġsprink
Ġsincerity
enced
ĠPony
ĠNigerian
Ġbitten
Ġrotting
ĠLevin
Ġsemantics
Ġpadded
Ġperiodically
enton
riages
Johnson
ĠAkira
Ġmachine
Ġlenders
valued
ĠPhi
ĠCel
Ġdisparities
Microsoft
Ġaspir
Ġbiking
action
Ġnaturally
ĠBos
Ġherbs
Ġgraveyard
ĠReich
adows
Level
Ġpaperback
ĠVanguard
Ġ1893
Ġshowing
eering
plement
Ġprojects
Ġcleanup
Ġcomprom
ĠEFF
Ġpacking
Ĭ
inished
ĠPale
Ġsunshine
ĠBeau
naire
qus
ĠSlam
2200
bett
Ġselfish
Ġtopp
ible
Ġpositively
dates
nah
oline
defined
ĠTik
itiveness
ĠHeads
3000
ĠRet
661
Ġintensive
Ġtrillion
Ġrevel
existence
ĠMessenger
ĠParliament
Ġvacancies
Ġbour
CAP
401
Ġsu
stats
Recipe
Ġchallenger
chery
used
ĠRaptors
Ġappointed
Ġfuss
ĠReaper
Nobody
ĠStarcraft
inged
Ġcontact
ĠLite
RI
Ġinsulated
Ġtap
ĠUses
more
ĠBrad
ĠHugh
ĠNavy
Ġannouncements
ĠHumane
Ġcomprehend
ĠNuggets
ĠMayhem
rue
lua
ĠIdaho
Ġstreet
Ġpointers
ĠFest
Ġwolf
loop
ĠPope
enser
ĠLebanese
Ġhandmade
474
Ġstopping
Ġwhe
ixie
duction
ĠHoney
float
ĠCabrera
finding
ĠSiren
Ġ=================================================================
Ġleague
French
Ġpenis
Ġsideways
MR
Ġdetriment
ĠG
ĠMorning
Ġexquisite
ĠACLU
ĠMad
INE
ĠNEO
Ġdeserve
Poll
Ġenh
Ġvolts
edIn
Ġfaces
dr
En
oddy
Ġreprodu
Ġrefres
ĠGuinness
ĠClash
fixes
De
Ġhypotheses
=-=-=-=-=-=-=-=-
Ġmerchants
atically
Di
ĠGarc
ĠDwar
999
Ġcomplain
ĠAttack
ĠPhillip
Pages
Ġconcurrently
jected
IJ
Ġimproves
lyss
Ġeconomies
Ġpatio
Ġserving
Ġcalcium
Ġtending
Ġbinds
ĠRos
buster
Ġcurric
ĠApply
speak
ulia
ĠBT
ĠTorment
Ġsupremacy
ĠWisdom
Ġuncertain
ĠKarachi
ĠKardashian
obj
Ġrevelation
ww
Ġcompuls
152
Ġamplifier
ĠDHCP
Ġrecogn
Ġmember
Ġ1984
Ġblight
Ġhttps
Ġ475
Ġbomb
-->
Ġcomfort
Ġchoice
Ġanswered
Ġfertile
ĠTina
Ġpsychologists
ĠClay
Ġpolicymakers
ĠZombie
ĠVincent
ĠClassification
Ġposit
sth
Ġapplication
Ġcoach
ĠFull
Ġhungry
Ġrecite
ĠSOFTWARE
microsoft
Vari
Ġ144
ĠBenz
wow
ĠMER
Ġproportions
Ġuses
ĠSharia
Son
rage
ĠTah
haired
ĠTIME
Ġparallels
Ġquest
ĠCum
µ
Ġ345
Ġexhilar
Ġacutely
Ġsleeve
ĠEvaluation
ĠFollowing
561
profit
ishable
shall
ĠIke
159
Ġexecutions
Ġthreshold
liquid
LESS
Ġsoaking
ðŁĳ
Ġdeletion
ED
ĠWood
ĠParsons
Ġ505
Ġcopyrighted
anger
ĠRog
ivation
Ġinconven
ĠScientology
enaries
ĠEstimated
Ġsigning
Ġanecdotes
ĠForum
ĠShaun
Ġcomplicit
atl
Ġamput
Actor
oul
Ġemanating
ĠPOP
ĠFlask
Ġstains
ĠDarius
ĠGoblin
Ġunification
News
ĠTad
ĠLegion
ĠKlan
neath
profile
Ġsailors
953
ĠMicrosoft
Ġdistricts
lund
oyle
ĠCAM
Ġspotting
Ġeas
Ġpenetrating
wind
ĠQuinn
ĠBrennan
Ġtroop
\\
ĠSamson
Ġneighbor
terrorism
ĠBuddh
ashing
Ġlaws
ĠHorton
touch
Ġrigorous
ĠWorcester
ĠWoods
ĠFrankie
essed
Lisa
ĠActor
Ġwhale
ynchronous
Ġgoose
ĠBlitz
Ġindignation
Albert
Ġrejected
ĠSiber
Weiss
availability
gui
ocolate
ĠOwn
ĠPluto
Ġslain
Ġabdomen
Ġshaming
ĠRepresent
ĠPlanes
Ġtelevision
ĠKon
ĠCrew
Ġsteak
ĠDonn
reb
Ġpeaks
ICAL
Ġcite
ĠNaomi
Ġborrowers
Ġlevied
ĠBoat
ĠFunk
Louis
phasis
Ġsystemic
Ġanatomical
Ġdetermin
ĠPort
Prosecut
Ġexcellent
ĠEy
posing
Ġdestruction
forming
Ġsur
Ġscrap
ĠExclusive
Ġbeans
atham
oran
Ġrevital
ĠCourage
TIME
Ġdelet
ĠMedals
anship
min
iers
Ġgreets
estones
Ġbus
Ġarchitecture
bott
Ġconstraints
uma
Ġtwenty
ĠIU
Ġbullshit
ĠYin
Ġ655
Ġsatellite
Ġfamiliarity
HAHAHAHA
WithNo
ĠVac
ĠLX
Ġfirefighters
Ġengines
ĠCLICK
Ġfumble
Ġoil
Ġtolerated
Ġvalve
oct
Ġdiffer
ĠMaple
Ġsales
ĠDakota
ĠWas
ĠAlb
Ġpristine
Soc
ĠmacOS
Nation
Dri
bent
documented
Ġsprang
Ġanat
ĠTwisted
!!!!!!!!
ĠHAS
Scale
Ġmonarchy
Extra
Ġride
ĠRS
Ġaided
azaar
Ġcontributes
164
Thu
ĠSwan
Ġadministrator
Ġdisclose
ari
ĠCDC
Ġaids
ĠTec
ĠMing
ĠAbility
Ġhereafter
>>\
ĠLoc
Ġbonds
College
idem
Ġatop
rice
rier
Ġdestructive
ĊĊ
ulated
ĠProtestants
domain
Ġnecessary
ĠVale
ĠPSP
ĠSalary
Bron
duct
ĠPrimal
areth
aura
ĠMartial
Ġpopulist
Ġbu
Ġbudding
608
Ġessence
ĠDynasty
ĠGem
Ġwithdraw
Ec
come
Ġstitch
neapolis
Ġrealm
Ġhumour
Ġintrodu
Ġanth
Texture
Ġserve
ĠEpisode
ĠFundamental
lett
Ġcig
Ġ1974
Thousands
antry
Ġstrict
ĠLew
herty
Ġq
kies
ĠDancing
Trans
ĠLauren
ĠDong
Ġ37
ifty
Ġtender
ionic
Ġrever
Ġupdate
ĠHockey
Ġpopulations
Ġaisle
Jennifer
273
lled
ĠRut
uggage
Ġelectricity
Orig
Ġsupremacists
Ġkcal
ÂłÂł
LA
},"
xia
ï¿½ï¿½ï¿½
aws
Ġthing
ĠCapitals
Ġemergency
ute
ĠNickel
01
acious
Afee
Ġfeminist
ĠSATA
handle
----------------------------------------------------------------
Ġsho
ĠOv
Prem
vable
ĠAW
Ġrents
Running
ĠEquip
Launch
Ġtechnological
ĠLent
ĠBud
ĠHammond
ĠTerr
ĠSwap
ĠLEG
Ġoblig
Ġfog
certain
Ġ770
Ġprivacy
Ġrid
Ġdeeper
ĠSaul
ĠNK
Ġaccurate
ĠEconomic
ĠDecember
Ġsprayed
ĠCic
ĠHitchcock
emed
ĠDark
Ġheaded
Ġteams
Ġcakes
Ġsquares
ĠDon
Keefe
oulos
less
Ġhysterical
ĠDennis
Ġcooperate
ĠMagnum
knowledge
ĠCelest
wik
vati
Ġacademia
467
ESE
ppel
ĠYemeni
ĠDownloads
Ġlegions
Quite
ĠLewis
ĠWet
Ġuncons
Ġpreview
).[
ĠMord
uments
Ġwaterfront
ĠNOW
Ġ2400
itcher
Ġinches
ambo
ĠGeorgia
~~
Ġquantum
lists
ĠBows
Ġlifted
Bus
!,
ois
Ġeh
å
appers
Ġinvestigations
zos
Ġgovernance
inition
Ġ41
Ġfishing
Ġexcept
ĠFirefox
Ġbasket
Ġhacked
Damn
atur
SAN
Ġsubscriber
NOT
mouse
Ġsects
ptives
ĠContinuous
ĠGoddess
runtime
Ġeating
ĠAdded
Ġblasting
ĠTot
Ġhanding
Ġhinted
iga
ĠUSB
Ġspin
ball
Ġunwanted
Ġcoupons
claimer
asin
305
Ġic
ĠSparkle
Tool
Website
707
Default
Ġdipping
Ġoutdoor
ĠFields
escap
ĠJuda
ukong
ĠCool
oria
Ġtraining
ĠChang
ĠLose
Ġqualifications
Ġinterviews
Ġtimeline
ĠDrugs
peria
iko
Moh
hold
Ġhemp
Better
ĠAround
Ġprogramming
ĠBrookings
Ġoutlandish
Soul
Ġweakest
Ġundersc
ĠColombia
Ġafford
Ġultra
Ġloader
Ġencro
ĠIntermediate
ĠBakr
Ġinmates
Ġstunt
Ġdeployed
ĠNewsletter
Ġfal
ension
nec
ĠPaint
Ġraw
arium
Ġrepetitive
Ġunsupported
Ġunbelievably
Ñ
oak
Ġcatast
500
Ġpartnership
ĠBlooming
ĠBraves
Ġhotel
ĠWa
adjust
ĠPsycho
ĠChapters
bps
Ġattest
ĠMono
Ġtriglycer
ĠAtmosp
ĠAnalysis
ĠWald
Ġtermin
535
ĠâĶ
wald
Ġpartition
lyak
ItemThumbnailImage
plot
dict
Ġshines
#
oi
Ġplasma
ä½ľ
ĠPatients
Ġbrutally
Ġfrivol
Ġparticipate
recated
alkyrie
ONG
Ġmint
ĠINCLUD
ĠSecurity
roy
ĠVic
judicial
Ġ111
Ġmailing
Ġboolean
Ġpromote
Ġret
Ġpalette
Ġpaused
sung
Ġtill
Ġadds
ague
ĠStall
Ġdigest
ĠOff
arranted
struction
Ġhighlighting
Ġmistakes
Ġslump
Ġprof
ĠKKK
£
ĠLyft
herence
Ġinappropriately
Ġgalleries
Ġcomplexion
102
ĠKING
Re
ĠMysteries
ĠOrganizations
opoulos
ĠMO
ilion
ĠDrone
failed
ĠABE
Ġunconstitutional
Ġdisinformation
ifax
Ġadditive
Arcade
ĠZone
tc
ĠCloud
ici
Ġwaterproof
ĠWired
Loop
rolley
ĠGary
Ġ2018
Ġruled
entials
ĠTrader
Produ
Ġbreakfast
uilding
Ġking
Ġswings
.-
ixty
Ġprosperity
rates
sea
RL
ĠMN
Ġalter
dam
ĠCanadian
Ġfingerprint
ĠMorton
Ġsund
ĠProc
ĠACPI
Ġcomputer
Ġcryptography
hell
reen
ĠFarage
Graphics
Ġpotentially
ĠEgypt
Ġattacker
pe
respect
rowd
ĠChallenger
IVES
ĠMcCabe
want
Ġtunnels
PF
ĠArchangel
Ġdismissing
Ġframe
ĠCooperation
Ġrake
Ġrender
Easy
Ġevening
Ġunquestion
ĠVulcan
ĠRobot
Ġanimal
Ġdips
ĠInspector
idel
Ġsubsidies
Ġduly
ĠLCD
(-
Ġ};
income
edo
Ġfract
Ġraped
Ġfooting
RIP
ĠDivide
ĠSpac
ĠRosenthal
Ġorder
ĠGaza
ĠConnor
Ġdetainees
Ġcast
Ġinsert
ĠMarxist
ĠKit
ĠMountains
aba
250
REE
ĠParadox
Ġthanking
witz
1000
cill
updated
Ġjerseys
Ġboon
minecraft
Ġan
Ġsyll
Ġproofs
ton
Ġgovern
ĠGors
Num
28
Ġhydra
Ġu
562
Ġprojector
Ġpreferred
Ġadvisers
ikan
Ġdens
602
Ġday
Ġsergeant
ĠREM
practice
ĠTeach
Ġnovelist
Ġimpressed
Ġretri
mitter
Ġmission
Ġhalted
Ġyourselves
avez
Visual
beans
ĠSpl
æī
Ġhike
ĠJiang
Ġregisters
Ġsubstantially
Ġnom
ĠVaults
Ġneeds
Ġwield
1970
Ġexplorers
Ġupbeat
Ġfr
Ġcrosses
Ġdiplomats
Ġ530
ĠPST
Ġ1999
Ġopposed
Ġstats
Ġfaire
Fight
claw
Ġ'.
Ġinstitutional
Ġharmony
ķ
ĠLet
Ġagility
Ultra
Ġalle
ĠMilky
Ġconvenient
Der
ĠAlban
Ġevils
aneously
rals
Ġspanning
Ġ(*
ĠMichigan
Ġhumans
Ġelectrons
ollo
ĠSequence
Ġsyrup
ĠReborn
Ġaffiliate
Ġ116
ĠTermin
Ġcoping
åİ
ĠModern
AE
Ġimposing
vid
Ġbombed
Ġadjustment
Ġdresses
Ġfeasibility
rect
}.
Ġobliged
Ġnasal
ahn
Ġapologies
Ġfug
Ġameric
Ġneg
Oil
ĠSunderland
Ġpack
ilitation
Ġhut
ĠTeg
sub
112
ĠGonzalez
Ġhorizon
clinical
ĠWD
Ġfarm
Ġvillages
vik
Ġsilently
ra
HEAD
ĠDamian
#$
greg
Ġairing
ĠGear
ĠTour
iliar
MU
Ġquestionable
Il
Ġtorque
LD
Ġtact
Ġcartels
Ġthrows
Knowing
Ku
Ġpiston
Ġ[(
Ġbip
Ġperil
ĠProtect
Ġyog
Mini
ĠChar
Ġ120
arts
Ġbattles
ĠOrtiz
ĠTSA
Ġoh
34
Ġscissors
Ġowe
OWN
Ġentering
Ġcontenders
ĠSett
ĠTerminator
ĠFurn
Ġ___
yr
ĠN
ĠHospital
gat
sol
Ġvines
alos
Ġbashing
iche
ĠIDF
Ġcover
uable
Ġstip
Ġstones
Ġnoticeably
ferred
Ġreverted
onymous
bash
uracy
ĠTraps
ĠâĢĵ
Ġembraced
Ġscrutiny
Ġsword
Ġrem
Ġbased
Ġcrew
ĠZin
amic
ĠKag
Ġgol
Ġpromptly
ru
Ġcarbs
Ġdiscrepancies
ĠLen
iano
Ġpatronage
drops
Ġcaptives
ĠGreece
America
icia
Ġslices
ternally
SHA
Not
ĠFROM
Con
?).
Îµ
Ġvehement
ĠCaucas
Ġdispute
38
ĠVet
afia
Ġstale
ĠLaf
ago
de
Ġchurn
enter
Ġfavors
ĠScar
Ġkid
Ġ167
Ġnorthwest
irming
.,"
Ġbooth
Ġunresolved
Ġoverflow
Section
Ġspecification
ĠCLI
osed
ĠMag
Ġtypew
Ġquality
ĠpH
icip
Ġwait
Universal
Ġcarcin
Ġtrade
ĠThor
ĠIdeas
Ġscraps
ĠDow
ĠPharmaceutical
Ġstyling
Ġrugby
Ġstood
ĠArmed
Ġbearings
Ġrelational
ĠACT
ĠFRI
Ġmattress
Transfer
compan
Ġdeserved
Ġorange
ĠLov
efe
993
ĠLIN
eeee
Ġhasn
Ġwa
////////
Ġjumps
Ġhosts
Ġran
ĠSolar
CLUS
Ġcovering
Ġ2050
Ġslows
Ġstalking
ĠNeedless
asons
Ġsnapshots
venient
ĠFur
ĠAdapter
Ġovercl
ulus
Days
ĠFl
Ġuntold
Ask
Ġimplicit
lated
Ġcoy
imei
146
Ġquestion
ĠRoyals
rums
ĠRevival
ĠCreative
iator
Ġinsurers
whel
ĠCandy
ĠSchr
ĠãĤ
Ġ2500
Ġcred
Ġpatriotic
dies
Ġvendors
ITNESS
Ġmembranes
social
K
ends
laws
ĠFork
ĠOd
absolutely
uj
ĠPeace
Get
ĠUsername
ĠBaby
oked
Ġorganisations
URE
Lean
à¼
cigarette
ork
Ġcorrections
192
256
rollers
ĠCollector
Ġtorn
food
ĠAuthent
nexpected
ĠDebt
590
Ingredients
Ġencouraging
Ġweather
Ġmining
Ġtimely
Ġvigilant
engers
Ġtroll
ĠBraz
ĠPl
ĠAhead
ĠBlank
We
Ġhospitalized
ĠCharg
apps
Ġnavigate
Han
Ġhaun
Ġgrowing
ĠPlaces
Success
Phase
Ġidiosyncr
ĠThrust
č
Ġowners
ĠGL
Ġminute
Ġenrol
ĠIndianapolis
ĠBAT
ĠHardy
Ġcrush
Ġregenerate
Ġunequiv
atan
ĠHos
Ġrobbing
ori
ĠDianne
Ġgrows
formation
ĠDav
Ġcitation
Ġfund
Ġtitan
ĠDe
ĠGoing
Gal
ĠEthiopia
ĠFly
helial
11
ĠCreature
Ġunlimited
ĠHitler
ĠGeoffrey
Ġassembling
oultry
ÂłÂłÂł
Ġconfiguration
rence
ĠSharif
hz
Ġhy
Ġseas
Ġarranged
Ġfreshman
Ġmeasures
Ġdrinks
Ġsnapped
ĠLibyan
Ġuneasy
ani
communications
Ġsparkling
Ġscientists
Ġfall
votes
ĠER
Ġgrenade
Ġchees
ĠDys
You
ĠSum
ĠGerald
Ġslippery
ATA
VPN
ĠMankind
Ġsalsa
Ġneedle
Ġflee
stru
Hop
Ġarom
Ġcircum
lando
USER
ĠQue
Ġbarrel
Ġagricultural
ĠIndones
Ġinertia
gun
Ġperformer
elin
ls
enders
phys
Hash
AND
ĠPACs
Ġwouldn
Ġprinciples
works
ulator
Ġneurological
930
ĠCanberra
ront
LinkedIn
Ġassumptions
ĠZeal
Ġtraffic
ĠRomero
åħ
Ġalongside
anz
Ġtri
Never
ĠCARE
Ġcel
blocking
iling
romy
Requirements
Ħ
ĠLiterature
ansen
content
207
alogue
native
mins
Ġ249
ĠLauncher
Ġchampions
ĠKid
eki
Ġearly
ĠTransform
Ġsexy
Ġcrashing
ĠTend
006
Ġinfiltr
Ġmeanings
KNOWN
Ġsemi
ORD
Ġindirect
Ġacknowledges
ĠPhotographer
violence
Stream
ĠAutism
ĠShades
ĠãĤµãĥ¼ãĥĨãĤ£
otyp
Ġaccordance
Sullivan
ĠFernandez
Ġwhales
borgh
Ġvitro
UMP
Ġgalactic
Ġgcc
ŃĶ
ilities
ĠFlower
Ġsock
ĠFrog
ĠShowtime
Ġasphalt
Fun
Ġnavigating
Ġdubious
Ġmish
itute
rikes
Tue
pmwiki
democracy
Ġviolation
Ġfemale
Ġwelcomes
Ġarmored
ĠOprah
Jul
Ġsections
OTOS
Ġtraps
Ġ1850
Plus
ĠByzantine
auntlets
Recommended
ĠDoor
hang
ãģ®å®
ĠCloak
ĠOslo
keleton
Ġwonderful
broken
ali
Ġ660
Ġdelinqu
Ġproject
Office
Ġflora
ric
Ġ322
ĠSabb
ĠPulse
ange
business
pict
ĠFedEx
ĠBurlington
Ġadvocates
ĠLiberty
ĠRosenstein
Ġbots
ĠClause
ĠMerlin
Ġseldom
andan
Ġawfully
Ġappendix
Ġdefund
Ġconced
Terry
Ġhunting
Ġfishermen
Ġpresented
hester
Ġfull
Ġcommitment
generation
Ġlingering
ĠDevelopers
bid
Ġtourism
Ġtucked
Ġdownstairs
Ġ136
sexual
vention
ĠPA
Ġcompetitors
iji
basketball
ĠDill
Ġtasted
ĠDexter
Ġprose
ĠCoinbase
iscover
ĠLoot
Ġeducation
Ġgastro
Ġinadequate
ĠDirector
KC
Ġalot
Ġbrittle
ĠAnge
ĠUkip
Ġcentimeters
Hum
Ġaccount
ĠHawai
ĠXu
Ġfabricated
Ġvaries
breakers
Ġscams
Ġfills
ĠMaybe
atable
Ġdisrupt
ĠPaid
Ġdire
bass
writers
ihu
Ġcords
ĠNPC
jamin
usher
Ġcrews
Ġstartup
ĠHomeland
ĠJew
Ġministerial
ĠCarn
Ġpivot
ĠTorch
rical
ĠKlein
Ġsinger
Ġdeclares
Ġfidelity
Ġhiding
Ġexpressed
Ġjoked
cer
Ġethic
Ġwillful
ĠAdrian
mates
Ġoverthrow
Ġhesitant
Ġforks
ĠLucas
ãĤĴ
ĠNVIDIA
ĠGPIO
ĠKorra
ĠWiley
Ġgauge
pain
ĠSana
idad
ĠTrack
netic
Ġcamel
ò
Ram
Ġobscure
Ġdetects
ĠDowning
Chan
Ð¼
poons
itent
Ġdub
posure
Ġrequirements
580
Ġlinguistic
ĠIllustrated
ubric
mond
ĠUn
AME
rf
Ġprudent
ent
Ġeased
Additional
iri
Ġcompact
Ġinsol
Ġclad
Ġforg
Ġmisogyny
outs
GO
ĠTackle
arrass
ĠDuck
AN
Ġsalient
Ġw
Ġexpired
ĠStream
rious
ĠGoodbye
ĠBulls
ĠBruins
ĠBrendan
Ġhue
educated
STR
Ġpayoff
Ġpsychic
ĠValid
Ġchat
Ġsubstr
Ġbulb
](
Ġstagger
artney
Ġreminders
Ġcit
Ġarmy
Ġsucceeded
words
Ġlipstick
Ġsaline
Ġlayered
bat
Ġuniquely
Resp
Ġdemonstrates
ĠRegulatory
Ġprim
ĠKenneth
415
Ġhandsome
ĠDirection
ĠWinter
452
Ġfn
Ġpushed
/?
Ġparad
ethical
Ġcold
ĠBoston
Ġhandlers
Jesus
ĠPrison
ĠBlackBerry
Ġsniff
ĠRequired
Ġrage
ĠProdu
Ġstirring
ĠHague
ritic
alm
ĠDepths
Ġupon
Ġshareholder
";
Ġbranding
Ġtenure
House
Ġfoods
irted
friendly
ĠActivities
ĠLives
Ġdere
Ġcram
Ted
Ġaccepted
Ġsteps
aro
ĠExperts
Ġdemons
ĠIA
Ġrouters
lease
licts
Ġinert
Ġlegit
ĠSurvive
Ġhomophobic
ĠY
Ġenvoy
Ġcas
Ġfilthy
Seattle
Ġarrivals
Ġaddressing
Ġcard
Ġpicks
Ġakin
Ġcape
ils
Ġgenital
482
hidden
ENDED
ĠNeptune
ĠDeborah
ĠCharter
Ġrestricting
RD
Ġsurprised
Ġopinion
Ġdistributing
Ġmidterm
Ġcrowned
Ġaltern
ĠMalcolm
Ġaddon
inburgh
Ġoversized
scripts
ĠHBO
title
ĠShea
Ġcoinc
Ġobservations
Ġanx
ĠPetra
ouk
Ġunreliable
ogyn
Ġstandoff
Ġbegs
Ġincrim
ATION
ĠNaturally
ĠFC
Send
">
ĠPlan
Ġsubject
ĠERA
Ġsenators
ĠBear
Ġthankful
ĠBolton
Ġforcibly
intosh
Ġabortion
ĠSing
Ġtallied
Ġdash
mo
Ġresignation
ACK
Ġqualities
È
ĠCarly
hoff
poke
ĠMemor
Ġtoxicity
uctor
Spr
young
Ġmushrooms
iously
ĠELE
Ġalterations
Ġ105
Ġtriangles
Ġ540
Ġhypothesized
eenth
hift
ĠReferred
Ġfatal
Ġuninsured
cyclopedia
ľ
Introdu
Ġmanslaughter
Ġvisibly
porter
ĠÎ
Ġaperture
ĠSergeant
Ġplayed
ĠLock
Ġsentimental
arcity
Ġmixed
Ġ0000
Ġpreval
puter
Ġutilitarian
Ġimposition
Ġmunicipal
healthy
Ġbusted
Ġfloors
ĠMON
ĠCongress
Ġshaken
Ġadvertise
wered
ĠJustin
Ġgamble
Ġrefusing
Ġ05
tim
|
Ġflock
ĠJournalists
ĠHond
rest
timer
Ġrepealing
Ġdataset
Ġrainfall
Justin
Ġms
Ġbehav
plate
ĠMPs
Ġpaper
Ġcarpet
Ġpurchased
ĠAdolf
Ess
exit
ĠFUN
Ġpanel
Ġcalling
IME
),
Ġtheat
Ġsubstit
45
actor
Ġworkers
ĠAlfred
Ġpersist
Ġ23
Ġassessment
ĠAlex
ĠWARNING
ĠWindow
Ġspeculation
ateurs
ĠTP
Ġmisconduct
Ġprofessions
317
Matthew
Ġescapes
Ġcollected
Ġimpro
istical
ittered
QUI
olo
Ġconstitute
Ġalcoholic
Ġelevate
ĠAlz
aughed
Ġveiled
Ġsonic
Ġtattoo
Ġkept
ĠHF
itational
Ġhonor
Ġhiring
Ġpercentages
Apply
ĠSwordsman
Ġinvolved
ĠIncreasing
female
Ġinterpreted
at
Ġsabot
Ġdairy
WAR
Ġstacks
Ġ1951
ĠTD
ĠVe
Ġsnatched
iggins
Ġstarring
standard
Ġtransmit
Ġsubstant
brainer
ĠLich
Ġthanks
Ġrelies
pection
Ġé
Ġart
Ġmasse
Ġuncover
law
ĠSciences
ipples
Ġply
Ġprehistoric
Cor
Ġplag
Ġinterfering
tun
Ġevidence
Ġvel
Arab
Lake
raq
ĠMohammad
ĠFrem
Max
Ġmakeshift
ĠLunch
Ġpork
Ġfielder
ĠBihar
ĠWei
ĠMarried
cert
Ġaversion
Ġtrespass
ERROR
Ġalready
Ġ86
alted
Ġif
Ġanalys
ĠPorter
Bio
ĠEval
in
Ġenjoyed
Ġcreates
ĠAna
ĠMart
Ġalcohol
zero
ridge
ĠNicholson
Ġ1983
²¾
Ġfictitious
Ġ1886
element
ucket
Ġfian
Ġtowel
Ġrisking
ĠInstitute
=/
lv
Knight
atorial
ibrary
Ġminim
Ġdoubled
Ġniche
Ġnudity
Ġlabor
igenous
Ġmorphology
ĠSunday
ĠSyd
Ġpostpone
Ġpositioned
Ġ21
ĠDiscipline
ĠPenet
ĠCrunch
Ġdeepen
Ġselecting
SEA
Awesome
ĠNathan
Ġpresume
ene
ĠLtd
Ġstray
sq
Ġropes
Tax
244
Ġcrime
Ġgoats
ism
Ġcloak
il
ramids
ressing
yrinth
Ġtoget
ĠPopular
Ġyou
Ġ122
ĠHarrison
Ġdominating
ĠIdentity
Ġnuance
Ġflowering
ĠRAND
Ġstamps
åħī
Ġgen
Ġfederal
Semitic
ĠEmerging
stones
ilus
Ġshouldn
Via
Ġroots
Ġtape
Ġsexually
Ġnotion
Ġopenly
Ġhearings
Ġpremiered
cens
Ġcu
Ġnecks
usc
Ġboldly
ADVERTISEMENT
Ġ312
763
Ġowed
ĠKatz
rative
Ġconvention
Ġmach
Ġ'[
ĠTelecom
ausible
Ġminion
Ġib
Ġchloride
orde
neg
ĠBethesda
Ġsumm
ĠVega
Ġpriorit
ĠOffic
Ġforc
018
Ġrelying
allows
Ġwaitress
ophob
Haunted
Ġvolunteers
Ġclearing
Ġspecimen
ĠPa
ription
Ġl
league
Ġlocom
ĠDele
ĠIndie
Ġtechnology
MET
rary
Fel
Ġdesign
pai
Ġans
Ġjudgments
Ġpredicting
apply
Ġbuilder
07
&
ĠLORD
Ġdemocracy
Ġcomplete
related
Ġhack
bank
Ġunle
OHN
Ġcompromise
ĠLeban
ailable
Ġrespective
Ġclinic
ĠFr
ĠUNESCO
Ġhead
Ġcompe
Ġdebate
Chel
iu
Ġspectacular
ĠPython
Ġneedless
ĠHale
Ġmainland
ĠNormandy
ĠOwens
ĠStef
196
ĠPixar
texture
Ġversatility
apore
Ġwitty
}\
Ġleaps
Ġhastily
Ġpeople
ĠSplit
Ġfight
Ġemotion
helle
blooded
Ġ377
iphany
Sign
Ġheaders
Ġgrad
ĠMao
Ġshooter
Ġbag
Ġhemisphere
Ġomitted
ffee
Kind
Grey
Patch
ĠHR
clusive
Ġhers
ĠHatt
uo
403
Ġpile
Ġmarried
ĠRegiment
hair
Ġcorners
Ġbolted
Ġ366
igrant
ĠEve
Ġdownloaded
Ġprostitution
Ġfalse
aughty
Ġinterstellar
254
ĠOn
Ġlinem
Ġrejuven
ĠSpirits
Ġgraphene
Ġrange
ĠPublic
Ġ365
ĠChrome
Ġequivalents
885
Ġnegotiation
Ġ409
enna
Ġdistorted
Ġ&&
OME
ĠWander
ĠDebian
ĠKumar
ĠHa
Ġmerge
Ġbroker
Ġexploitation
Ġlays
Ġbrewers
ĠRw
Ġskies
Ġcoincides
alf
ĠPolitics
Ġoils
ĠArrow
Ġmer
Ġexpectancy
Ġplugs
Ġdistortions
Ġsequel
cy
atana
Ġ194
ĠRag
Ġtones
Ġfindings
ouring
Ġmasks
ĠJJ
Ġclim
ĠBridges
ĠMandela
eds
ĠProperty
oky
months
Ġchemically
independence
ĠTennessee
ĠSector
ĠScot
phony
Tesla
ificent
aps
ĠBlast
ZZ
Ġhomophobia
Ġ329
Ġgn
Ġanswers
ĠOmar
nyder
byter
irements
UI
Ġdrug
Trust
Ġfeedback
Ġdownright
ĠAcademy
Ġidentification
Ġletting
Ġinternet
ollen
Leave
sat
ĠJM
Ġrealised
Ġhtml
Ġjavascript
alth
ĠCardiff
Ġculminated
ĠNature
Ġmigrating
Ġremission
lean
ocent
iron
Ġoverse
Ġgit
Ġplaylist
Ġperennial
Ġhangar
ĠSpur
PET
ĠOdin
Ġnit
Ġdispl
Ġppm
ĠMount
ł
avia
orth
actual
ĠStadium
Ġreserve
alk
ĠWent
Ġrelieved
Recent
ABC
archives
ĠEduc
ĠLovecraft
advertisement
Resources
Ġdownload
Ġdestroy
Ġwarmed
etti
ĠjQuery
Low
ĠChris
Ġconcentration
ademic
Ġkicker
hua
Ġcasualty
ĠFlint
Ġserum
isin
portation
Ġinsufficient
ĠHearth
Ġpim
Sometimes
Ġiteration
Ġsecretary
grid
ĠApp
ĠChinatown
cedes
Ġ[...]
ĠIndigo
ħĭ
assisted
39
Ġalleviate
Overview
Ġborrowed
ĠCAD
orsi
Ġrenewables
ĠHoly
ĠStudents
ĠBuffy
Ġfrequ
iseum
anova
theless
:{
ĠDefinitely
Ġnoise
Lago
ression
Ġchicks
Ġunion
ump
ĠSince
Ġfactory
ĠSupply
Ġcircus
acho
ĠWikipedia
Personally
Tea
ĠFlorida
Ġarriving
Ġrestless
ĠHydra
Å«
Ġcolonial
Ġml
zy
Ġ1917
imates
Ġtaxable
byss
Ġexaminer
Ġ1913
ä¹ĭ
Ġser
Ġfruits
##
âĢİ
Sk
Ġwaged
midt
Ian
Ġshadow
Ġdedication
ĠConsumer
ĠFish
Ġrolls
funding
ĠWORLD
Ġcable
ĠBlackburn
Ġignores
execute
ĠSAF
ĠDOC
particularly
chers
ĠMoh
fn
Ġspectrum
iku
Ġhints
ĠMIA
sys
Ġsympath
ĠIsn
ĠJessica
Ġafternoon
acqu
recogn
Ġsystematically
Ġstirred
Ġrisk
IONS
ĠTip
azy
aneous
Ġlife
Ġhelped
keeping
eyed
ĠAs
Ġgubernatorial
ĠMT
rict
Ġtracker
Cr
ript
ĠSenegal
respond
Ġspecified
ĠMAP
ĠLol
798
ĠSociety
ashington
Ġinclusive
Ġnovels
Ġyelled
Ġdrying
ko
aren
ĠPlanetary
amate
ĠKing
counter
ĠAPIs
ĠPsychiatry
ĠSne
endium
amping
ĠBurg
ĠValiant
Language
apesh
Ġsubsidy
Ġwired
Ġsubdued
ãĤ¿
olerance
ãĤ¼ãĤ¦ãĤ¹
ĠCit
Ġmice
flying
Ġarrogant
ĠTol
ired
Elect
ĠSkype
Ġdetect
Ġelves
Els
ĠWang
Ġmsg
onew
ĠGarfield
Ġadding
ĠWisconsin
ĠStructure
ĠWhether
patrick
Ġonboard
ĠPie
Ġflash
Ġadventurous
ĠAri
Ġscene
ĠAlaska
ĠThurs
ĠRidley
Ġslumped
SY
ĠGl
Ġorganise
Ġinjections
Ġexoner
Senior
percent
iflower
Ġemergence
ĠHercules
ĠQuadro
ĠArgon
ĠTibet
pdf
Ġgrav
Ġhits
Ġfreedom
toe
ĠPlat
Ġpredator
Ġheed
Ġrecycle
Ġslick
Ġarra
lest
Ġcell
eret
ĠDID
ocating
Ġpul
uation
ictions
Ġsocio
aina
Ġpredictable
ihadi
ĠTBD
Ġnights
Ġaerial
Ġindividuality
sort
ĠRaqqa
ĠSerge
Thor
Word
oha
Ġretaining
Ġinterval
585
Ġmalice
Opening
Ġstrife
Ġcerebral
Ġgrids
Ġgrasped
ĠDuel
ĠFoot
Ġswapping
........
ĠMagic
utils
ãĥĭ
Ġcuisine
Ġpertinent
Ġfundraising
ĠPrague
deb
Rest
Quality
trak
Ġprintf
Ġspl
Ġparts
Ġintervene
Ġ]
ĠClose
Ġze
____
limit
Ġvolunte
oss
Guide
Ġexperiments
ĠGlock
ĠPoland
ĠHL
igger
Ġoperates
ĠKabul
Ġwriters
Ġbullpen
union
ation
Ġunfortunately
Ġdiluted
mail
irm
ĠJazeera
.''
nes
Ġinvolves
ĠCompetition
ĠXI
Ġcooperating
Ak
0000
Ġstren
ĠPlug
Ġlegalized
Ġswoop
uffy
815
Ġ."
Ġhonestly
Ġicy
Ġcabal
Ġquarter
Ġlobbyists
ĠChaff
ĠPlus
inical
cgi
hesda
Ġembarrassing
Ġmoan
Ġbanning
Ġcorrosion
ĠAw
736
Ġpt
ĠStill
Ġsurpr
ailed
Ġrepairs
estro
Function
Ġweighs
Ġpond
Ġenthus
cerned
Ġinterchange
Ġextrad
Ġfriendships
Ġoverlook
Ġquantity
google
Ġembroiled
ĠRuk
ĠHarden
ĠMigration
pole
ĠRossi
ha
mg
Ġscor
Ġsalesman
epad
Ġlava
Ed
ĠJackson
ple
ĠHumans
Enough
ĠEE
DN
Ġimmersive
Ġconfigured
Ġflooding
Ġgroup
ĠUnicode
Ġransomware
Ġasylum
Ġhinge
Ġcaptivity
ĠOral
ĠKali
ĠRao
Ġindifference
ĠBattles
night
Ġooz
Ġgoof
ĠWork
Ġartifacts
?),
kernel
thought
Ġthats
Ġderegulation
porting
ĠButton
Ġsidebar
Ġprotective
ĠEmployment
Ġhom
ĠStrat
Ġimplanted
ĠClifford
Ġsubsid
lique
045
Ġclinicians
Ġrapt
ĠAlgeria
ĠFarrell
ĠLaugh
Ġcolour
module
ĠLAW
Neil
Ġapproximately
~~~~
Ġcause
violent
Ġindeed
INGTON
uing
Ġinvoluntary
thus
lying
ister
oug
Ġgunfire
ĠCutting
Ġilluminate
Ġdeportation
Ġrust
ĠVisual
TON
Ġstatutes
Ġbeing
ublic
ĠPrompt
Ġvocal
DEC
Audio
ĠSeaf
Ġcharacteristics
Ġscattered
Ġexponentially
ohydrate
.*
ĠFortune
ĠTie
Item
Instruct
Ġdisadvant
Ġpropagation
++
Ġhalting
Ġbuf
Ġcares
Fund
Ġfantasies
Ġthinks
ographical
tro
ĠMercer
Ġhomage
isdom
ĠJudy
Ġ./
460
¶
Ġd
aters
ĠTatt
ĠSheikh
ĠMinutes
Ġbreadth
ĠShut
Ġregion
Ġtends
ĠCBD
Ġstall
ĠThreat
ĠGladiator
speech
Ġdye
cock
Ġchord
ricular
ĠYo
idav
Bloom
Ġdiscredited
ĠPhilly
Ġswap
Ġassorted
Ġinterf
Ġeyebrows
Ġmorality
Ġnegotiations
ph
ĠRings
apsed
OB
ĠIdeally
ĠGlou
Ġfacility
EMA
ĠTHERE
ĠDLC
ted
ether
XX
Ġlatex
sample
melon
ĠInfluence
Includes
ĠSolidGoldMagikarp
Ġrespir
versible
ĠMond
ĠDracula
Ġexpected
MM
An
Add
Saint
ĠMLB
ĠGodzilla
Spl
Ġlapt
Ġmolecular
Ġindicated
ĠMarriott
Ġlan
Ġheavily
Ġchart
ĠVander
etric
Mobil
ĠStockholm
Ġbulldo
latable
Ġstays
Park
cence
Fu
Ġsoda
ĠDubai
ĠEk
ĠÂ¶
ĠQt
Ġmetal
IVER
Ġpatterns
Ġsupporters
Ġreductions
Ġknow
ĠSpani
CBC
Ġnerves
ĠTulsa
Ġfunctions
Ġsemen
ULTS
Ġderogatory
CLASS
Ġstandpoint
Ġessays
Ġstrateg
Matt
ĠPortal
Ġvoter
ivid
queue
Ġlosing
Ġomega
ĠUNC
ĠRom
ĠNorthern
Ġlubric
loe
Ġheresy
ĠDevin
ato
ĠrÃ©
Ġherein
ĠEllen
urgical
Ġcyclist
ĠADC
Ġsuspected
31
Ġconsumes
Ġ""
Ġsustain
116
ĠDoct
Ġdemocracies
smith
ĠBeer
Ġren
modern
Ġflexibility
ĠMeridian
Dou
Ġlinux
ĠNinth
htt
iated
Ġflavored
IS
98
ĠShard
ĠCommunists
Ġwarnings
sun
ĠPs
uddin
ĠMetallic
Ġcanon
Ġcalib
bare
Ġsick
includes
Ġjuveniles
Ġconflict
Ġstructure
ĠJared
Ġplug
Ġlob
ERO
âĢ¦."
ĠChem
Ġdried
ĠThick
Ġpresidency
ku
Ġinnovations
Ġrecon
ĠXia
Ġrevise
Ġfaux
very
Â¯Â¯Â¯Â¯
inis
Ġno
kward
Ġkeen
ĠSue
Global
Ġsolicitation
lords
Ġrinse
ĠTalk
Ġpictures
OUND
ility
ses
Full
Ġcond
clinton
Ġmotivations
Ġruling
Ġrod
Ġaffirmation
itutional
Ġtrack
Ġsheds
Location
33
ĠHarris
approved
Ġkg
ĠSaddam
Ġavatar
ĠHug
rition
Ġprolifer
ĠImportant
<?
Ġ....
ĠHalifax
Ġjeans
ĠGreens
ĠGators
bots
Fil
stice
Ġmarks
Ġfocuses
untary
ãģķ
church
ĠTens
ĠNasa
amac
kin
Ġtriv
å½
ĠUsing
ĠWinner
ĠEsports
Ġinvestigator
ough
Ġburial
ĠLyndon
Ġgrip
Ġpl
Ġdevelopers
Ġdisplayed
Ġstyles
Ġvibration
Ġspurious
bul
Ġcertainly
ĠObama
ĠSturgeon
licensed
elaide
ĠAncest
Ġmosa
ĠRavens
Ġrocket
Ġdiscrim
Ġj
Proxy
Ġblocking
agues
Ġdisproportion
ĠCortex
ĠMidlands
Ġjustifying
ĠAmar
ĠMane
Ġprompt
olutely
Ġrefresh
ĠGuilty
Ġblockchain
Ġlawful
Ġwithstand
Ġsluggish
Ġmissiles
Ġvalid
ĠMaj
Ġmitigation
Atlantic
Ġcarbon
v
Ġwindows
Ġdupl
ĠSpit
Ġdismantle
Ġappropriately
ĠColour
ĠMediterranean
ĠNec
pps
Ġcontemporaries
pill
083
etimes
Ġera
Ġvalidated
Ġrose
Ġpow
Ġpans
ĠDropbox
Ġprophecy
ĠClaud
Setting
ĠBend
Ġ999
rera
evidence
Tonight
ĠBert
Ġindustries
Ġkits
fast
ĠZheng
ĠNoah
458
Ġerrors
Ġpoised
Ġ326
Ġcartridge
ottesville
cn
elson
ĠFrozen
weed
Ġmomentarily
inyl
Ġtoe
ãģĻ
ĠSetting
ãĤ¡
uid
Ġdivision
ificate
ĠCors
reetings
Ġlabel
ĠGraphics
Ġsubsequently
Ġreminiscent
Ġmythical
Ġswarm
KR
governmental
Ö
ILY
][
ĠSorce
Ġmages
ĠOlson
Ġcurator
Hon
Ġproceeded
ĠSole
495
Ġplacebo
acial
ophers
ĠKos
via
ĠPremiere
ĠFever
ĠShell
Ġpassage
Ġpets
Ġsupports
ĠPress
Ġdistribution
ucking
ĠMPG
peror
Honest
Ġmathemat
ĠTelevision
ĠYus
Ġweighted
Ġcontinues
bach
ĠSmy
.</
Ġgasp
Ġrecomm
Ġcovered
Ġconcert
Ġdisl
ĠGeForce
Medium
Ġfundamental
eners
uple
ston
ĠDVD
ĠTowns
Ġhomelessness
Ġunaccompanied
Ġcharacterization
1992
ammed
Ġuniverses
lectic
ĠBerg
Ġconcent
Ġvital
ĠFeb
romeda
ĠBlaze
chains
Ġchildren
Ġrepet
Ġcausing
Ġhorizont
Ġformulation
heastern
ĠArche
ĠMub
Electric
park
Ġdesc
adin
Ġsilhou
ĠAdinida
Dem
Ġscathing
ĠGohan
Ġpiece
ĠMatter
ĠPetersen
Labour
Ġconservatives
Street
Ġreeling
dist
Ġhierarchy
};
ĠHDD
Ġreminds
ĠXiao
Ġ({
ĠKitt
Ġhoax
FH
Anim
=>
worth
ĠSPEC
Ġatten
stad
767
Ġgrabbing
Ġinvariably
Ġdehyd
IZE
Ġadren
Palestinian
frames
sein
Ġprone
Ġcomma
NEWS
ĠAF
ĠHitman
Ġdecides
Ġrevolutionary
ĠMarin
Ġanthology
Ġprotecting
ĠBombs
zie
Ġinhibitor
Ġindicators
WATCH
ĠTre
ĠATP
ĠScores
pub
Ġdragging
aired
Ġenslaved
ĠGord
ush
ĠLuxembourg
Ġcorrection
mmm
Ġ207
ooks
Ġpatch
Ġundertook
emade
ĠCaucus
ivated
ĠBord
Ġexacerbate
ixties
ĠWil
Ġbecoming
Ġenemy
itsu
ĠÃ
Ġrehabilitation
Ġsadly
ãĥ«
ĠHorses
371
Ġunnecess
Ġagreement
IO
Ġdevil
Ġmisery
Ġgirl
Ġtracing
Ġsignals
ĠNit
ĠShir
Ġactual
Ġmitochondrial
atz
Ġserv
ancock
ĠRoz
div
Ġunders
Ġ286
Ġaggregation
ĠJudge
Ġfielding
Ġdissertation
Ġexpose
Ġmsec
ĠHaskell
Ġps
Ġcamps
Ġexplained
Ġcat
Ġpursuit
ĠHalf
Ãī
ĠESV
ĠCreator
ĠMosque
ainer
ĠShots
Ġencryption
Ġwarm
ĠAtlanta
virt
dx
ĠX
ĠVictims
ĠTinder
Ġ343
à¨
Ġministries
Ġpseudo
ĠNE
ĠBoll
ĠTrigger
iazep
âĢĲ
inel
Ġtherape
Ġoverwhel
Ġsponsors
ĠProfessional
ĠUnited
FUL
oxin
USA
':
Ġerection
ĠSweden
ĠSV
Ġstock
llah
clock
ampion
shirts
Ġobey
ĠKen
Ġadvisors
ĠCanary
ĠTrain
ĠCrossing
street
FOR
ĠReference
Ġkeynote
ĠAMER
agate
ĠNichols
Health
ĠFounder
controlled
ĠCanyon
Ġbowls
Ġturtles
bang
nc
okes
Ġnetted
WARD
Ġembarrass
Eth
Ġcircumst
Ġted
Ġremedy
Ġmistress
ĠLawrence
050
Percent
ĠMurray
Ġtitled
lus
Ġplacement
Ġfrog
ĠWesley
755
Ġemployer
uum
ĠShiva
Ġalteration
ibrarian
ĠHunts
Ġconsiders
Ġphr
ĠWould
isters
ĠReporting
Ġ156
exempt
ĠFaction
aria
ĠVaughn
Pet
6000
ĠPants
ahl
Switch
Ġprofessor
449
properties
iger
VAL
Ġgigs
Ġdefinite
ĠLan
ĠGw
olars
aco
Ah
Ġregain
ĠLar
ĠMay
Ġstar
AR
Ġinning
Ġcosmetics
repair
vm
Born
Ġpremature
ror
Ġestab
motion
ĠToy
Ġpossibilities
Ġtrunk
Ġadmire
Ġhollow
ĠDNS
Ġ1945
Bern
ĠThanksgiving
services
chn
ĠGloria
ceiver
Ġautomakers
216
Ġshrew
Ġfractions
ĠBin
anut
Ġreplacement
Ġleveling
surface
ol
ĠKad
oti
Ġentails
Ġfiscal
Ġbroadcasting
Ġtile
ĠYan
Ġcolleges
ĠWorm
Ġmostly
United
Ġfluctuations
enough
abouts
Ġmiles
Water
ĠStephenson
Ġconver
Ġ808
ĠRyan
Ġass
2016
ĠCongo
here
ĠCollabor
Ġproducers
Ġexped
ĠCro
desktop
Florida
affe
ĠTriple
ĠMic
ĠIsaiah
Ġ$
fledged
Ġriots
Ġsupplemental
Ġprototypes
Nature
Ġincorrect
STATE
Ġnative
Ġnature
ĠIl
price
ĠSurprisingly
MHz
Check
Turn
Ġrecognizable
Ġlimits
Ġrate
TW
Ġmanipulating
Ġprincipally
Ġshout
arro
dt
Which
Ġbreaker
Ġversus
ugal
igham
Craig
326
Ġencyclopedia
Ġshielded
Ġdam
ĠKrishna
Ġentr
ĠLieutenant
ĠdÃ©
ĠChristina
ĠREUTERS
ĠPles
Textures
Rock
icus
locks
Iterator
ĠPrograms
Ġtransfer
354
505
Ġintroduce
ĠBAL
Ġsummoned
Ġsuppl
Flash
Ġcaps
Ġcontempl
Ġclot
ĠPacers
ĠRus
virtual
Ġdiffusion
Ġgenerate
Ġcontacting
ĠMinecraft
ĠâĶĤ
yer
ĠGMO
present
Review
Ġsunny
986
ichita
iblical
chen
Ġusual
Ġtransistor
hews
zyme
osi
va
Ġfetish
Ġclassrooms
ALE
ĠSandy
Ac
agnar
Ġreigning
ĠWashington
ĠSearch
Ġopenings
hid
ANS
ay
Ġbl
Ġdelivers
ĠMadagascar
Building
igators
ĠDocumentation
Ġunavoid
ĠAl
Ġcentres
ĠWear
Ġzombie
Ġscoop
ĠJPMorgan
anoia
å¤©
chall
Ġchaos
Ġuncomfortable
ĠGren
Orderable
Ġmyriad
ĠJude
Ġmirac
Ġredistributed
ĠIn
ĠPenguins
apult
Ġhosted
Ġenjoy
Ġfarewell
rack
Ġoverseeing
ĠSporting
Ġcampus
oufl
Ġparalyzed
Ġspaces
Ġsectarian
minimum
ĠRune
isen
Ġterrible
Ġpressuring
Ġtempt
antis
LIB
Ġonly
60
stand
ĠFlight
iet
ĠWorkshop
ĠPsych
Ġinf
Ġcarb
Typically
ãħĭãħĭ
ĠBS
ĠMak
ĠCalling
Ġpasta
ĠImprovement
Ġdrills
rawl
ĠRender
24
mbol
ĠMastery
ĠStrategies
ĠSuch
Ġequation
tering
rounder
Ġaffinity
Ġartifact
ĠCurt
Ġchatter
Ġbleed
Ġfriends
picture
1945
Ġbikes
ocyte
ĠGDDR
Ġunsu
Enhanced
Ġ<=
ĠPers
Ġsuperhero
Ġ201
govtrack
Ġbags
Ġrevealing
Ġ+#
ĠKilling
imb
Ġbases
ast
atever
Ġplayground
Ġplaying
yl
verse
Ġherald
ĠMoz
ĠHM
Ġreplay
Ġillustrious
ĠAnkara
Grid
argument
ĵ
Ġassaulting
ASH
Ġreflective
Ġhatched
Ġbamboo
rugged
Ġunleash
Ġtrainers
BG
Ġgarlic
Ġcaliphate
Ġrecycling
sle
ĠDisp
itive
Ġcompar
ĠRoller
forcer
parts
ĠYard
ĠRA
Corp
ĠCold
Ġcamer
ĠDia
ĠBreat
ĠKurd
ĠFunctional
Ġapopt
choes
ĠGideon
Ġstimul
Ġillegally
Ġparadigm
Continue
Ġgoodness
Ġicing
URL
Ġwicked
ĠPoo
Ġeb
Ġpractices
Ġswung
Ġcongregation
Ġprejudices
quart
Ġdeter
ĠConversely
Ġnotably
iegel
ĠMJ
ĠCath
ĠOrb
ĠXiaomi
477
Ġfullest
letters
ĠPlant
ĠCavaliers
Ġfactions
opian
ĠOliv
Ġraised
ĠViking
workers
Ġphotographic
041
elected
Activity
ĠRepublicans
Ġadvised
ĠMarathon
icate
ĠStew
ĠMar
ĠChristopher
Ġflyers
Ġarts
Ġ187
Ġstimulated
Crypt
Ġincompetence
kun
Ġcass
Ġdraws
Ġrequiring
å¼
Ġcalming
vt
357
ĠOwen
ĠNeighborhood
iky
ĠInvisible
ĠThumbnails
Ġiterator
ĠHuck
ĠToday
Ġhomeless
cies
ritten
ĠDarkness
Ġguy
Ġpolitician
Ġcatalog
pen
ĠBing
Ġorderly
Yeah
Ġmobilized
shoot
Core
ĠAllows
elist
bing
Ġlookout
Ġbrowse
ern
Ġverbal
Ġbegged
ilet
ĠCAN
alin
Ġeventually
486
DOWN
Ġbull
UFC
ĠException
Ġweighing
Give
ĠRe
biology
youtube
ĠPhiladelphia
ache
ĠGaga
kill
Ġbargaining
gments
ĠGPU
Ġsyn
ĠCollect
ĠWordPress
Ġstatistics
Ġcontradicts
Ġtyr
Ġcovari
Ġcould
awaru
Ġindemn
udeau
VM
enforcement
Ġjury
hood
Ġgiant
Ġhorribly
ahime
Ġridiculed
asketball
Ġphenotype
hammad
auc
Ġcomplexity
ĠVik
Ġlifespan
ĠPART
Ġarrests
ypes
ync
940
ĠChocolate
Ġcommander
Ġopt
Ġbonding
shaw
fortable
Ġwent
ĠSterling
Ġstations
Ġkernel
Ġfights
Ġinvol
deen
ĠModels
Ġgenerational
Ġspe
Ġmaximizing
bl
ĠCompan
Ġdistur
ĠWy
ĠSon
ĠWebster
ĠWow
Ġwoods
Ġthey
ĠKazakhstan
Ġcrumbling
Ġbedroom
Ġconventional
ĠKane
Ġlitter
horn
ĠApr
dl
Ġtease
Ġgamb
ĠSurvival
ĠTwin
agent
athing
ĠFaster
Experts
Ġbyte
Console
Ġlogos
Ġuncertainty
Ġgarn
Ġthink
Ġfearful
Ġnightclub
changed
Ġmovies
Ġholders
rew
ĠLogan
ĠBecome
ĠWith
ises
reath
Ġconcerted
Ġchuck
Ġmistrust
Ġinability
ĠSlav
Ġproducing
ĠFinch
Ġlame
ĠMagnus
ĠPOWER
duration
begin
Ġtreacher
ĠHarbour
Ġspherical
ĠInc
886
Ġdeserves
Ġreporters
along
ign
Ġthreatened
684
Ġanatomy
ĠNaked
options
deals
Ġtemples
Ġshalt
ifferent
luster
Ġcerts
ĠCah
Ġlaid
incent
Ġversatile
Ġcla
AMES
err
ĠTechn
ĠSPD
Ġaptly
Ġinteroper
ĠTwist
Ġdelegation
Ġcartridges
ĠCavs
ĠBourbon
enezuel
lim
ĠTownsend
Ġsurfaced
ĠImran
anging
Ġanyways
ĠSebastian
Ġinsults
recy
Ġdisconnect
Ġce
illusion
ubis
Ġcm
Ġmarkets
136
ETS
ĠMahjong
ĠRPGs
âĢ¦..
Ġpeers
Ġpathways
117
Ġkan
Ġcluster
ex
ĠDoe
ĠSERV
ĠChest
Ġperfected
ĠShards
ĠIsabel
ĠNYC
ENN
Ġfol
Ġentrance
ĠCarey
den
Ġwipes
/+
ĠFemin
Ġencaps
ĠCertain
ĠBug
STER
Ġappl
Ġsites
ĠBren
ĠRaf
Ġglowing
Benef
mut
Ġ1958
Ġsidx
Ġfaked
Ġproviding
olution
Ob
ascar
ĠNBA
Ġpopulism
Ġarchaeologists
ĠGall
rians
RIPT
ĠLamb
R
ĠIsraeli
Ġdecades
Ġaccessory
Billy
Ġprojectiles
OND
Ġ........
casts
ĠUpload
Ġroom
ĠHead
268
Ġrelated
umbs
umps
ĠClayton
Ġcheek
ĠAndrews
Ġpitted
Ġpalm
ĠHyde
Ġslap
ĠCoch
Land
ĠCompos
Ġfuelled
Ġcommunism
Ġcellul
497
Ġhijab
Front
Format
orm
Ġdimension
Er
Ġunsett
iatrics
Ġho
kB
Ġgained
Ġknack
Installation
cffff
mmmm
ĠPell
2003
ĠL
Ġerupted
ĠLaure
ĠEthnic
ĠWalk
ĠFried
ĠWEEK
ĠMaze
Ġmark
Ġcreepy
Ġpron
396
Normally
ĠMat
Ġechoed
Ġconvict
Ġhanded
ARY
earth
Clearly
ANA
Ġmotorcycles
Ġchlor
ĠDisabled
âĺ
Ġ}
ãĥı
ĠPant
Ġouts
verty
Ġ---
Ġhomosexual
Images
^
Ġsurged
urga
ĠNull
sight
Ġembry
ĠãĤµ
Ġambitions
Ġdos
ked
Ġswimming
Ġregard
Ġ79
abel
ļ
ĠElectronic
Ġharmon
Thursday
Ġmodify
ĠHe
Æ
ST
Ġestablishment
ĠErin
source
fre
Ġcoats
Ġdwarf
Ġnat
focus
504
ĠSkywalker
opia
Ġmorbid
vertisements
ĠClapper
udd
ĠHaving
IL
ĠMMA
Ġsupportive
Ġequip
Giving
Ġsmoker
ĠEverybody
Ġtampering
Ġblackout
-
ĠXT
tesque
ĠClock
Cash
Lair
ĠIN
journal
Ġgearing
Ġnotifications
ĠAssistant
ĠMonument
Struct
ĠCould
Ġproceedings
ĠDAR
CAN
ensity
Ġgrapes
æķ
Ġwarr
Ġbiology
Ġmalfunction
ique
kel
Ġviewer
ĠPresident
Ġtelev
Ġmakers
ocal
Ġ1100
Ġcorrectional
ourney
ĠCuban
Ġinspectors
breaker
ethnic
Ġabnormalities
ĠUN
Learn
stem
ĠLinear
Ġunderdog
gettable
,[
ĠEAR
ĠMcMahon
Ġanecdotal
Ġreads
hyde
January
clean
Ġcomposite
Ġdanger
Ġpeacefully
359
Ġsetting
ĠWorlds
oration
ĠCounter
ARI
Ġsignificance
Ġelse
Ġcoal
rown
Ġhappened
dominated
ĠVatican
ĠAud
entanyl
Ġconfronting
ĠHistoric
Ġmedicine
cipl
ris
Ġmanifold
ĠSprite
ounters
Ġseemingly
ĠWellington
Ġknowledgeable
Ġboundary
Ġlac
ky
missions
ĠPaige
Pop
Ġproxies
burse
Ġrapists
ĠIran
Ġintens
ĠAlliance
Ġgram
ĠFiles
ĠMore
ĠCarlos
Pull
ĠSlime
Ġhabit
Ġhasht
ĠKappa
uck
concept
771
Ġsleek
Ġones
Ġoral
ĠSAM
Ġrestraints
Ġarises
Ġpup
Sadly
Ġnegate
ĠWays
ĠAverage
ĠVa
ĠADA
Ġfearless
Pub
());
Ġpaying
kb
ĠWarm
Ġblessings
Ġreligions
Ġdiscour
Ġsolving
Present
','
Ġcannabin
Ġstick
ĠSpeed
Ġregulars
lav
Late
ĠMichelle
Ġappointing
forced
ĠAdvice
pure
ĠCommander
update
Ġarise
MAX
Ġthrilled
ĠguiActiveUnfocused
ĠBernardino
Ġmystical
Area
Ġ363
endez
©
ĠIbid
ĠVoyager
Amid
Ġlegends
ĠNeck
Ġimposed
android
isting
Ocean
ity
ious
Ġlobbied
Ġcolonialism
ĠNorfolk
ĠAxis
ĠNews
Ġdan
ĠCrest
Ġtoughest
ĠArizona
imating
Je
OSH
Ġpostwar
ĠTiger
ensitivity
Ġdependencies
astrous
Ġphyl
âĦ¢
ĠMarqu
oma
ĠGenerally
Assuming
Pokemon
asted
Ġfortun
Ġvibr
ruction
ĠVA
their
Ġgospel
ĠGut
Repe
attr
iy
Ġembodiments
odor
Ġaccuracy
Ġcynical
Ġothers
Ġcolossal
Ġaph
Ġwin
isec
xd
ĠMages
Ġwhistleblowers
Spider
OTUS
Ġcurs
NJ
ĠSuppose
ĠBravo
ĠRoof
jan
alli
ĠPearson
ĠTreasurer
Ġpity
Ġshin
Ġmax
ties
Ġsch
Ġusername
Ġuniformly
idents
ĠTechnician
perature
develop
venant
okane
ĠSad
Ġphosph
Ġexcuses
ĠKramer
inducing
Ġliberalism
reported
Ġstalls
Ġmulticultural
dash
ĠInternal
roid
Ġana
Ġunrest
Ġimmortality
Ġreproduction
Ġsuggested
Ġdial
Ġrestart
ĠSz
acht
Ġgalaxy
Ġyoutube
ĠSneak
mares
287
Ġheterogeneity
Ġsmoked
Ġdeposited
Ġstance
ĠInquiry
Ġadaptive
Ġman
azard
aughs
Ġhates
Ġbr
Ġinducing
Ġguid
ĠRelative
ĠPalo
ĠSeen
Connector
Ġbacked
neys
ĠBeat
Ġsubcommittee
Ġyeah
humane
ĠFAQ
1959
andals
ĠTE
ĠPediatrics
doesn
Ġconceive
surv
Ġwear
ihilation
Ġrelationship
Ġclenched
Each
ĠPablo
ĠWeir
Ġsummers
ibl
Ġmanag
Ġnames
LLOW
Ġalum
ĠRetro
Ġpreparing
Ġbase
Ġhottest
Ġdrib
ĠAir
Ġprob
Ġleaning
ĠMelbourne
ĠDisneyland
Ġattending
MAN
spons
assuming
Ġacquaintances
Ġpaternity
usually
ĠTradition
Ġrookies
Ġintention
Ġviolin
Whit
Ġ],
ĠImperium
ç¥ŀ
ĠAsuka
Ġoptions
Ġprevailed
ugen
Ġvaried
Ġimplication
Ġtiss
ĠNovember
ĠColiseum
osphere
Ġunpaid
Ġego
Ġamuse
Author
ĠCore
ĠiPhone
ĠBelieve
Ġstunts
ĠSons
Ġinnoc
ĠAthletic
ĠRepublic
Ġeighteen
Ġslime
ĠBot
figure
Ġabundance
ĠSuccess
Ġunknown
Ġcultural
ĠCrosby
ĠNin
Ġtranscripts
Ġruins
ĠArchives
Neg
Ġcousins
Ġabort
Ġswall
Ġgrandfather
Ġsperm
Unique
OF
Be
Ġcircumstance
369
Ġmagic
MB
Ġbuilds
Ġadvocacy
cription
ĠMonday
Ġresisting
377
Ġflame
IPS
Ġprayer
ixt
Allow
Ġsoar
Friends
Ġunorthodox
Ġpainful
Ġterrain
ocked
ĠJersey
Ġoccurrence
Ġles
carbon
Ġrebuild
ANN
ĠCorpor
African
Step
Ġmerits
ĠDocuments
Ġcollectors
conference
ĠPul
Ġobjections
ĠKirst
Ġparallel
Ġorganizers
ĠSpoon
Ġdeploying
Ġprecip
Ġshrine
eatured
Ġselectively
diagn
Ġmercury
atial
ĠMitchell
Shield
ĠBella
bec
heric
Ġrouter
047
ĠAsgard
ini
ered
atum
Ġpunct
Field
Ġoutnumbered
Ġprefrontal
ĠEverything
Ġlength
ĠOverall
Ġdescript
ĠQuake
Ġamenities
Ġperformance
ĠJudah
Ġairst
ĠClockwork
Button
ĠCommittee
Ġexpans
Ġ{"
AAAAAAAA
Ġconsoles
ARDIS
Ġsuccess
Ġconducting
Ġgreenhouse
Ġing
Ġpestic
Ġng
Ġcites
Ġeradicate
Ġinhibited
ĠMai
ĠChop
ĠServices
ĠAAP
²
ĠEmanuel
ĠCarney
apped
ĠMandatory
lbs
Ġsuccessfully
Ġpersecution
Ġshepherd
Ġadorned
Ġcommunicating
Ġtimer
sect
Ġrooting
Ġinfant
?".
Ġcooperative
MRI
ĠCheese
ĠPerception
ĠPhoto
Ġagony
zbek
Ġexplanatory
Ġhealth
Ġmoderation
enty
ĠHermes
Ġexchanged
Ġ700
.),
ĠLancaster
effects
ĠOrigins
Ġparameter
Ġ320
egg
ools
Ġbenef
ivity
Ġvim
Hyp
imore
madeupword0000
Ġdespair
Ġreplaces
Final
State
Ġrectangle
Auth
ĠJoshua
mist
hib
Ġaccompl
OW
775
Ġminimal
Î¹
ria
ĠEDITION
DB
Ġreckon
IRD
Ġforgot
105
aul
Ġturbulent
Ġscrub
ĠWAY
Ġmidfielder
Online
ĠLor
Ġculmination
Islamic
Ġaffairs
ĠDaniel
Ġclaim
Ġsubscribing
Ġtal
Ġhurry
ĠXL
Ġgonna
tta
Ġbenefit
Ġrock
cultural
ĠCour
Ġwomb
ĠHAL
Ġstriving
ĠHP
Early
olitical
odka
Ġindependent
Ġannoyed
ĠDrive
ĠEnhance
Ġdeg
Ġsmoking
Robin
Ġshows
ĠEW
ĠMajor
Ġgone
erald
gamer
Ġalarms
ĠAnnotations
reportprint
Ġresize
Ġpumped
Ġtack
Ġbabys
among
Ġoverth
ĠAfrica
ĠExchange
Ġearnest
ĠMug
ĠDiscuss
ize
Ġdigit
ĠRed
ĠSpurs
ĠRooney
Ġlasts
ĠStatement
Ġbeen
Ġvic
tone
Bal
ĠEater
pling
amination
strument
Ġcompiler
756
Dead
Similarly
Pred
Ġrestrained
assert
Tact
ĠNam
ĠVive
params
ĠInto
ĠMons
urious
ĠâľĶ
ĠDep
Ġgrou
Ġprescribe
oit
Assad
Ġapprentices
681
ĠMelissa
aza
ĠVersus
Ġowning
????????
SR
ĠDalai
Ultimate
forcement
Ġfreeway
ĠPolitico
ĠSahara
steen
Ġbikini
ĠNEW
ĠTobacco
Ġhots
uge
ĠWI
Kent
EO
ĠSoup
Ġcreative
erie
Ġeligibility
Ġcongratulations
Brad
Ġbolts
assian
ĠTsu
ularity
Ġinnovation
ĠNeville
working
Ġmang
Ġrapper
Ġschema
Ġalgorithms
FIELD
ĠSJ
Ġimplementing
Ġitem
Ġfreaking
Ġsuccessors
Ġgenerously
Introduced
invoke
odium
Ġcontainer
olic
Ġpist
ĠReneg
Ġfacilitate
Ġ07
ĠIQ
ĠPS
ĠShay
Ġderby
ĠPier
ĠLessons
ĠSieg
Ġboring
Back
ĠMen
Ġdrawbacks
arding
XT
ĠFrey
ead
acker
ĠElena
Ġinund
ushes
atching
Ġdisperse
ĠGiuliani
Ġapplic
Ġconvin
ĠWel
aminer
Cmd
Ġbirth
liga
666
Fa
Ġenduring
ratulations
ĠRaid
ĠThrough
PORT
Karl
ĠDor
false
ĠJimmy
universal
Ġactors
Ġclerk
ĠNP
Ġcounting
kee
Ġasserts
Ġmanga
Ġtumult
Ġreceiver
ĠHopkins
react
marg
Rule
Ġchemistry
ĠAth
Ġseals
ordan
Ġimagin
ĠLinks
itious
Want
Ġ2025
ĠCommunism
ĠSure
Ġmummy
raviolet
ĠKara
Ġsetback
YOU
Ġbuilders
lit
gener
Ġwearable
ĠOther
Ġilluminated
ĠÄ
Ġgirls
Wait
ĠFinger
ĠProper
Ġprogress
Ġchildbirth
Ġmultitude
selage
rill
Ġuser
Ġpat
ĠTea
Ġexpelled
ĠZhao
udicrous
sp
Ġfavorable
ĠTest
ji
glas
ĠHUGE
endiary
pay
Ġ06
Ġredund
980
Ġstartled
Firstly
Financial
Indust
Ġfix
Ġinvari
Ġearth
Ġtraces
ĠHex
ĠNetflix
ĠSher
ĠBerk
Ġdissolved
astics
ĠActing
Ġpeninsula
request
Ġmapping
Ġincomes
ĠEagle
arak
Ġseasoning
ĩ
ixtures
ĠFTP
ĠNorwich
Ġpetroleum
Ġ1964
Ġdeemed
ĠRupert
Ġ2003
ĠPoly
ĠLaboratory
ĠAerospace
Ġexplanations
ĠConan
owell
Ġchallenge
ĠHousing
pan
ĠDerrick
.....
oday
apse
ĠBahrain
empl
Ġdeteriorated
Ġstub
Ġtreasure
ĠChips
Ġfermentation
MAG
folios
Republicans
Ġforeskin
Ġsilicone
erning
ĠSmartstocks
Ġslashing
Ġparser
Ġoverloaded
ĠFreak
Ġ2048
ĠSchmidt
rators
Ġonset
strom
ĠYose
Ġwisdom
Ġstretches
ĠTek
itation
ĠMeans
Ġcrow
ĠGrav
Ġgrew
ĠMalays
ĠVo
Ġabund
Ġrecurring
ĠSorry
ITAL
ĠPutin
Ġforge
Ġtr
Ġanalyse
Ġsuch
Ġmaternity
Ġpegged
Ġplank
Ġcooling
atellite
Ġmisinterpret
conserv
F
Ġtripod
ĠConservation
ĠPartner
oks
parser
ĠConsidering
Ġirre
Ġgirlfriend
Ġcath
Ġcounselors
ĠNearly
brother
Af
ĠCampbell
Ġstrongest
ĠConsumption
Ġfry
Base
ĠSwing
Ġchronological
Ġmercenary
ĠTeddy
ulously
ĠEuropean
REP
ĠJuan
Ġstresses
Ġreferral
adium
Ġintegral
opard
Ġmaster
Ġnonprofit
Ġ!
ĠSharing
ĠPatch
Coming
ĠHoover
ĠPil
ĠElvis
Ġ2100
Ġpopul
prises
Ġtresp
Ġye
Ġcivilian
ĠFisher
Russia
Ġcandy
Peace
Ġresponsible
tp
Ġcontinued
Ġtrail
ĠRock
Ġatmosphere
YING
Ġphilosophies
Ġclosing
ading
Ġcorrelations
ĠBrawl
\)
ĠTT
ixels
Ġignite
Ġinstallment
mer
OS
ĠWildcats
ĠTokens
Ġwheel
ciating
ĠBermuda
Ġ+++
Ġwould
ĠBitcoins
ĠDuff
Ġcock
ãĥŁ
ĠHelsinki
Ġpoop
Ġcomply
Ġcrank
ĠSide
Ġcourage
Ġdocumentation
malink
ĠGNU
Ġsorce
ĠParliamentary
Dr
ĠKil
ĠSEN
pire
Ġconversions
ĠCowboy
naissance
Solar
Ġupl
ĠSupp
iste
GM
Ġcombinations
Ġbiologically
Ġ802
Ġdisciples
Ġcamping
ĠLaws
Ġframing
Ġdamaging
Ġmatt
Ġtargeted
uced
Ġcancer
ĠToby
track
ĠDenise
Ġbrackets
Ġfrequently
eline
ĠAren
ME
Ġraced
Ġlimestone
Ġspokeswoman
Administ
ushing
LAND
Ġparticipants
raham
Ġassures
ĠRockets
Ġdecisive
ĠZero
Ġrecipients
Ġschedules
Ġdeadliest
Ġbreached
Ġrecy
Ġsubjected
ĠGes
ĠParadise
Ġpineapple
Ġwages
ĠDrama
Ġcompost
Answer
Ġdope
!",
Â¶
Ġaboard
Ġconveniently
ĠTypical
Ctrl
ãĤ¢ãĥ«
thel
Ġaccountant
Ġvulnerable
ĠCSS
cross
ĠAcross
posal
strap
Ġleads
Ġprism
Ox
ĠWyoming
Ġpsychiat
critical
Ġathlet
Ġpolite
ĠJorge
ĠTeacher
Bi
Ġskept
s
Ġnascent
Ġintent
Ġpenal
Ġricher
Ã¡n
closure
ĠPhotoshop
Ġcheat
Ġpitch
Driver
Ġfreight
ency
ĠGarner
Ġclaws
ti
Ġsolidly
Ġbc
ĠPerry
Ġperme
ĠSurvey
ujah
ĠReef
irlf
verning
Place
Ġdefinitely
Ġnests
ĠTit
Ġsponge
ĠColors
2013
base
Ġthank
owment
ĠPall
ĠNH
ĠCamera
Ġautop
ĠKitty
isition
Current
Ġreduced
Ġsurprising
Ġhotels
ĠResident
ĠGim
ĠBabel
BSD
cheon
Ġadvisable
reated
std
osion
Ġ;
ĠScha
ĠKDE
ĠCalculator
Ġseasoned
ĠDepend
Ġsalary
ĠStarg
qqa
Ġroutinely
Ġairlines
éĢ
ĠTyson
Ġjack
informed
Ġcompatibility
Ġconvertible
Ġdeclarations
zen
role
446
ĠPalmer
Ġdiligently
Ġinstructed
Ġ7000
Ġkernels
Required
Ġknowingly
comp
Ġwolves
Ġstainless
493
agos
ĠRemove
ĠMiliband
requisites
ĠPyth
Ġsize
Ġ1960
speaking
me
ĠAur
Ġsuggestion
vir
quartered
Ġconvent
error
Ġwished
Heat
ink
Ġaccomplished
Ġrecovering
Ġcries
ĠHayward
ĠChamberlain
mint
Ġtheft
someone
Flags
Ġsidelined
enn
imilar
ĠAmanda
ĠKP
Ġcomplications
iform
ĠPlayers
Ġdoor
ĠSAL
Ġperfectly
ĠConcord
ĠCod
ĠAmtrak
Ġdraw
oute
onomy
Ġceremonies
Euro
Rex
ATH
Ġdoc
Ġobjectives
Ġglaciers
minent
Ġdeforestation
Null
@#&
Ġkb
Ġwarn
Ġundo
dor
ĠGib
suits
Ġcreatively
ĠHat
ursion
acea
Ġbrim
ilt
Xi
Ġcraft
Ġfootwear
London
ornings
uay
ĠIly
ĠERROR
Ġcyl
essim
DR
Ġprovocative
Ġyielded
840
ĠPak
ĠQuant
Ġ151
classic
ĠGuitar
**
Ġeffects
five
ĠLiqu
Ġcited
ĠAuschwitz
ĠSERVICE
ĠKissinger
ĠBlacks
Ġpresets
Ġmaintenance
Ġjar
ĠComputing
g
Ġ****
Ġsecretive
ĠRE
corn
ĠAct
Ġoptimal
opp
Ġtolerate
Ġexternal
iffin
Ġspirits
ependence
ĠGood
missing
ĠDuration
Ġ401
Ġdrown
Ġsays
ur
Ġtreasury
ĠRa
sole
Ġsociety
Ġhousehold
Bride
endo
arian
HB
ĠNEVER
immigrant
Ġstrive
search
Ġleave
ĠIPO
Ġspit
ĠLS
df
ĠWWE
Ġpremier
ĠGrammy
ĠMos
Ġenormously
uton
Ġove
ĠFT
ĠScots
Ġgall
/#
Ġplural
ĠEuropeans
ĠDance
ĠCongratulations
ĠImaging
887
stained
Ġearned
Ġscripture
Creating
ĠRouter
ĠCornwall
---------
Ġreversal
pox
unts
Ġbackdrop
Ġstay
lov
Ġresemblance
Ġtelecom
Ġconduc
ldom
âĦ¢:
ĠOz
Ġreceipt
ĠBirth
IST
Ġphased
don
Ġtop
Ġgold
Fest
Ġpor
Ġspheres
Ġresponsibility
Ġ324
Michigan
Ġrecognised
Ġlact
power
ĠParagu
################################
ĠArchie
Ġusability
Winter
apego
ĠVoy
UD
Ġdefensive
Ġflanked
Ġcaused
ĠMoe
stretched
Ġinequ
Ġtransports
ĠRyu
Ġaffirmed
erences
Cool
Isa
enth
ĠHomes
Ġcurry
Ġdeveloping
known
Ġcurve
ĠLate
ĠGym
Ġskepticism
Ġtowels
ĠManit
Ġbloss
ĠUkraine
ĠSyndrome
ĠGamergate
ĠIslamabad
age
Ġlist
Ġatoms
ĠStuart
Ġsewing
ark
Su
ĠYouTube
ĠCop
Ġlawsuit
jection
Ġfool
Ġproves
Ġepilepsy
ede
Ġdispel
Ġnumerous
selling
Seg
Ell
VT
Ġdraconian
appropriately
Ġshenan
Ġmad
Ġsecrecy
Ġtel
itol
Ġplanet
Ore
Sym
Ġlucrative
Ġcomrade
WC
ĠNu
Ġlit
Ġmanipulative
Ġalerted
rid
Ġspecialize
Analy
Ġwine
ĠOften
Ġinflation
dating
otes
Ġspar
ĠSerpent
Ġlying
ĠGrenade
ĠSanders
Ġequality
Ġcomparatively
arantine
hhh
Ġcopy
Ġguitarist
Ġhills
Ġstatus
bleacher
Ġlinebacker
ynamic
committee
Ġcurtail
ĠUM
ĠFin
Ġauthentic
Ġfiance
Ġmechanics
Ġuptick
ĠObject
ĠTur
Ġlogic
ĠTracy
Ġ00
Ġhopefully
Ġparks
conduct
agonist
vertisement
Ġconsideration
adding
Huh
Ġsensitive
irrel
ĠMatters
Ġartisan
ENT
ĠFac
ĠDemocratic
=""
ĠOakland
Ġpassing
Ġheadphones
ggle
ĠBlazers
ĠObamacare
Ġliving
ĠMcM
Ġslurs
Ġliquor
ichen
ĠOrth
ĠLak
fixed
Ġtargets
ickr
Ġdriver
Hold
ĠFriendship
Ġont
cancer
Almost
Ġcriminals
ĠSims
ĠBarney
VO
ĠDPR
untu
Ġimpedance
ĠFiat
ĠCarlton
escal
ĠOversight
Ġsus
ĠWast
ĠUnderworld
Ġadolesc
Ġspiral
Ġprestige
riage
ĠWhale
ĠSpect
Ġfans
ĠDVDs
Ġpossible
Ġmosqu
Ġmanifestation
ĠSamoa
000
ips
ĠProm
ĠNano
ĠPhilippines
Ġpas
Ġsorts
Ġsupermarket
abl
Ġaccelerator
Ġimaginative
Ġblockers
ode
ĠRichard
ĠStarter
Ġlo
Dick
isp
Ġmaritime
bow
Ġhindsight
iscovery
MODE
Ġstreamlined
ĠSquadron
nesota
ration
ĠMAC
Ġlabour
guard
plays
Contract
499
Ġtor
Ġelev
Ġcandle
GW
ĠCertificate
ĠRare
Ġcitizens
ĠPremium
Ġdefin
ĠBan
connect
Ġace
Ġchemotherapy
ĠJanet
Ġsubsidized
ĠBas
aunt
apple
aint
Ġwinter
Ġmatured
iam
ĠDisplay
ĠInfinity
Ġopaque
ĠExample
ĠHelm
ĠNic
Ġshorthand
Ġaround
ĠUng
Salt
ĠFerguson
ĠRNC
ospace
Ġties
author
bes
Ġpronoun
ĠDRAGON
Ġmigraine
MSN
Ġswapped
Ġstages
ĠPompe
ĠRoyale
Ġ\'
Ġfurniture
Ġmacro
ĠJol
ĠCaleb
Ġradioactive
Ġspree
regular
ĠBUT
Capt
ĠCBS
Ġheadset
ibraries
ovie
Ġhonorable
aaa
ociate
Ġplacing
Ġinfo
Table
ĠGHz
ĠAnimated
Ġdissatisf
ĠâĢº
Ġelements
Ġfatally
ĠSou
ĠHarold
ĠDahl
ĠReligious
Ġbiomass
ĠSpear
ogen
Ġhospitals
ĠHot
Ġlibrary
ĠKare
ĠSurf
Ġalternative
ĠCur
VEL
Ġswitching
Jet
ĠFamily
criminal
Ġ399
ĠTinker
Ġlongitudinal
]-
Ġisolation
ĠDublin
Ġtension
Files
163
ĠParameters
Ġpresiding
Ġmechanic
ĠMusk
ĠBrazil
Ġcler
Ġrails
Left
ĠJoseph
Ġsettled
Ġrecommendation
ĠPeyton
Ġdefinitions
cats
Ste
Device
Ġfoss
Ġbre
Ġchapel
Ġrealization
ĠMaya
Ġantioxid
Ġpractition
ĠVs
Opp
Ġtrave
ĠKraft
Hundreds
ĠDur
ĠQuart
/$
Ġ199
udi
ĠUk
Ġcombust
ĠMartin
Ġtechnician
ĠForestry
Ġdivergence
Ġspeaker
maid
manent
Ġmyth
Ġcompanions
erek
ĠGrind
Ġcurrencies
ĠKE
public
eat
Ġfamilies
Ġconvoy
Ġwhipped
ĠWeather
f
Ġchannels
Ġhi
Ġflourish
Ġdealer
sector
ĠLondon
pipe
Ġpersistent
Ġcoloring
Ġbart
Ġsunlight
Ġsymbolic
Aut
Ġconfusing
Que
ĠMage
331
Bel
okia
Password
)),
Ġbottles
""
::::
ĠSaud
Ġdeft
;;;;
ĠStr
Ġassumed
Ġensuring
Ġpassionate
ĠIsraelis
Ġseek
Ġrested
Ġgruesome
Ġam
'"
U
Ġobserving
ages
.).
ĠJudges
ĠNoel
ĠRider
Ġwrecked
Ġpersecuted
Rah
Ġpacif
ĠPhilos
Ġbreakout
GP
ĠRestaur
Sharp
olve
resy
Ġflashy
earned
Ġcasts
Ġvoters
Ġpastors
ĠSit
Ġimply
ĠAlger
ĠThiel
bb
Ġpatron
ĠAttend
Ġantibody
Ġmanage
ĠPinterest
Ġemer
Ġevade
Ġfrantic
ĠConv
Republic
ĠAppropriations
Tam
orians
Ġcrates
ulnerability
Ġgrep
Ġexha
Ġcapturing
Ġproving
ĠMcN
Ġbitterly
ĠFISA
Ġ680
ivic
Others
ĠAberdeen
Ġsprites
onica
Year
ELD
Ġ@@
Ġev
Ġstunned
ĠYour
Ġcursed
Ġ$\
Ġplanes
Ġcore
Ġca
Ġhappily
ĠAbedin
ĠCoalition
Ġtiles
Ġtyrant
ĠCounty
Ġpub
Term
Iron
Secret
ĠHerb
Ġlex
365
ď
Ġhandwriting
Intern
ĠSHE
heses
Lab
worm
Players
ĠGrow
ĠFounders
Hey
ĠPep
alpha
lat
ĠCards
Ġago
ĠSTUD
bley
Versions
Ġarchitectural
Ġberries
Ġautistic
about
Ġalgorith
Ġfrying
Ġpest
ĠMacArthur
ĠVietnam
Head
ĠPinball
ĠWh
Ġecho
Ġlegislation
Ġqueen
ĠDum
Ġpossessions
prim
Ġ978
ĠDRM
ĠAuth
ĠUnleashed
aterasu
ĠCraig
scrib
tarian
ĠMariners
SS
ĠCad
Ġsmashed
ĠSolomon
tons
hou
Ġenrollment
inity
Ġamidst
ĠItal
ĠElliott
ĠDis
Ġtrophy
ĠWon
Broad
Ġharvest
Ġtestified
ĠOlymp
Ġadherent
ev
aldo
Ġmanip
Ġnot
Ġincredibly
Ġsag
Ġslips
aut
earing
ĠEpic
Avg
dev
Ġhealed
ĠSparrow
umbai
alist
Ġarchive
target
Ġseizure
Ġevangel
wear
Ġmor
Ġrulings
ĠPars
346
Ġ560
Dur
Applic
ulhu
Ġdred
Foreign
umble
Rep
ĠRosenberg
Ġsinister
Ġfederation
ĠInform
Ġsparing
Mrs
adequ
Ġitch
Ġhealer
çĭ
ĠObjective
lyn
Ġhometown
Ġ189
ozo
UTF
ournaments
offset
Ġsell
Ġtherapists
ĠPic
ategory
ĠFox
ulet
isodes
"/>
Ġanother
nir
!!
azi
Ġpropositions
Ġnumeric
Ġparticular
SPEC
ilial
ĠDACA
Ġcult
por
ĠPit
heim
ou
Ġplenty
Ġspeeding
Ġstun
Ġwashed
Ġprev
ipped
Equ
ĠLocke
ĠPap
Ġimages
ĠBelarus
rolog
arent
Gas
ĠMaterial
skip
Ô
Ĥİ
Ġnationals
Ġshining
ĠTesla
Ġmourn
Ġcornerback
Ġfirearms
Night
Ġtut
Ġ6000
inction
rants
restling
killed
Ġcheck
Ġstorefront
ĠProvision
uala
ich
Ġalumni
Church
Ġwarp
Ġpot
lder
550
hend
Ġbored
Ġmist
ĠOrbit
ĠJonathan
ĠCyp
ĠApple
Ġconstellation
Ġdesperation
ĠPv
ĠEsc
Ġnotice
FC
Ġopacity
spot
anon
arg
Fall
ĠJordan
Ġuseful
ĠLikewise
Ġtipping
Ġembodied
ĠBosnia
Pot
Ġcontamin
ĠGalileo
ĠBlazing
BB
ython
="#
ĠChristmas
Ġvessels
Ġread
ĠGuard
Ġdistribute
place
Ġfrivolous
Ġreim
Ġsensed
complete
ilver
Ġbounded
ãĤ¹
ĠFilip
ĠWhen
Ġcorrupt
Ġpains
Ing
Ġcentre
fight
Ġexpressions
cd
Ġbesieged
abyte
Ġexports
alan
oller
ĠsrfAttach
ĠGuardians
ĠBlock
Ġunjust
ĠCompton
Ġterritories
ĠCarnival
liter
Ġlegisl
ĠLex
Ġcrit
Ġpronounce
Ġsighting
urrence
Ġnegative
ĠLET
ĠVish
Ġcontinue
Ġsuccessful
Ġimprisonment
Ġindices
ĠCrowley
Ġmedi
ĠJav
WD
phrine
Ġspo
astery
@@@@
ĠAff
Ġtears
Ġappreciation
79
Ġprocedure
itism
@@@@@@@@
!).
chu
Label
Ġ2021
)...
ĠWen
ĠFlame
ĠGiovanni
Ġexamples
ĠNatural
Ġbron
Ġcontrollers
raits
Qu
ĠCPUs
Ġdivisive
iro
Ġgreed
Products
Ġworkouts
STDOUT
Ġcivil
ĠeBook
ĠBrighton
Ġgimm
ĠPat
ram
ĠSustainable
Ġguild
Ġtoler
Ġseaw
Le
exper
Ġalgae
ĠMoves
usat
âĶĢ
Ġ08
Ġthrown
Ġvit
=(
Ġpossession
eas
Ġfraudulent
ĠKobe
AAA
Ġworkforce
Ġbureau
ĠDund
iasco
raint
ĠClean
ERY
camp
nergy
Ġfinest
Ġsuit
ĠBoard
ĠReleased
Ġwaste
Ġcompeted
ĠMarriage
ĠSergei
Ġdecade
Ġvirtually
Ġcommenting
land
Ġunveil
Ġbrewing
assis
your
lings
ĠWITH
Ġcommands
oly
utive
Ġironic
Ġacquaint
ĠBlood
ĠShift
Ġsimple
ĠContents
363
KEN
Ġacupuncture
Asset
Ġdrains
430
ĠLocation
giving
Ġepit
urger
ĠWand
Ġbiodiversity
ĠFool
Ġinterrog
Ġwoodland
Ġprotests
Unlike
ĠWyn
according
Ġunderworld
shr
expression
Ġelites
Ġinstinct
Ġtroops
ĠZoe
Ġratified
urst
Ġoccupies
ĠArg
Ġstamina
ĠMostly
ĠDimension
12
Ġflow
ĠShu
Ġ179
fix
poses
ĠNM
Ġstrugg
Gra
ĠHard
ogether
Ġselect
Ġracially
umar
Ġidi
ĠSeller
AAF
neum
Ġtriggering
Ġemph
AMD
Built
Ġwedding
ISON
bler
Ġunexplained
po
ĠEston
Ġmono
Ġretail
Ġhearts
ãĤī
oli
Ġversion
ĠOrganisation
ĠMaced
Ġhorny
Ġpipe
âĨĴ
Ġoutdated
Ġcx
ĠNation
ĠCreatures
fficient
/âĢĭ
slaught
Ġlett
ĠPledge
ĠGUI
Ġsecure
ĠWitches
Ġaf
urry
ins
ĠWrong
Ġtabs
ĠSmithsonian
Cro
advertising
To
core
Fla
/"
lene
ĠWarning
Wan
Ġ265
Ġfutile
Ġ264
ĠMedline
Requ
Ġnause
Ġfrustration
ĠHawaii
dain
Ġgunman
mph
ĠUnc
Gro
amboo
Ġfacilitating
Ġtextbook
ĠCelestial
Ġoperator
Ġemptiness
APE
Ġpinnacle
ĠReview
ĠVar
third
ĠCas
anta
shaped
mot
Ġbulbs
Already
Ġhorm
Ġproblems
Ġferv
Ġlaun
as
ĠSnowden
Ġembold
romptu
ãĤ·ãĥ£
le
Ġstandardized
asaki
Ġsticks
VP
anton
EDIT
ĠBrain
Mor
ĠQuantum
Reviewer
Ġshortcomings
Ġheir
ories
rama
Ġloading
ĠKemp
ĠRace
Ġdissent
Ġ................
ĠSplash
å¤
assment
Ġchannel
ack
Ġdiameter
Ġcyn
205
Club
Ġ157
Ġstrong
Ġabilities
Ġclut
ĠDIRECT
ĠMitch
ĠRES
Ġinsecure
mind
Select
Ġprecursor
oring
Ġ1938
Ġbordering
hh
chrome
ident
Ġalcoholism
Î³
Ġsmugglers
ĠAlbion
istration
Ġengineering
ĠFei
ĠComfort
Ġchunk
ĠPerkins
ĠKat
Ġfentanyl
Ġcheckpoint
Ġcontingent
Ġdiscoveries
Ġparamed
Ġproble
ĠFailed
direct
686
rots
Ġledger
Ġexplan
gh
anda
Ġsteadily
Canada
ĠVariant
Ġstaying
Ġ165
Ġcrashed
EAR
pletion
sequence
Ġhumanitarian
Ġovert
GY
Ġmethane
els
Ġdrivers
Ġwater
aur
ĠChoose
WH
linger
ĠWaves
ĠAnim
ãĤ¦ãĤ¹
Ġresults
spawn
Ġcounsel
ĠAL
aries
Ġ1930
ĠDevelopment
292
Ġshareholders
ĠPizza
Ġbullying
Ġoccupied
Ġthousands
Ġdisrespect
ĠLenn
Aid
Ġage
lp
raped
Ġtwice
Ġarrow
Ġ1860
Warren
ileaks
Ġdynam
</s>
Ġwriting
Ġdrops
del
ĠJedi
Henry
Wonder
ĠVict
Ġcircumference
ãĥĳ
ĠGulf
NN
ĠKers
omers
Ġridiculously
Computer
ĠGig
pher
Ġbucks
Ġpretend
ĠInteresting
Ġscience
Ġovercame
ophen
ĠData
trigger
ĠFug
Said
Ġswollen
Ġdamaged
Ġreap
Ġmech
Up
Ġpartners
Ġ229
Story
oped
ĠNob
ogs
ĠJets
Ġscalp
analy
war
ĠDigital
Ġholidays
Ġretarded
Ġattribute
ceive
Ġpaid
Ġinstructions
bo
Ġcorrelated
ĠREG
outside
Ġgasped
Forge
Ġcav
Ġmovements
ĠPortable
WF
Ġblockade
gression
ĠAbyss
Ġliaison
Ġheats
Ġtutor
Îº
ĠSingle
oshenko
Ġgreens
Ġevaluation
articles
Version
olit
ĠTai
Ġcontinuum
ĠLooks
Ġservic
ĠCoffee
INO
Ġadjourn
ĠPhilipp
Ġparty
Ġrubbish
Ġgloss
ĠParents
Ġquake
Ġalmond
Ġhelmet
iann
014
Ġdeline
voy
Ġobnoxious
Bra
Ġmechanism
ESS
Ġdigits
Test
Ġpage
Ġaccept
Ġconvince
Ġembargo
Ġpreaching
ĠKut
Ġcaught
ĠClassical
Ġphysiology
tis
Ġridden
Ġlogically
Russ
Ġchampionships
!!!!
ĠEdition
Len
EEEE
ĠHon
ĠMIDI
åĳ
ĠChristian
Ġselfie
ĠHDR
irl
ĠLines
oken
Ġskirts
Morgan
ĠBris
ĠCanadians
LET
lehem
fitted
ACY
Ġequivalent
.}
ĠVlad
enes
Ġquiet
Ġpregnancy
Ġstadium
Ġâ
ĠCN
ulin
Ġinher
reement
ihad
Ġconsisting
ho
asty
ĠChargers
ĠWarren
Ġclutching
Ġdismissive
verbs
udo
Ġfetal
ĠCompatibility
ĠAssassin
bn
Ġtextures
Ġhit
ĠMerkel
ensis
Ġrenting
Ġprofessors
lis
Ġarsenal
itic
omm
Ġejected
object
technology
Ġmos
FR
Ġorchestra
Ġbom
Supporters
Ġinteractions
Ġresearcher
ĠRF
ĠLounge
ĠMost
Ġcz
ĠOPER
Davis
ĠSik
Ġparas
Ġclients
Ġnin
awan
Ġtimestamp
Ġsorcerer
Ġsupplying
ĠTar
zel
NG
ĠMik
2000
olds
ĠHughes
ĠKeeping
Ġrecap
ĠPedro
Ġflatt
Ġchick
Ġmandates
ĠJob
Ġraping
ĠArmour
Ġlikeness
Ġwrite
Ġprojection
croft
Ġwakes
Ġterrific
Ġpropulsion
Ġrough
Anything
Ġcontaminants
ĠAlternate
unch
Ġ3000
Ġfirsthand
ĠPalest
Ġprecarious
Ġstatute
ĠParkinson
ĠFeed
ĠAlc
umsy
Ġprolet
Ġdressed
ÃŁ
ĠBelgian
Ġshortages
ĠEmails
ĠGenesis
Shop
Ġhops
Ġhallucinations
ĠWinnipeg
mad
ĠEvery
urden
running
ortal
ution
ĠCoach
ĠKaine
Chance
fired
Ġlingu
ĠJason
Ġstamp
airy
Ron
Ġswim
ĠTexture
Ġ106
Maybe
Ġfloods
ĠJen
installed
Ġprototyp
ĠNemesis
ĠRabbi
Ġgimmick
ĠAnch
ĠLynn
numbered
Ġfinal
pots
Ġrover
Ġoutfit
Ġliquids
Ġlot
ographically
Ġma
ĠPowerful
NPR
Ġreplacing
ĠMortal
Ġrewarded
553
ĠFDR
Ġuncontrolled
Ġvm
Together
Ġsnowball
rez
Ġpoint
ĠMidwest
ĠAK
ĠLT
mm
ĠBond
endor
Ġperipheral
blast
ĠCRC
ĠWarhammer
ËĪ
ĠPost
ecast
ĠRailroad
ĠEarth
Ġwelcomed
ĠImmunity
Ġ--------------------
ĠMarketing
hen
Ġ160
Ġhaunted
days
Ġirreversible
Ġwel
ĠKaufman
Ġdominion
Ġpreempt
Ġtariff
Beast
ĠMutant
Ġprepare
ition
ĠThou
Ġlengthy
heartedly
aptic
ikhail
Ġpathetic
ĠYuk
Ġadolescent
Shape
Ġ03
Ġpermits
ĠLibrary
Ġcost
161
Ġexamination
pires
Ġactively
BD
Ġunre
á
Ġantics
ruce
ĠQuan
Ġcohesive
ĠFortress
iol
052
ionage
Ġvisc
ä¸į
Ġ1934
ĠPhoenix
ĠDesigned
OSP
Ġãģ
June
Ġalarming
Ġdeparting
Streamer
forcing
Ġindicator
Ġflattened
Ġnearing
Ġprominently
(_
senal
Ġcourier
Ġhopped
ĠRahul
ive
Point
Ġspate
ĠNikon
ĠkW
rils
Four
Maps
353
æĸ
great
Ġpillars
348
Ġshock
lower
painted
Ġtilted
ĠPages
ĠLocked
Ġdisbanded
Ġframes
ĠRich
ception
inguished
.:
Ġtip
Ġconquered
manuel
ĠApostle
Ġbuffs
eating
Ġdebugger
illas
Ġdeputies
418
Ġ"
ĠTang
Ġforms
167
ĠDes
Ġzoo
api
Ġdaemon
®
cycl
ãĥĩ
Ġwrit
gment
ĠUser
ipher
VIS
Ġsharp
ĠRacer
Ġcanceled
Ġdischarged
ĠTOTAL
max
ĠCreek
Ġbatters
Ġcoating
Ġcurriculum
ĠAly
âĢ²
ĠBL
ĠBath
Ġprevention
Ġ215
Buyable
our
ĠBreaking
Ġroadway
Ġindefinite
ĠYep
RP
Ġpredicts
ĠVec
umerous
ĠAwakening
ise
ĠCH
Arg
ageddon
Ġpan
Ġdex
Min
DI
ĠPRESIDENT
ĠBless
Ġseal
ĠPoles
aturdays
`.
Ġscholarships
ĠSubmission
Ġgroups
ĠTribe
registered
uses
Ġproto
act
Brien
ĠWithin
ibo
Ġka
Ġblasp
ĠISIL
ĠSherlock
ĠBetsy
ĠProp
Ġextension
achi
Ġnortheastern
vin
ĠTro
ĠNab
ĠNick
ĠHay
Benz
Ġclos
Ġrulers
Ġ290
Ġwander
ĠMarco
ĠEmerald
14
most
Ġaccessories
oret
Ġfiles
ĠCrescent
Ġvalidation
Ġdiabetes
finals
inges
Hay
ĠBrazilian
Charg
Ġsher
Ġinternational
Ġuterus
ĠVIS
cling
ansom
omination
ĠEnemies
framework
IK
Ġbrighter
acters
ĠMuslims
Ġcompliant
Ġexploiting
Um
ĠForces
+(
Î»
iscons
ĠFischer
Ġpreschool
KING
ĠBRE
ĠMIN
ĠKod
ĠRocky
001
ĠWS
Ġbudgets
Ġdisplays
ĠFrequ
Missing
Ġgrandchildren
igrate
Ġ51
arms
ju
Ġresidue
Ġ@
REM
Ġcondol
ĠKrist
301
ĠâĿ
Ġsublime
ĠHumph
Ġcoales
ĠRise
ĠCompetitive
Ġaqu
Ġpopulated
Ġawaits
Ġsimplify
olving
Ġ158
ĠMake
ĠAlly
Ġunearthed
ĠiPod
Leg
Ġ1935
Ġfeud
nor
Ġconcedes
Ġpropos
Reply
ĠRutherford
Ġmobile
ĠKun
Ġbits
Ohio
ĠArtificial
Ġlucid
Ġrs
Irish
Ġsteals
Ġmd
ounces
Ġartistic
Inv
04
change
Ġovarian
Ġstared
Ġclinically
ĠTCU
ĠRoberto
ĠProposition
Ġcaste
ĠSettings
Ġmultic
ĠReturning
ĠDiagn
ĠCap
Ġbeats
Times
rand
they
Ġwow
Ġrab
icist
swick
Ġwinding
Ġelectronic
approximately
Ġathlete
Ġlamps
ĠHarmon
Ġmortar
Ġwas
CT
trap
Freedom
Ġtoppled
ĠYesterday
Ġremembered
Ġreflection
ĠTitan
ĠYosh
ĠDiesel
ĠMunicip
Ġpromulg
Internet
ĠTile
Ġmat
Toronto
ilic
ĠFeedback
Ġres
ĠBulg
ĠDevi
rices
ĠBow
ĠLiv
comment
ĠMods
Ġheartfelt
Ġ319
ĠST
ĠPrices
Ġcoordinate
illian
ĠTools
CB
tes
ĠCAL
Ġtech
ert
Ġslapping
Ġconformity
Kal
Ġcelebrates
obb
ĠPascal
ĠImmediately
JUST
ĠArn
Boot
Ġincarceration
ĠNever
Ġbroth
Ġfri
Ġaward
run
ose
Ġresponded
ĠPassage
mr
ĠUPDATE
Ġpredicted
Ġmindful
Ġdistinguishes
ĠDoes
ĠXX
Ġsomehow
Ġenjoyable
Ġgarner
Ġnote
oric
Ġwww
ĠTurner
Ġsorrow
ĠLey
Ġmanufacturing
uss
afa
Ġsourcing
Ġdelicious
Ġlabou
Ġusur
ĠMonths
Ġfreed
gran
Ġlatch
Ġcollective
Ġpatrons
ĠOy
Ġinquired
ĠChief
Wood
idency
Ġcrisp
Ġ"$
Ġbathing
ergic
Ġunto
Ġdescent
ĠAwesome
ĠForums
Ġrent
ĠHorizon
Ġneuronal
ĠFrames
ĠConvers
Ġnutrit
785
Ġalloc
Ġpublic
Ġshortstop
ĠEur
ĠLatin
ĠDistribut
ĠVegan
ĠService
Ġpipeline
qt
Ġleptin
Ġsimultane
Ġperceptual
oris
ĠNep
Ġwarning
Ġinheritance
Ġstimulate
rador
osaurs
Ġportfolio
Ġdeem
Scan
eatures
Ġneuroscience
ossus
Ġnose
ãĥ¼ãĥĨ
Ġconclusion
ĠSang
Ġconcerts
ĠAdmiral
olar
ĠPicture
Reviewed
Ġembody
angular
ĠPotion
ium
595
Names
unt
Ġtypically
Ġokay
Ġblockbuster
Ġexhaustion
ĠSpending
Ġmanagement
Ġfracture
pers
Create
Ġhours
Ġah
Ġspokesperson
ĠHud
ĠIrvine
ĠBMC
162
Ġconquest
eware
Ġdisk
Ġcooled
Ġwindshield
Ġcontract
ĠRecall
ĠJab
su
ĠAadhaar
Ġlav
ĠSinn
ĠRandomRedditor
ĠLindsay
ĠPredator
Ġcattle
ĠCONC
ĠGuardian
Ġamassed
Ġadmin
ĠDuo
etsk
onut
DERR
ĠBeasts
rawdownloadcloneembedreportprint
Ġglobe
ĠLou
berry
Like
Ġhistories
Ġbells
ĠHunt
Ġresided
Then
Ġfinalized
ĠWem
Ġstructured
088
cry
Ġconclude
Ġdirty
Rs
Ġspoon
Ġcane
Ġbicycles
Ġrestroom
cover
ĠProb
ĠYad
Ġspins
iii
ĠRue
izational
ward
Ġqualifier
395
Ġneurot
Eh
Ġcorrid
ô
Ġslip
ĠRas
Ġactivated
Calling
ĠAx
ĠVine
Ġnurturing
Ġbrow
Ġreception
Ġcraw
Dom
Ġunderscore
Various
AAAA
ITION
Ġanthem
aster
Ġwastes
Ġamendments
ĠCarolina
Ġdevoted
Ġsanctioned
ĠSTR
ĠStur
ombie
IAS
Loader
ĠAmit
ĠCohen
Ġwar
Db
Ġcured
ĠCox
Ġisolated
ĠRo
ĠBonnie
Ġlighthouse
Ġsynchronization
Ġinformed
672
holes
ĠReduction
Ġstole
ĠAntonio
ĠCITY
ĠHighway
Ġenvironmental
ĠWord
ĠNey
?",
ĠInside
ĠStra
Ġ1933
Ġthicker
ĠOpposition
ĠChef
watch
istry
How
ĠGust
alks
ĠDescription
ĠREST
Ġdisks
THER
ĠGott
ĠHok
544
Î²
mpire
Ù
Ġresiding
Absolutely
Mist
ĠESP
Ġingest
779
Ġinserts
ology
help
-'
ĠThieves
Ġextinction
ĠAnalyst
ĠBird
Ġriding
Ġassessments
Ġsenator
ieve
pleting
Ġ244
Ġmortg
ĠChelsea
ĠStep
hardt
Conservative
Ġadvancements
Ġ720
had
Ġsophomore
ission
Nap
ĠDoom
Obviously
Ġdrilling
ĠTart
Ġsod
channelAvailability
Ġtrim
Ġfearing
ĠAdidas
point
arb
ĠVID
ĠLevi
Ġlimbo
ĠAtlas
Ġconcerns
ĠTimberwolves
juries
Ġswinging
Ġdermat
Ġopportun
ĠLouis
Ġdocumentaries
ĠIndian
enz
Ġcrossover
runners
Ġduct
Ġcowardly
Ġroasted
Ġhairst
Interestingly
ĠWidth
ĠBates
aterial
Ġblazing
published
ĠGian
ĠExtreme
================================================================
auntlet
bryce
ĠCeltics
ovi
ĠMeal
ĠPremiership
expensive
ĠFACE
return
kiss
ĠMew
Ġreflects
Ġbeautiful
Ġgrateful
Ġherbal
ĠSwiss
Ġodds
Ġmotel
ĠAlvin
Ġdecidedly
ules
Ġ820
Ġleadership
Ġfinally
Ġstacking
Ġquirks
Ġstimuli
ĠSega
Ġexecutes
humans
Ġignorance
Ġclich
WER
ycle
Ġol
Ġbearer
mental
ĠGods
ĠPros
ĠBaghdad
Ġlackluster
induced
yard
Ġrepresent
Ġcontrols
Ġquickly
Ġleagues
ãĢ
attled
ĠHowe
Ġcolonization
ĠSent
ĠPlain
urdy
Ġglam
DO
ĠInteger
ĠVen
Ġcompetitor
risk
Ġtuition
ĠDecl
Ġdeflation
Ġadministrations
powers
Ġresolutions
Ġpillar
Ġambassador
Ġdh
Ġsponsoring
Ġmadness
ĠAura
Ġinstance
Ġoverhaul
ĠDaniels
Ġcontinental
ĠHOR
Ġmodem
aine
ustainable
description
230
ĠEdge
ĠChannel
ĠGin
ĠCash
ĠFind
aman
Ġcodes
Ġwholly
zig
Ġaccredited
618
ĠHOT
Ġmutant
Ġion
Ġwins
ĠCargo
ĠSupplement
aird
ĠkHz
Ġreinforcing
ĠBase
Ġpipelines
ĠSE
Ġcompartment
Ġanthrop
Ġauctions
Ġturmoil
ĠCrit
either
ĠOTHER
Storage
Psy
zzi
Bush
ĠAlzheimer
ĠMagazine
ch
ĠSTART
ophon
employment
Ġillusions
ĠBrach
rather
utenant
staking
Ġshares
Your
kg
Ġcourtyard
éĸ
ishment
ĠWild
Ġbeams
ĠSaturdays
ĠCycle
ĠColo
rav
Ġliterary
ĠSTORY
ĠÂ¯
Ġleverage
Ġnailed
]'
Break
iannopoulos
software
Ġ+
Ġincapac
Ġinterviewing
Ġcompressor
stellar
Ġtoughness
ĠMormons
iosyncr
Text
Ġbindings
ipper
Ġsustained
Ġaddr
NVIDIA
sur
ĠBlair
ĠFif
Ġsnapping
Ġnight
Ġ2000
Ġecosystem
Ġdrunken
fun
Ġapproves
ĠEmin
Ġgrasping
ĠScher
former
Ġstudio
Ġgraffiti
bc
Ġ278
'),
noxious
Ġuniforms
ĠChal
Ġcandidate
ĠKennedy
ĠBil
Ġinsane
AT
Invalid
Ġparchment
omon
ĠConrad
WAY
ots
ĠLiver
149
Ġmillenn
ĠLib
Ġquirky
posts
Ġcommissions
Ġlowers
ASY
ote
Ġdiagnosed
ĠSalt
ĠGoku
ĠUri
Ġaverage
ĠSign
Ġencouraged
ĠRevenue
aintain
Ġtw
ĠBack
capitalist
Ġ121
Ġjail
ĠContext
129
ĠDolphin
ramer
Ġunsurprisingly
Ġbalcon
Working
ĠSpirit
ĠFree
Ġbooking
heed
Ġelevation
infect
results
Ġsubmit
Where
Ġtot
Ġchant
Ġreferring
Ġcush
Ġsporadic
uscript
uated
457
Ġastonishing
ĠVista
Ġactive
fm
ĠRoberts
Ġscal
âģ
PS
tical
Delta
ĠGlob
ĠMorsi
Ġdodging
ĠJag
>)
ĠÂ®
Ġinjuries
Ġneighborhood
ĠExcept
flo
ĠSubmit
otech
Ġrout
Ġstripe
Rare
Ġeld
Between
ĠBelg
ICO
Ġmul
ĠRelief
Ġlabeling
Tang
Ġsingles
Ġundergoing
ĠVirgin
ĠAnat
Pal
Ġcontradictory
iterator
ĠThey
Marc
Ġpastor
Ġcopies
Ġcompletely
ĠTechnology
Ġinitiate
ĠEld
Det
Ġinfusion
Ġslavery
bour
Ġcaching
Ġexpulsion
Ġglyph
Wilson
Ġsalute
Ġ332
ACE
irst
Ġdomest
webkit
(*
Ġthrive
ĠWeight
ĠMarx
Ġprinc
748
ĠWallace
":"
Ġoffseason
ĠVenezuela
Ġcollisions
inders
Ġbooming
ĠFail
ĠRagnar
Ġmodifiers
ĠArmstrong
ĠCass
erd
ĠSweep
esty
ĠTrail
Ġmillionaire
Row
ĠSoldiers
ĠAng
Ġflyer
Ġdesolate
ĠJudgment
join
Ġ::
iculty
Url
cers
Ġbil
Ġrepetition
Ġincest
Ġcrocod
Ġlandsl
Columb
ĠTer
Ġinformant
TA
Ġskewed
ĠLIVE
Tour
Ġcertain
Ġtalent
ĠConstable
Ġcereal
xit
Ġappropriated
ĠSchwe
azel
Ġabbre
ï¿½ï¿½ï¿½ï¿½
inline
Ġfading
â
Ġcopyright
ĠMoroc
ĝ
ĠHash
ĠHai
clear
Ġhalf
Sc
abies
Ġsaturated
Ġdefends
Thomas
ĠThatcher
addin
Ġthirsty
Ġguardian
Ġsupposed
Ġpregnant
Ge
ĠBank
ishers
Ġmim
ails
Ġsymptom
ostic
Ġhaz
ĠHoffman
Since
ĠSlovenia
ĠLep
Ġreciprocal
Ġbowel
Ġsmelling
tower
ottest
Ġzeal
ĠTobias
morph
ãĤŃ
ĠMoore
ĠGmail
Ġblush
ci
Ġthrust
Ġperplex
ĠFern
utherford
Ġmissed
ĠHack
Without
issa
Ġupwards
Ġjoined
tops
ĠFAM
Ġdeteriorating
Ġbrilliant
utic
meat
ugs
My
zer
ĠUT
Ġencountering
iem
Ġ138
ĠExplain
Ġline
ĠMr
ĠKH
ĠPlane
Ġmaneu
Ġunderlying
ĠPowell
ĠRAM
Ġcautious
Ġquietly
PATH
Ġfavor
ascade
Ġisn
Ġlawmaker
igan
Ġrifle
Ġaccomplishment
sv
ĠDOE
icked
Ġstool
uminati
Ġ451
ĊÂł
Ġdinosaurs
Ġcapacitor
Ġaccountable
Ġtend
ĠDynam
Ġdispersed
wid
bin
bles
Ġnecess
kept
Ġconference
Ġtraverse
Ġnodd
Â©
ãģ®å
ipt
ĠKant
æĹ
Ġscaff
Ġhandcuffs
ĠChaser
ĠRecording
ĠBest
ĠMF
ĠDistrict
Ġ168
Ġstrangely
Ġdisputes
Ġhope
ĠBei
ĠSouthwest
ĠPractice
Ġresidential
Ġpublishes
Ġlearnt
ĠNazis
________________
Ġstrained
Ġcurls
Ġtripled
178
Ġindebted
opolis
alyses
Ġflair
Ġweekday
PDATED
Ġexemptions
ĠEly
Ġherd
lishing
Islam
ĠServer
ĠBuenos
ico
Ġembassies
ĠRebell
ĠTakeru
Rh
ĠMason
Ġcooperation
points
Mir
Ġprisons
mode
ĠNile
Ġachievable
Ġforbidden
Ġspread
ĠArbor
ĠEveryone
ĠAure
538
Ġenactment
Ġfever
ithe
ĠFranks
Ġceases
ĠCapitol
ĠHeist
xual
e
tar
Ġpop
ĠCareer
Ġdisplacement
TPPStreamerBot
Edge
Native
Maximum
Ġurl
ĠCLE
ĠOwner
ĠPolly
ĠNokia
Ġfinan
ĠFib
anticipated
reports
crew
Ne
Ġjohn
rying
×ĳ
Ġhyper
ĠRule
Ġballots
Old
ĠDom
Ġimposes
Ġclear
Ġirritating
Ġmidnight
ĠR
Ġpneumonia
bert
½
sal
ĠNek
picking
urse
ĠIter
Ġstrengthened
oult
ĠKier
ĠAvg
Ġdiseng
ĠLiberation
include
Ġtiny
ĠShelby
Ġefficient
ĠShows
Ġsurrender
ĠKend
Ġpeas
icing
Ġdemo
inst
jee
phi
Ġtemplates
ĠPlans
irens
cience
Ġtropes
Ġgrants
Ġindict
trust
Ġdenomination
bd
Italy
Ġchemist
Ġhowever
Ġsubord
iewicz
width
ĠDarrell
GMT
Ġsatirical
Customer
Ġaxes
ãĥĢ
Ġrehears
Ġ1928
put
ĠBoots
1995
bean
Ġcontains
ĠSea
Ġloves
Ġenjoying
Ġcontained
Ġenthusiasm
geons
Browser
ãĢį
Ġflowing
atown
ĠTechniques
ĠBarbie
Ġ1070
oji
ĠTrick
Ġdistribut
hirt
ĠCitadel
umping
ĠMacedonia
ĠCONT
Ġgreeted
Ġeither
Ġdialogue
Ġverified
Ġcenters
ĠOx
Ġtwent
Ġflask
ĠSeven
Ġsignatures
oplan
Ġdepressive
Ġclears
Ġcalculations
Ġdiscriminatory
Ġattm
necess
Ġhistorian
Ġageing
secut
ivers
Ġtechnologies
Commun
99
ĠUni
Ġhighest
ousing
()
Ġprospective
Ġgrief
Google
Ġ1972
apeake
ĠBarrel
Big
Ġhaw
Ġinterstate
Ġpeel
Ġfetus
ircraft
NYSE
ĠShal
ussia
ulators
ĠDevelop
Ġknob
Ġweight
ĠTraining
Ġanal
ĠTwe
oche
Its
Ġinsect
Ġbrisk
Ġfel
ĠHydro
Ġdean
ĠMelvin
Ġrelaxation
Zone
Ġ315
Ġinsomnia
Ġdebilitating
rep
77
ications
ĠHilbert
Ġhint
lane
Ġaccounts
ĠVisit
burst
Ġunsc
Pat
Ġcompliance
Ġxx
rade
ĠReson
Ġresponsiveness
ĠInitially
ouch
upe
Official
oresc
enses
Ġdemolition
Ġarising
Ġoppressive
ETF
Ġwidespread
ĠMcF
ridden
res
Ġarguing
Ġshaved
ĠMobility
including
ZA
Ġnegativity
Ġroadmap
Ġmarketplace
ĠGoldstein
ĠAk
Ġawarding
rote
Ġweary
Ġbadges
Ġeconomically
Friday
601
Ġfan
Ġprecedent
Ġdefendant
istics
Ġfluct
ĠHUN
Ġlarvae
Ġadjective
ä¸
Ġtasked
Ġchuckled
urations
çĶ°
ĠJobs
Daddy
ener
ĠBalkans
Ġeast
ãģ
Ġloser
Ġshoulder
Ġproper
ĠJune
Ġsanctions
Ġoutsider
Ġwashing
ĠSm
Ġprotocol
ĠAce
Ġtreasurer
563
Ġupdating
ĠAmerica
column
Ġoverdose
ime
ĠDoc
Ġguru
alien
Ġempathy
Ġbol
Ġcomments
ĠTal
ĠGravity
ĠOnion
ĠGon
Ġminus
metadata
tu
Ġgore
1976
Scroll
ãĥ¼ãĥ
ĠFalk
ress
Ġreactor
Richard
ĠTasmania
Ġboiled
nb
Ġinsignificant
ĠBeen
Chicken
field
Fail
Ġadd
Ġuniversity
Stone
ĠBottle
Ġmysql
ĠSchwartz
ination
92
Ġbloodshed
ĠVoltage
PokÃ©
Ġchecking
Ġadjud
Ġenlight
etter
Ġdistracted
Ġdeton
ainers
ĠBoo
gre
Ġunregulated
GR
ully
ĠSixth
":[
ĠCommunity
itto
Ġboy
gs
Ġkillers
Ġcapacities
ĠSCH
Ġcircuits
Ġcabbage
Ġdise
Winner
Ġbiggest
card
ĠNothing
ĠRobb
arrett
ĠFolk
Ġshirt
Ġhop
Ġthoroughly
ossibility
ĠCarry
Ġunintended
Ġmotivate
Ġhandset
urt
ulo
362
ĠSandwich
Ġopposing
Ġimpacts
rollment
ĠSadly
ĠPeriod
Ġassortment
iotics
ĠWidow
Mine
ĠHaj
Ġprogressing
ĠSchwarz
Ġroadside
Ġunfair
Ġformulate
ĠName
Ġpatriotism
Ġdenounce
ĠJill
ĠVi
Ġfist
Ġcosmic
iery
ĠAn
ĠTank
Ġlyn
Ġtextbooks
Ġwiden
Ġpuppies
Ġathletes
Ġcollapses
Ġemptied
apan
ĠUltr
ĠIdentification
024
ĠOwl
ĠFPS
Ġsignificantly
ĠRatt
Ġthreaten
ĠNikola
ocratic
Ġgroove
Ġabuser
Ġlb
ifiers
ĠLama
Ġbursting
bodied
Senate
Ġkicked
à
ALT
Ġprot
ĠMine
ocial
Ġreturn
ierre
oka
Ġlar
Ġquotations
Ġpursu
ĠJan
ĠTomorrow
ruly
ĠQur
ĠCritical
Ġare
Ġ(~
Art
Ġguidelines
Ġanim
iban
Ġriot
Ġperished
ĠAle
otherapy
Ġlev
Ġroot
ĠHeavy
GC
Ġaddresses
Ġausp
Ġcondom
UID
Ġvain
rs
adan
Ġphoton
Ġeyel
Ġaltogether
ager
ĠFD
Ġpilots
Ġlig
ĠKamp
ĠAlien
ĠHorowitz
head
Ġheroism
Ġring
ĠBuff
ĠThem
ĠMaharashtra
Ġviews
teenth
Ġlaser
Ġsour
With
Ġgenetic
Ġapartments
Sir
Ġcage
Spoiler
igmatic
illes
Ġmixer
slot
cutting
Ġcompetence
Ġfirm
Ġdate
Ġcruise
Ġlegislators
lon
Ġhonors
Ġstrives
FK
ĠLAPD
ĠConvention
Ġarrangement
Ġburied
Ġstranded
ĠBarrett
Ġphotographers
Please
vas
itis
Ġtrooper
Ġstaple
ĠCongressman
ĠMs
Ġfortnight
Ġshack
Ġwant
Ġsettings
Nazi
Come
bomb
ĠDidn
Ġperceptions
Ġgamer
Ġinterpreting
ĠMans
Ġinvestigators
ĠRim
Ġscholarship
ĠJury
106
Ġshutting
sam
Protect
ĠEt
Ġnamely
Ġtokens
eness
Ġdowntime
ATT
Ġsleepy
ĠBook
ĠDavidson
Ġimm
ĠWW
ĠKore
Ġsequence
Ġlogistical
ĠCars
ĠReddit
153
events
Ġpermissions
OTH
elines
Ġannexation
Ġfren
951
Ġtours
Ġrelinqu
cknowled
ĠRhino
Ġfaculties
ĠConscious
Ġ1902
endix
Ġcertific
Ġunin
Ġdu
Follow
egal
1001
Ġlongest
ĠCharisma
Ġwritten
Ġmobility
ĠWonders
Ġuns
Sample
ĠOutbreak
éŃĶ
ãĤ¨ãĥ«
ĠLane
Ġpleasure
lly
Ġblasts
Ġflickering
ĠFan
iquette
139
Ġglared
ĠOfficial
rano
Ġelsewhere
ĠWilkinson
ĠGothic
$.
ĠPerth
ĠHuma
Credits
ÙĴ
wired
ĠFriend
ĠFritz
Ġground
ĠTenth
HTML
bay
ĠPag
Ġdifferent
Ġmilit
zee
FREE
Still
announced
Ġcounts
nl
Ġcohort
Ġmajors
WHERE
Ġreader
filename
xe
ient
Ġprovision
ĠDevon
Ġdf
Ġcro
ĠIrwin
Ġretrieval
ĠBounty
Boy
Ġnumb
Ġequitable
Ġmarble
Ġproclaiming
Ġshader
airs
Pad
Ġbrink
Ġmajorities
Ġnurt
Ġassemble
Ġanonymous
Ġgetting
essert
ĠJonas
ĠGuide
nex
ĠPresbyter
Ġdeviation
Ġlimbs
Ġjudicial
etermined
Ġadults
Ġdisabled
Ġrenewed
âĸĦ
oof
Ġautos
Ġcompleting
Ġlethal
Ġfeeble
ĠBastard
risome
clair
force
versions
Ġsatell
ĠPenn
Ġmassacre
Ġownership
ĠUSA
Ġcharity
Ġorganisation
ĠSW
Ġinquiries
ĠKol
ĠTribunal
ĠDominion
ĠTalks
Ġpostp
Ġredundant
Ġperfume
ĠPatron
Ġwhispered
027
ĠEndurance
Ġsignage
Ġz
Ġdismay
Ġexpansion
agus
ċ
Ġdunno
ĠÂłĠÂłĠÂłĠÂłĠÂłĠÂłĠÂłĠÂł
les
ĠHistory
ĠIE
ĠBulgarian
ĠAllen
Ġnoted
wich
Ġdams
waves
Malley
hner
iddling
030
mean
med
ĠConserv
********
Charles
Ġmarine
ially
orf
ĠNJ
ĠMuhammad
oola
ĠNether
Ġbenefited
Ġwhistle
ovo
Ġlure
ĠSometimes
Depending
=~
Ġquests
ĠNAD
ĠPreservation
Ġtests
powder
Ġemotionally
Ġsalad
Ġwrench
ĠÎ¼
Ġcoma
agically
Ġcross
ĠTy
ĠLaura
Ġbandwagon
ĠSagan
em
ĠCornell
Ġordeal
ĠTony
Ġy
Ġdefiance
Ġcle
Ġ370
ĠMedieval
ĠAssignment
Ġbipartisan
Ġfulfilled
toggle
Ġwishes
Ġclitor
nette
Ġbool
orman
Ġreboot
Ġemission
Platform
dayName
Ġsupervision
Ġwore
ĠItalian
ĠMatch
Ġtraveller
ĠTRUMP
Ġstellar
Ġcontends
ESH
ĠHarmony
Ġyounger
ĠDunham
ĠPiece
ĠKrug
Ġillness
ĠWheels
Ġconsequential
ottage
Ġrepaired
Ġfury
ĠStro
ĠProgress
Ġincreased
ĠChuck
Ġstove
ain
Ġrouted
rencies
lam
Ġcleaners
Ġinsepar
wr
Ġactivating
ĠInitial
Ġcaval
Ġtestosterone
RAL
demon
ĠMaximum
ĠOu
Ġrepeated
ĠWillow
backed
lict
Victoria
nai
ĠElven
Ġdentist
DD
Ġdecrypt
Ġunprecedented
would
Ġsubstances
ĠHindi
mis
Ġvideot
versive
ĠCummings
Ġprize
Ġspeedy
ĠTsuk
bestos
Ġcheckout
ĠJeffrey
Ġwebpage
ĠLayout
Ġintensified
Ġsuperstar
Ġfestivals
Sanders
ĠFight
ĠRee
Ġpaperwork
Ã¼
ĠTo
Ġturf
Ġshields
ĠRockefeller
IQ
Increase
FAQ
ANY
ĠBre
Ġder
ĠDOWN
Ġpatrolling
Ġportrays
Ġbriefings
Ġ348
Ġuint
crime
ĠMiscellaneous
eled
Ġranger
Ġsmokers
ĠWhe
vance
ĠAugustus
ãĥ¯
Ġsir
Ġending
Ġperceive
ĠTrip
Ġshampoo
whose
elve
ĠThrow
ĠServ
ending
Ġfermented
ĠEcuador
ĠKansas
Ġinquest
âĹ¼
Ġvending
Ġsensit
CM
Ġheadaches
ĠFerry
Ġconductor
sci
Termin
Ġwonder
ĠBlind
Ġviewing
Ġtie
ĠETF
zman
voc
Ġscra
elight
ĠSn
ĠNTS
ĠBowling
Ġarmoured
ĠNico
ĠProvidence
Ġpolitic
ĠMus
Put
Ġscrambling
Ġinsulation
ĠNicholas
aping
ĠMerc
Ġsupermarkets
sl
Ġelementary
Ġ119
Jo
ortion
ocalyptic
Isn
Ġextravag
ĠEach
Ġinspecting
ologically
ĠFrances
inates
Library
Ġdefied
ea
Ġprohibitions
Ġbarb
annabin
Ġartery
Ġblogging
Ġcontext
ĠCoyotes
ĠCredits
Ġprinces
Ġcompat
Ġplentiful
project
ÅŁ
Ġconsume
Ġproposed
witch
aryl
APTER
Ġflavors
Ġprioritize
Ġmet
Ġwondering
Ġbacklash
chat
Ġtiger
ĠGO
Ã»
Students
ĠChild
mp
Ġwidget
ĠOffense
ategy
ĠHannibal
ggles
Ġantid
band
NASA
header
648
ĠVenezuel
ĠInstructor
Ġdoctr
ool
ĠVag
ĠCaribbean
"></
Ġreborn
Ġwanted
517
Ġcooks
Ġpeak
Hy
Ġperjury
Fig
Ġdefamation
Ġcollaborated
Ġbumps
blers
ĠJoel
ampton
Ġflipping
count
utton
Ġhumankind
Ġdw
ourse
Ġgenres
Material
992
ĠEmpires
Ġhesitated
Ġbraking
apons
ĠECB
468
Ġreflected
umo
ĠSport
Ġimplicated
Christ
Ġexpressly
ĠAlic
ccess
Ġbatteries
ĠALP
Ġb
av
Ġtragic
ĠÂ»
Jimmy
Ġregress
Ġchanged
Ġ['
Ground
Ġendorsements
Ġinhuman
ribute
Ġsubmerged
nerg
iles
ĠHust
Ġpowerfully
null
coat
Connect
Ġmorphed
ĠSur
Ġdreams
Ġentities
ĠRomeo
Ġis
Ġraids
Ġmarital
745
Video
ĠFilipino
î
istine
Ġteleportation
Ġscreen
ĠPhD
Ġtreadmill
avascript
OSE
ĠForms
Supported
Ġnarrative
worker
Ġte
Ġglass
ĠRel
home
ISE
Ġgranddaughter
GI
ĠClarkson
ĠFighters
Mi
Ġsam
Ġstruggles
ĠCOP
Ġdeliveries
Ver
asking
ĠðŁĻĤ
Ġjuven
managed
Ġinnovative
existing
Ġhouseholds
ĠWarn
Ġ336
Ġsided
ĠLeth
ĠIMAGES
cz
ĠScene
Ġnationalism
Ġhrs
Ġmultipl
Ġburgeoning
ĠSheldon
Mah
Ġfamine
Ġsecession
Republican
Ġimporting
Sand
Ul
/
Ġgrat
Sounds
oiler
ĠCat
ĠISI
ĠKaiser
gear
Ġeliminating
Sw
Ġsongs
Ġclarified
kish
vp
utsu
Ġasteroid
oooooooo
Ġappre
Ġtrailing
Ġanniversary
css
Ġfilms
ĠUr
Ġchests
Ġta
ithmetic
ÃĽ
Ġrallies
Ġbrush
ĠGDP
OOOOOOOO
RET
ĠSay
Ġgerm
Ġenigmatic
z
Ġcity
ĠMaterials
ĠAMC
blog
Ġwarranted
Ġsphere
ĠCard
ĠMil
Ġretiring
Ġseismic
Ġskeleton
...)
729
Ġ();
ãĥ¢
ĠRailway
ĠNotice
Ã§a
Ġdivul
ĠDifficulty
ĠRouhani
Ġfunded
ara
ben
May
hers
ĠIND
Ġ***
ĠDemocrats
rought
ĠCharges
ĠBuildings
Ġmultip
Ġ1870
Ġ])
Ġtable
sen
ĠAllison
itchie
Ġmol
)"
Ġlaud
ĠJudith
annot
Ġinteracts
901
Sty
Ġunrel
ĠAssassins
gha
uns
Rad
Ġnegligent
Ġsinking
Ġhelpless
ĠAtkins
resso
udos
Ġsh
ĠLabour
ĠBosh
Ġcontinu
ĠMilk
ĠDrunk
kees
Ġrandom
Virgin
ortment
Ġget
ĠEx
ĠJet
Ġtotaled
ĠOUR
Ġdeported
heit
Ġavalanche
ĠCOURT
Ġgri
Ġlifes
ass
Ġcollabor
Ġlegitimate
Tomorrow
Ġflashback
Ġalmost
ĠTrees
ĠStim
713
ĠDeaths
ĠHutchinson
ĠEmperor
Ġsuffers
Ġeffectiveness
1966
Org
Ġredundancy
ĠActivate
âĪĴ
twitch
Ġspons
livious
Ġsaw
saving
ĠPeggy
Ġdru
omes
ĠAires
Ġstomp
Ġamazingly
Ġpersu
Ġantidepressant
Ġmaker
ĠWeb
ĠTB
ĠFusion
Ġhear
Ġstationary
ĠOsama
Ġheadquarters
Ġ``(
Ġmastermind
Ġdenounced
Micro
ourgeois
ĠABOUT
[[
antle
Ġentrenched
Ġtemptation
ĠConj
Ġpockets
Ġmeans
Ġpulse
Ġmouth
EP
Ġexcel
ĠDifferences
Tips
pler
ĠUlster
razil
Ġregul
ĠSeptember
Ġmodel
Ġ1915
ĠSC
tell
''.
img
Ġlearners
he
uded
Ġzone
Ġbeginning
Ġhonoring
Ġbacteria
Ã¦
ĠEnded
Earn
Medic
Ġattribut
Whe
femin
ĠRules
split
Ġspotted
Ġpersons
Ġroofs
150
ĠReign
183
Ġheterosexual
Stre
Ġfather
Ġloyalty
ĠGRE
Ġhips
ĠBaird
ok
Ġalbum
Ġremovable
ĠHun
Ġislands
irit
Ġaffordability
ĠArabia
ĠTough
try
Ġheadphone
Ġcarn
Ġpopped
ĠMoons
Ġsolitude
Ġvocational
ĠFist
ffiti
ĠPharm
Ġglorious
rouse
Ġsynaptic
Configuration
Ġfitness
ĠAsked
inv
xx
Ġbecame
IP
Ġsou
ĠDra
Ġguessing
Ġrecreate
Ġunaffected
Ġestim
prison
Ġcollaborating
Ġinnocuous
Ġbisc
Ġfart
ĠBIOS
Ġdistraction
Ġprofessionalism
ĠValkyrie
users
AGES
ĠSchwarzenegger
paren
Ġadoptive
Ġpracticable
ighth
ĠRun
Ġvitality
Ġkinderg
ĠNFL
ĠContinental
Ġrivers
Wire
Ġreferees
Ġdirectly
Ġbone
Ġtanker
Ġpoke
Ġawakening
Laughs
DES
Ġdiminish
anas
ĠPerse
Raid
SSL
Ġunderway
ĠAppeal
bike
Ġclassmate
279
iken
Central
ados
Ġorganising
ĠBee
ĠPull
Ġbreaks
Ġpublicity
ACC
ĠNich
ickers
Ġbending
ĠPowerPoint
laughter
Ġdisemb
utics
England
Ġagent
ĠXIII
rius
ĠFinance
learning
Ġpokemon
ĠCompact
BUR
actic
Ġè£ıç
erver
ĠIndonesia
ĠBatt
====
Ġbuzz
Ġcoaster
sharing
312
Ġstabbed
Ġworrying
ĠSlack
start
degree
mercial
ĠEnergy
ĠAFP
ĠCorona
Ġelevated
ummies
Ġproced
football
ae
Ġexamine
Ġstroke
ĠStar
Ġbones
Ġcivic
ĠAlicia
ĠParamount
ĠActually
iceps
ĠBlades
Ġcontroller
Ġmysteriously
ĠPigs
istors
utonium
ĠFrontier
Harris
Ġultras
Ġloads
Pac
Ġoriginate
ĠArts
provided
éĩ
laus
Ġfairy
Ġtackle
Ġwrestling
Ġoccupying
ĠJewish
tics
Ġwart
Ġovershadowed
ĠRodgers
NEY
ĠByrne
eph
Ġlifts
Ġtracts
rieve
Ġinnov
Ġcoroner
Fixed
Ġbetting
ĠHassan
ĠREC
Daily
Fit
Ġmailed
Ġtax
GT
Ġhash
Ġstrawberries
Ġplayer
ĠIw
Ġsmoother
Ġtissues
Ġreopened
ĠElectrical
mable
iott
astical
phrase
Rog
Ġcycling
Ġdownstream
ĠHeadquarters
ÄŁ
ĠProcedures
Ġdict
arna
ohl
Ġstupidity
ĠAvenger
Ġenlightened
ĠGears
ly
Ġrelig
fficiency
thens
ĠYamato
ĠProl
ĠKasich
Ġshenanigans
oning
ĠMassive
Á
Ġnodes
Ġrepeal
Ġfireball
ĠNotwithstanding
ĠConversation
ĠAccordingly
Ġdominated
Ġrefuses
Ġtastes
ĠDisney
iatus
BC
ĠIndeed
row
Disclaimer
auer
ĠUrs
Ġacne
Ġoutstanding
ĠKatrina
ĠRegardless
igated
ĠNETWORK
Ġnylon
Ġchancellor
Spect
agara
ĠDomain
Ġempowering
itimate
ĠCha
Ġindent
Ġdeserted
ĠCSI
Ġrehabilit
ĠDSM
Ġdesperate
Ġsquarely
sb
Ġvictim
dy
ĠGardner
stroke
þ
Ġworkspace
zeb
ĠGranger
thanks
ĠRec
Ġcondition
odd
ĠSOC
ĠMinute
Ġfootprint
ĠHOW
RAY
Ġrepaid
ĠProced
Ġtranssexual
AS
aste
Ġautomation
ĠSere
ĠVeterinary
ĠHonduras
________________________
Ġlady
Ġmature
ĠUPS
Ġwarming
ĠAdditional
abled
Ġturbines
Ġhearty
Ġdissenting
ĠSle
Ðº
ĠPenalty
Ġtutorial
ĠKor
ĠSession
Ret
Ġdrift
Ġpsychedelic
ĠExpect
rule
ĠEfficiency
Ġmuster
Ġshortest
Des
tl
ĠMall
protection
Ġtabl
Ġgithub
ĠVed
////////////////
Ġgadgets
ĠKyoto
Mu
ĠSioux
aud
Ġborder
ĠFlash
Ġpracticing
fs
Ġire
Ġclearer
Ġcameo
Ġisolate
ird
Ġbullish
Ġcustod
ishops
doctoral
Ġspiders
Ġliterature
Ġfacet
ĠProtocol
Ġleaks
488
FU
wrong
Ġconfined
ĠOmni
Cell
iox
ĠFridays
solete
Ġobstacle
Adventure
Ġcenter
ĠPrimordial
Ġreverber
âĵĺ
vl
Ġconce
Details
cially
Ġbushes
Ġbond
ĠMir
builder
Ġimpede
Ġlions
ĠMac
Ġslideshow
Ġphot
combe
Ġended
Ġnutritious
VEN
Ġcarbohydrate
ĠELECT
ichever
thritis
Ġwhether
Ġwaking
Ġtied
orean
iuses
ĠDign
011
Ġraven
ossession
Ġaction
Ġdst
Ġprovocation
mL
Ġworkplace
Ġ2022
ĠGing
Ġfounded
rough
ĠStart
ĠOaks
Ġselection
Ġstudios
Tom
Ġcorpor
Ġanticipated
ACA
ĠVertical
orem
ĠMoff
hof
Ġpractise
Ġdock
agall
ĠArduino
Plex
avement
abolic
Ġtornado
Ġcoined
Ġprey
omorphic
Going
Ġcompile
Ġshockingly
ĠKeys
ĠInvestors
extremely
126
adas
ĠPierre
Ġprove
ĠPepsi
OTHER
ĠLotus
Ġweekly
Ġcatalyst
Ġchallenges
Ġresign
Ġbelieving
ĠWoodward
Ġreasoning
Ġtit
Ġproponent
ĠUtt
ĠRutgers
Ġown
unique
ĠDestroy
lem
ĠSecretary
Ġsounds
oes
Screenshot
Ġhaha
ĠCopper
foundland
Ġ(_
Ġswamp
Ġcapable
cker
Ġfeast
ĠBrewer
ĠInvestig
hap
Ġepis
adj
ym
''
Ġmarry
Ġlayout
ĠAdministration
Ġhotter
poor
ĠFatal
vidia
ĠChile
Ġpav
Cong
Ġok
æĸ¹
Ġlat
Ġcounterpart
manager
ĠRuns
Ġwaters
ĠConor
Ġpens
vy
oud
PLIED
Ġsells
ĠOccup
Ġmanages
Ġstocked
Ġ214
ĠSiri
abases
ĠBeans
ophical
Ġflour
Ġholiday
forestation
ĠCOL
ĠScience
Ġrepe
ovich
Else
Ġhepatitis
levant
tmp
xus
ificial
ĠLove
ĠRevis
Interstitial
ctuary
Ġonlook
urch
odes
Ġsuprem
ĠBowman
Ġviolet
ĠTall
Ġ1907
UME
Ġlongstanding
434
blue
ĠGrey
ĠListen
ĠHut
Ġcere
Ġocc
ĠEverywhere
ĠLover
ĠWeston
Ġreven
ĠHol
mini
ĠNAV
ĠDante
ãĥ¼ãĤ¯
ĠHosp
ĠSocialist
ĠKong
Ġparenting
ALLY
ĠKenya
Ġtarg
ĠRHP
stuff
ĠDET
Ġacquisitions
aign
Ġindecent
Ġmeet
Ġautomatic
Ġprote
Ġice
ĠWIN
ĠDed
concert
ĠRyder
Ġbottled
Ġmisogyn
addon
Ġconverts
Pur
ĠWrite
Ġoccupancy
Ġoverview
ĠInf
ĠWoman
aires
Ġboo
Ġdesktop
Charl
ĠScholar
Ġdiscourage
Ġutopian
mark
Ġobscured
Ġfilming
completely
Ġundoubtedly
pering
Ġspans
Ġbroad
ĠCheap
protected
Cre
Ġdiagonal
Ġquestioning
emb
incoln
Blu
Ġfatig
Fle
ĠFa
ĠPoints
Ġturns
Rated
ĠVote
Ġargue
heng
Ġrendering
Long
Ġordered
ĠTottenham
Ġstormed
Ġdefensively
ĠSTAT
Ġappra
teness
Ġâľĵ
ĠLAST
Ġfirst
ĠSpeedway
Ġ19
Ġundisclosed
ĠTun
Ġmultiplying
Ġdowns
]"
ĠADV
Ġincomprehensible
âĸĪâĸĪâĸĪâĸĪâĸĪâĸĪâĸĪâĸĪ
emporary
Ġlang
ĠPoor
ĠIssue
ke
Ġbomber
Ġremembering
ĠFabric
ubby
Ġfanbase
Ġhypothes
Ġpun
Ġcoaching
Ġdidn
Ġbleak
bishop
Ġoverlooking
ĠSap
Ġdual
intention
ĠWildlife
Ġvertically
ĠIncredible
verb
ĠRequires
Ġvers
Ġrewrite
728
Ġeducating
ĠKristen
Ġbracket
Bro
Ġminimalist
estyle
ĠShopping
ĠFranchise
ille
Ġdivest
519
Ġspoke
ĠGT
ĠMagn
ĠEarl
ulatory
Ġdissatisfaction
683
awatts
ĠRitual
Ġpers
Ġdb
Crit
Ġremoved
iev
ĠMercedes
Ġlabeled
Ġ147
snap
Ġteen
ĠâĢ
Ġrunway
health
kefeller
Â«
worms
ĠDec
channel
Were
ĠDecre
Ġvariation
Cho
BUT
query
linux
Ġrhy
rovers
ĠAC
BIP
ohyd
Ġcriticisms
ĠNi
Ġvacc
ĠToronto
reatment
Directory
ĠByron
ĠLisa
Ġ281
Mary
Ġvoices
Ġbites
ĠOgre
igers
ĠSpectre
Ġwithd
buf
ĠLift
package
Ġreactors
Study
music
Ġcr
ĠIntegration
powerful
ĠTYPE
Ġcmd
Ġsilence
ergy
154
Ġfeminine
Ġmediocre
ĠLuthor
Ġchron
Ġtype
alysis
Ġlevels
DE
Ġwire
ĠStrip
ĠSO
ĠiTunes
ĠWriting
scribe
nesses
Connell
Ġlegislative
ĠTenn
eday
models
Ġvectors
PI
âķ
Ġseeming
emen
Usually
talking
History
Ġscore
ta
rom
ĠSwim
Ġ49
Ber
Ġendured
Ġwing
ĠCoca
mone
ĠPlayoffs
ĠBunny
imar
ĠToad
Ġinvocation
ĠAid
reditary
ĠTechnical
ĠRemastered
Ġnew
ĠBulldogs
July
Ġdisconnected
Ġunderpin
ãĥ£
Ġsaliva
cember
ĠNaples
Ġwife
Ġstorylines
Ġrook
ĠClover
Ġsoothing
Ġbecause
Ġmood
Ġstim
Ġcommentary
Ġprepares
stairs
ĠPh
,''
Ġoccurs
Ġwants
express
ĠHunger
ikawa
bad
ĠKhe
ourning
Travel
fi
Ġvillage
Ġpromo
Ġconfident
Ġfeasible
Ġcrim
Pain
Ġfilling
ĠTHE
Ġorgan
Ġprocessing
Ġrestoring
Ġretaliate
Ġstrands
Ġformatting
ogging
ĠZealand
Ġfinanced
Ar
Ġlots
ĠPod
ĠRamos
Ġpit
Ġmay
erman
Ġnervous
ĠHolocaust
acle
Ġbacker
Ġoutright
Ġterr
onsequ
onis
ĠParallel
Ġdystop
ilyn
Ġship
ibia
Ġtox
ĠInvestment
>>>>>>>>
lations
Ġconscience
flag
Ġtyre
Limited
Ġbasin
Ġanime
257
password
ring
Ġpossessed
Ġartificial
exc
ructose
ãĥĦ
ĠSAT
Ġmagnification
Ġmedal
ĠPK
Ġoverload
Ġcob
ĠWhenever
Ġpromot
ĠNASL
Ġcentered
Ġlottery
Ġhaste
Ġegg
ENCE
acca
Ġhitting
ĠOC
Van
Ġinept
Howard
Ġblessing
Ġveterin
Ġborn
Ġpreached
ĠBed
pin
ĠPayne
Ġworries
ĠSachs
vv
xxx
Ġauxiliary
Ġgreedy
inging
Ġlent
ĠWrap
Ġtheorem
>[
Ġadv
ĠGor
Ġmultiplayer
Neigh
ispers
going
Ġurgency
William
ĠIGN
Ġwasteful
Roman
Ġwhole
vere
ISION
ĠFar
inite
ĠAmph
Ġsovereign
Metro
ARB
buff
Ġhard
Ġtreats
Ġfuels
ĠJord
Ġmoment
Bob
hands
Ġworth
amd
Path
Ġtraits
ĠHidden
ĠBJP
ĠIncluded
ĠErn
anche
ĠMode
Ġsedan
ĠWilmington
Sword
comed
652
Ġdwellings
Ġyields
ĠXIV
Ġremotely
Ġspec
Ġbackups
nob
Ġsandbox
Ġranging
ĠDefeat
ĠResistance
gencies
Studies
bags
ĠCon
Ġ26
Ġadject
ĠMalta
aming
Ġhomeowner
Ġconserv
ĠDreams
Ġlowly
umatic
Ġentertain
Ġbug
Ġruntime
Ġunderground
attack
ĠClone
ĠSOLD
uct
×©
xton
Ġ2001
Ġshrouded
ĠPiet
Ġcriminally
Ġexpression
laden
Ġtempered
Ġpreclude
Ġunsuccessful
Ġsubdivision
Ġâĺħ
ĠJosh
Ġplaintiff
avis
ĠCassidy
Ġmisinformation
ĠHighland
Ġseism
Ġdaddy
ERSON
ĠWhite
fly
ui
ĠHyd
ĠLieberman
aram
ĠGauntlet
'?
Ġwinning
ĠSeveral
Menu
Ġgenuine
oppy
Ġbeach
person
ĠStephanie
addy
oke
âĢ¦âĢ¦âĢ¦âĢ¦âĢ¦âĢ¦âĢ¦âĢ¦
Ġeste
Ġafore
Ġinfluences
Ġvisiting
ĠGuantanamo
lah
ĠBarbar
Ġanguish
Ġ',
Ġboots
Ġsophisticated
ĠAgain
Ġhey
ĠLiving
ĠWynne
Ġdecided
ĠBR
Ã±o
Ġproportion
ĠChak
Ġphones
asses
Ġhose
Ġmilitary
ĠAviation
when
----------
gpu
ĠCitation
ĠVOL
ĠPhillips
alore
ĠYosemite
Ġexplos
389
abbling
ĠGrad
atta
Ġsemantic
Ġshook
ĠStack
Ġfiasco
ĠMorty
Ġlect
ĠGallery
³
Ġstamped
Ġdisciplines
Very
rr
ĠJi
ĠCraw
Tal
ĠDivision
ĠRefresh
aunting
Ġrushed
zan
Ġtranslator
AF
Ġratios
Ġain
Ġunilateral
Ġdisgr
Ġintra
Ġabnormal
ĠIm
competitive
Marie
Ġflips
Ġblah
eson
Ġbolst
avin
Ġcriticized
Ġdove
ĠYong
Ġdialog
Ġscoreboard
Ġocean
Golden
ĠSailor
ĠHogwarts
ĠGUN
Resource
Ġlump
ĠEchoes
Ġexhib
crete
âĢĵâĢĵ
specific
retch
individual
Ġquotation
c
Ġclocks
ĠRex
Ġnetworks
ĠEc
Ġlikened
Ġinventive
Ġthen
Ġhighly
uper
ĠAlexandria
scene
Ġscramble
berman
ĠAutob
tymology
agame
Ġeleph
ĠQC
Released
hetically
ĠNazi
mitt
izes
ĠRobinson
Ġreduction
Ġoutrage
ifle
Ġentail
ĠBened
ĠJamie
ĠRefugee
ĠHaven
ĠRelated
Ġstern
Ġcourthouse
Ġjuvenile
uke
ĠMarlins
non
des
ĠColonel
Ġdiscreet
hm
Ġunrem
imize
Ġopportunity
ĠScal
ãĤ¦
ters
Ġcapital
Ġmaple
Ġ176
Ġbehest
Ġposterior
Ġxen
Ġmodels
isol
ĠCrimea
vasive
Ð
,,
finished
ĠArmored
Ġstatue
GS
ãĢģ
Ġale
Ġrecession
Ġrelatively
ĠAndromeda
Ġenter
ĠSaturn
Mexico
aceae
Ġentitle
É
Ġtransmitter
ĠAlso
ovan
Ġspoil
Ġregener
Ġorganizations
Ġinteract
PE
Ġmot
Ġmaneuver
ĠPwr
ĠWein
ĠJames
ĠBenef
Ġinflated
Ġrestores
ĠDirectory
class
Ġhostage
ICA
528
Ġexploit
Ġpainfully
Ġperverse
Ġdogma
ĠPaleo
acey
Ġprompting
Ġwind
hip
Ġ276
Ġdeprecated
Ġannouncement
Ġpresumably
laugh
ishy
ongevity
Ġhydro
Ġ85
Ġescaping
Ġdismantled
Ġast
ĠCroatian
Behind
ĠAristotle
ĠZionism
Theme
UX
olf
Ġinsurgent
storms
IVE
Ġmull
rich
Ġcollision
ĠMonster
Ġray
Ġlid
ĠGalaxy
ylene
ification
Mal
zin
Ġanomalies
ĠApost
Kansas
OX
ĠRodham
caps
ĠATI
ĠÃ¾
Ġbiod
around
ĠCase
roads
Ġamusing
ĠEth
Ġsilly
Ġpengu
laun
Allows
ĠNCT
Ġcontagious
chal
Ġrat
Ġsynthetic
Ġknot
Ġwider
ulu
Ġlumber
ĠCoh
Ġdiligent
rient
Lev
ĠSync
ĠCompass
ĠDupl
Ġblacks
Ġvalidity
Ø
Ñĭ
Ġslut
Ġbehavior
September
ĠMaurice
Ġmeasurable
Ġexposed
ĠFeminist
Ġspearheaded
Catal
ĠRobert
ĠNiger
Ġjog
Ġhomosexuality
1988
hetamine
tt
Ġmod
icio
Ġ178
ĠOvert
andom
Ġdestinations
iction
ĠProcess
Ġswift
didn
Ġ369
delete
="/
Ġspreading
ĠAssist
achy
Ġkitchens
Ġstores
Ġconfused
Ġevid
Ĥ¬
Ġkey
Ġconsolidated
chuk
Ġpacked
ĠJenkins
ĠSemi
Ġnovice
Ġrel
ĠMald
ĠBEN
Lic
Hide
Ġtreat
Ġsulf
eeks
Ġeman
Ġanalysed
Ġpupil
Ġbrazen
Ġconsuming
Ġfully
Ġmisunderstanding
ancel
Ġcargo
Featured
Ġstruggling
Ġarbitration
ĠRoad
ised
Ġdiscounted
Ġredeem
Ġpts
ĠPride
Ġnoticed
CG
Ġlips
Color
disable
Ġsending
Īè
ilitary
Ġundefined
FactoryReloaded
ĠSheriff
Ġcomprehensive
Ġath
Admin
ipers
ĠFRE
Ġwhere
ĠORDER
Den
Ġachie
bus
ĠINFORMATION
Ġliter
Ĥª
ext
ĠWick
Apple
ĠDare
EED
amina
much
Ġexists
ĠLands
Key
ĠHobby
olics
Ġhigher
ĠID
ĠWenger
Miami
ID
rehensible
Ġremoval
Ġ''
Ġchampagne
Ġprolong
ĠExtrem
"],"
Getting
Ġlandmarks
Ġpollution
Ġdeems
ĠYoutube
ĠGuys
uk
down
Tem
Ġneon
Ġ1980
Ġfinances
ĠCre
Ġwoo
Ġfullback
Ġshuts
Ġwhispers
ew
Ġtweeting
iffe
ĠCommentary
ws
ĠNRA
ocumented
Ġven
utation
attery
400
SCP
âĶĢâĶĢ
lime
ĠPra
Ġgoverned
Ġaim
Ġoptimize
ĠSuite
Ġmodules
ĠLoud
Ġneut
ĠThy
ĠAliens
ĠColumb
Ġdeficits
ĠUnivers
Ġvow
Ġunconsciously
Ġraising
Ġdisgrace
Ġharrowing
Ġevaluates
Ġinserting
Ġgraphic
arbon
Ġsnipers
Ġmelanch
Ġfortress
ĠEvidence
ĠINF
itizen
ionics
south
ĠHorror
Ġdiseases
Val
audio
urb
Ġvis
ĠGrain
Apart
shapeshifter
Father
Ġfigured
Ġsurreal
Ġmaternal
Ġchoke
Ġbenefits
Ġengage
V
Ġthigh
330
Ġpart
Ġinsensitive
elia
ĠEternal
Ġado
Ġlosers
Ġcollar
ĠIncident
ĠCooper
Ġhypocritical
ĠLys
ĠMultiple
438
hetical
ĠCameroon
Ġillustration
ĠNatasha
Ġcruelty
ithing
owner
ĠIPv
Event
esthesia
eus
Ġimplicitly
Ġcor
comm
Bang
ĠGloves
"...
Ġcaption
ellen
Ġconcentrate
cule
+=
ureen
Ġtherap
imer
Ġdances
Ġslots
Ġpersists
Ġox
ocrates
]);
ĠNamed
Ġtunnel
vu
Ġdeceived
Ġgeometric
Ġwelf
Ġframework
Ġtestimony
isance
manufact
Ġcommute
Ġnav
Ġversions
Ġaffiliated
Ġleaf
Ġbachelor
Ġhunger
Ġcovers
Christian
Ġspeak
isco
Ġcommunications
Ġunaff
Ġdenying
Ab
Ġvaccines
ĠScalia
Ġbruised
Ġroy
Ġconverge
Ġgu
ĠHonolulu
ĠWolfgang
Aren
Ġorthodox
Ġbuying
ĠBatman
olutions
EXP
regon
ĠRoosevelt
namese
oided
Ġoddly
ĠSerie
Ġconnection
La
ĠCarnage
Ġscan
performance
ĠViktor
Ġentity
Ġcorrespond
ASON
261
Ġforget
having
UAL
ĠYORK
ĠGone
Ġprophe
ĠSubscribe
Small
Palest
ĠHonest
âĸĪâĸĪ
kas
ãģ®é
ĠMetro
ĠMoscow
ĠKurt
Ġfashioned
Ġconfirmed
Ġwartime
Ġdiv
itan
orbit
570
ĠBuddhism
intestinal
ĠSanctuary
Draft
Ġunintentional
Bit
Ġbeetle
ĠPOLITICO
Ġchest
888
Ġfilmmaking
Ġclosed
ĠPhil
Ġbin
Ġabduct
ĠFires
ĠChase
flame
ĠSinai
Ġremarks
ĠOsborne
Ġbios
Kn
ĠHeart
wealth
ĠTee
Ġultraviolet
pit
Ġaeros
ĠSet
Ġneighbourhood
Ġimage
oe
Ġwhereas
Ġwillingness
Ġdownfall
ĠEverest
Ġglory
Ġlodging
ĠSl
ĠBirch
Ġbras
Ġvideog
Ġredeemed
Ġsubt
ĠFla
1975
gres
ravis
ĠSaturday
ĠForgotten
ĠTopics
ĠChecks
Ġdrawing
Ġdirecting
Ġtribute
after
ĠZen
ĠExamples
Ġintest
ĠDesire
Ġware
Ġsituated
uchi
ĠWho
Ġpunk
aqu
ĠPrivate
steps
Vision
795
hemer
instance
Mis
ĠFinally
ĠAub
ĠWid
ĠPossibly
ć
onies
Sep
Ġworms
Ġclam
Ġabsentee
ĠTammy
ĠAllies
On
Ġprofession
306
Ġlonger
Ġretina
Ġproposals
Ġsimulations
Ġavailability
ĠRae
Ġcompanies
Ġjoyful
ube
Ġtongue
Ġmut
Ġunc
Ġfrig
Ġiceberg
Ġcomposure
orp
Ġlifeless
ĠLiverpool
ĠGreat
ĠLana
ĠMaiden
Ġheav
:/
ĠAVG
ĠAdin
Ġcycle
Ġunderstatement
Ġanalyze
evil
ĠRasm
ĠKan
VC
uctive
ĠRather
Conn
Ġuncomp
Ġdisadvantaged
girls
dump
Ġmatches
coded
Ġbench
})
ĠBeyon
Ġdeals
eers
Ġdose
Ġ2009
Ġeditors
er
ĠUp
Ġpolarization
Ġmetabolic
Pack
Ġwrites
Ġpearl
Ġjer
Ġft
Ġinsulin
campus
ossip
meal
ĠPsychological
Ġindexed
all
Ġtilt
ihar
ĠThings
Ġ550
iliation
782
ĠGonz
Pict
acus
Ġintimid
ginx
ĠMillion
ĠExtensions
Ġvowel
fax
Ġour
Ġquoted
ĠFiscal
Ġlic
Ġslid
ĠForced
righteous
escape
Minimum
Ġnotebook
ĠXCOM
Ġpardon
ĠBorg
Ġdoomed
Amazing
ĠQuest
Ġ432
ĠDungeons
Ġherb
greSQL
Leod
Phill
train
Ġ500
Ġsad
Ġmechanical
Ġmimic
Ġmicrowave
Ġvaliant
ics
Ġmemory
Cl
ĠCommunications
Ġaffect
Ġhighways
SI
eker
ĠInjury
arijuana
ĠJohnson
ĠKR
aleb
Ġformal
ĠTune
thur
abee
$
Ġposes
Ġreplen
ĠTHEM
Ġinsanely
Ġconsultants
ĠJUST
inas
Ġsupplements
ĠGTA
ĠTIM
Good
ĠBaron
Ġslur
Delete
ÏĦ
Ġresembling
orc
ĠWorst
ĠSummer
ao
brook
Bo
Ġdirects
ft
Ġcirculating
ĠReligion
ĠFountain
Ġprope
Ġstaffers
Ġinsurrection
Dial
agog
ebted
sign
ĠAbdul
ĠNorthwestern
Ġbumper
DJ
Ġbri
Ġsparked
Ġunfolded
Ġsurvival
Ġnewspaper
107
Ġpounding
ameless
ĠCapcom
Ġcreation
ĠFitz
ĠAssange
Ġhierarch
random
Ġsadness
Ġnotwithstanding
Ġnep
ĠâĪ¼
Ġvigilante
Ġracists
ĠGeneric
IRC
BALL
ĠInstruments
ĠChim
ĠiT
ĠColeman
Ġquad
Ġhate
Ġconcept
Ġremix
Ġ1024
alon
Ġsarc
Ġpaving
ĠPrescott
Ġaiding
itatively
idy
alsh
ĠJerry
ĠCountry
Ġmulti
ĠNewton
Ġestablished
Ġcrack
ĠScouting
Ġko
191
Ġpedal
Ġballet
ĠJP
Ġweave
step
Ġrushes
Ġassassin
Ġacknowledgment
Ġdestined
complex
Ġbeings
Ġwalks
ĠML
Ġreceivers
335
Ġconvergence
Ġpredicament
ĠVeg
Ġsomebody
Ġtha
http
ĠLevy
Ġprogramme
588
Ġoff
ĠAAC
ollower
ĠChristians
ĠSeries
erers
aciously
alis
array
Ġabstraction
ominium
Ġhikes
onne
Ġtid
phase
cells
colonial
Syn
ĠZer
utral
~~~~~~~~
aiden
Ġturbulence
394
ĠLAN
Ġtwins
aying
ancy
ĠPoint
inf
Ġacknowled
artz
ĠTry
ĠEthiopian
229
Ġlocale
Ġsacr
Ġfledgling
ĠKoen
ĠRookie
Ġbasement
.""
hel
Ġblinked
Ġacids
Ġadolescence
ators
WARE
ĠOverview
Ġ777
Of
ARA
Ġschool
utations
assembly
ridor
Ġpatriot
Ġexpenses
ĠSep
KO
525
Ġph
proof
ĠSamp
ylan
cliffe
ĠNorse
Ġmotherboard
Ġ490
Ġpoetic
Ġfractured
ĠDU
Ġperman
date
Ġdangling
ĠNathaniel
ĠKeep
Ġprep
Ġ93
Ġkeeps
ĠMarket
pointer
battle
ENC
Bey
Ġchar
ĠPow
Ġdetector
Ġfilibuster
YD
Ġsubsection
Ġfaction
ĠASAP
ĠCombat
Ġ88
Ġdesigning
ĠDixon
ĠTimothy
Ġfortunes
ĠRAF
Ġaltercation
ĠDetection
ĠChemical
Ġendeavor
Ġju
ĠCater
Ġludicrous
Ġdump
Ġrebirth
âĻ
Ġjava
Container
ĠClarke
Ġdegener
ĠThing
å¤§
ĠBristol
Ġresponsive
Ġram
hun
ĠTub
Ġpessim
ĠChronicles
intensive
Ġboot
ĠHolt
Ġpolio
Crunch
Ġharbor
Ġbutterfly
ĠStrikes
ĠCircus
ĠLust
album
ished
ĠDemocr
Ġobjective
walk
Ġvacations
Ġenchant
types
ĠHans
ĠPassed
ĠBugs
ĠLawyers
Desc
530
Ġvividly
Ġcarriage
flows
Ġmoreover
Ġexcessive
Reb
ĠSt
Ġexpansions
Ġrespect
ĠBaz
sweet
ĠNope
mast
becue
ĠZoro
iameter
stood
ĠCookies
Ġextremism
Ġbrokers
Ġencounters
Ġrevered
ĠAnk
Ġsynchronized
ĠTeen
Ġpremise
ĠExam
ies
offer
Ġprovoking
0100
ĠEight
Ġstarting
Ġanimated
Ġfingertips
Ġconvinced
Ġ===
ĠReuters
ĠRussian
Ġclaimed
284
horse
ĠElect
Ġpitcher
ĠInnov
Ġrefers
Ġamend
Ġresembled
ĠThousand
CF
esters
Ġbriefly
constitutional
Unknown
,-
)].
ĠHannah
Ġdisgu
ĠProduct
atri
ocytes
mal
Ġpediatric
ĠPru
Ġloaded
ĠRept
Cry
Represent
stros
ĠBecky
Rem
Ġfiled
ĠJail
Ġaggressively
Ġplanners
Narr
Ġcave
[...]
